<unk>	0
<s>	0
</s>	0
▁ya	-3.13405
▁wa	-3.37405
▁na	-3.40696
.	-3.54199
,	-3.56662
▁kwa	-4.19046
▁katika	-4.76253
▁ni	-4.77847
▁za	-4.89986
▁la	-4.97322
▁kuwa	-5.16536
▁(	-5.47645
▁cha	-5.49008
▁YA	-5.62613
)	-5.6827
▁	-5.72462
▁kwenye	-5.84813
▁hiyo	-5.8622
▁kama	-5.90686
▁ku	-5.93547
▁WA	-6.00046
:	-6.03016
...	-6.03469
▁ili	-6.09832
▁vya	-6.15513
▁yake	-6.17621
▁Tanzania	-6.17742
ni	-6.18532
▁watu	-6.2629
▁mwaka	-6.26961
▁zaidi	-6.32098
▁Rais	-6.3225
▁wakati	-6.32775
▁baada	-6.33493
▁kutoka	-6.33622
▁kwamba	-6.35894
▁Mkuu	-6.36065
▁nchini	-6.38698
wa	-6.40167
▁wake	-6.40376
▁hii	-6.40934
i	-6.41312
?	-6.45326
▁huo	-6.47246
▁au	-6.49327
▁moja	-6.49964
a	-6.51771
▁nchi	-6.52161
▁Kwa	-6.55357
▁pamoja	-6.55411
▁NA	-6.55894
▁siku	-6.58741
▁Waziri	-6.60211
-	-6.60575
▁sana	-6.62193
▁tu	-6.63234
s	-6.64229
▁kazi	-6.64309
▁hilo	-6.64486
na	-6.65386
▁“	-6.65554
▁hivyo	-6.66049
▁sasa	-6.69819
▁Dar	-6.72586
▁kila	-6.7288
m	-6.73409
▁leo	-6.74962
▁M	-6.75661
▁pia	-6.75699
ji	-6.76651
▁habari	-6.77309
▁wana	-6.77324
▁huu	-6.78048
o	-6.79316
▁ambayo	-6.79781
▁juu	-6.79825
▁ina	-6.80902
▁lakini	-6.81168
▁Serikali	-6.81916
▁Mungu	-6.82862
▁es	-6.83356
▁Na	-6.83503
▁alisema	-6.83512
▁U	-6.84813
▁-	-6.86013
▁ana	-6.88313
▁kufanya	-6.88417
▁A	-6.88885
▁ali	-6.89123
▁u	-6.90073
▁mara	-6.90441
▁ambao	-6.94784
▁mmoja	-6.95022
▁hayo	-6.9578
▁kuhusu	-6.96341
▁Afrika	-6.97158
▁ajili	-6.98566
▁a	-6.98705
▁miaka	-6.98786
▁mbalimbali	-7.00063
▁mtu	-7.00613
!	-7.01118
▁wananchi	-7.02515
▁yao	-7.0287
▁ame	-7.03728
▁serikali	-7.04021
▁hata	-7.04568
ki	-7.05362
;	-7.05601
▁Ku	-7.05786
▁Salaam	-7.06427
▁ndani	-7.08244
u	-7.0877
▁kubwa	-7.08957
▁Wa	-7.09206
▁huyo	-7.09637
▁hali	-7.10603
▁hapa	-7.11219
▁kwanza	-7.11809
e	-7.13193
▁ime	-7.13337
▁sababu	-7.1351
▁KWA	-7.15245
li	-7.16299
▁"	-7.16829
zi	-7.16881
▁kati	-7.17297
▁wao	-7.18265
▁una	-7.19058
▁muda	-7.19369
▁ambaye	-7.19523
▁wame	-7.1988
▁Habari	-7.19897
ka	-7.1997
▁wote	-7.2014
▁kuna	-7.21597
▁Katika	-7.23168
▁kutoa	-7.23792
ku	-7.23814
▁yako	-7.25844
▁Ni	-7.26417
▁_	-7.26658
▁mambo	-7.26797
),	-7.27251
ke	-7.27281
▁hao	-7.27423
▁kupata	-7.27584
ma	-7.28119
▁ambapo	-7.28449
▁m	-7.29299
▁hizo	-7.29874
▁CCM	-7.3041
la	-7.30601
▁maisha	-7.30696
▁taarifa	-7.31031
▁Taifa	-7.31313
▁walio	-7.31329
▁wengi	-7.31521
A	-7.31633
▁jijini	-7.32068
’	-7.32383
▁Zanzibar	-7.32417
▁yetu	-7.33129
▁si	-7.33871
▁aki	-7.34113
▁Dkt	-7.35359
▁kutokana	-7.35535
▁kupitia	-7.3602
le	-7.36223
▁amesema	-7.36262
▁nje	-7.3758
▁wali	-7.38558
▁huduma	-7.38976
▁hadi	-7.39456
▁hu	-7.39775
ko	-7.40395
▁chini	-7.40577
▁dhidi	-7.40722
▁hatua	-7.40829
▁nafasi	-7.41261
▁Mhe	-7.41957
▁bila	-7.42037
▁akiwa	-7.42169
▁zao	-7.42209
▁mpya	-7.42329
▁ki	-7.42792
▁Mwenyekiti	-7.42922
▁viongozi	-7.43031
▁fedha	-7.4334
▁Muungano	-7.4394
▁maana	-7.44062
▁mwa	-7.44553
▁baadhi	-7.44604
▁hicho	-7.45202
▁ZA	-7.45394
▁wetu	-7.45397
▁hivi	-7.45855
▁hili	-7.46098
▁Ya	-7.47066
▁watoto	-7.47229
▁chama	-7.47273
▁LA	-7.48169
si	-7.48316
▁eneo	-7.49181
▁Magufuli	-7.49965
ya	-7.50433
▁Jamhuri	-7.50788
▁2018	-7.50797
▁jambo	-7.51243
▁mkuu	-7.51555
▁...	-7.51664
▁Mkoa	-7.51772
▁Ki	-7.5208
tu	-7.52181
▁wengine	-7.52267
▁njia	-7.52317
▁jana	-7.5269
▁hapo	-7.52915
▁wenye	-7.52922
▁waki	-7.53218
ta	-7.5324
▁zote	-7.53321
n	-7.5574
▁Umoja	-7.5679
ra	-7.56814
▁haki	-7.57109
▁Katibu	-7.58027
▁Ma	-7.581
▁Marekani	-7.58141
sha	-7.58272
▁timu	-7.58306
▁kuu	-7.58389
▁Wizara	-7.58755
M	-7.58755
po	-7.59064
▁kabla	-7.59219
mu	-7.5929
▁sehemu	-7.59637
▁zake	-7.5972
▁kweli	-7.60126
/	-7.6076
▁mkutano	-7.6078
▁alikuwa	-7.61188
ti	-7.61342
▁ma	-7.62412
▁huku	-7.62584
▁kum	-7.6264
▁CHA	-7.6265
▁kutumia	-7.62906
▁,	-7.63587
▁uchaguzi	-7.63744
▁sheria	-7.63752
▁I	-7.64094
▁wanao	-7.65437
fu	-7.65472
▁mjini	-7.66074
▁ndio	-7.66291
▁Mkurugenzi	-7.66326
▁haya	-7.66383
▁ume	-7.6649
we	-7.666
▁maeneo	-7.66926
▁muhimu	-7.67207
▁yote	-7.67216
▁jamii	-7.67338
▁mchezo	-7.67785
▁Mheshimiwa	-7.6779
t	-7.67853
'	-7.67979
fanya	-7.68531
▁John	-7.68699
▁tuna	-7.69703
▁maji	-7.7051
▁KU	-7.70652
▁mbali	-7.70657
▁bora	-7.70718
▁Wilaya	-7.7135
▁nyingi	-7.71546
▁nyingine	-7.71623
▁iliyo	-7.71813
▁elimu	-7.72049
▁‘	-7.72727
ri	-7.72856
▁aliye	-7.72881
▁Naibu	-7.73165
▁picha	-7.73284
▁kitu	-7.73878
▁simu	-7.7442
▁mbili	-7.7445
lo	-7.7448
▁mkubwa	-7.74923
▁maendeleo	-7.74972
▁ikiwa	-7.74978
▁Dk	-7.7539
▁kui	-7.75799
za	-7.76103
).	-7.77467
▁Bunge	-7.77579
k	-7.77925
▁pili	-7.78565
”	-7.78659
▁kipindi	-7.79536
toa	-7.7986
▁taifa	-7.79902
▁shule	-7.79953
▁kabisa	-7.80044
U	-7.80988
▁nini	-7.81005
▁bado	-7.81248
▁inayo	-7.81599
y	-7.81614
▁tena	-7.81895
▁i	-7.83415
▁yangu	-7.83968
▁Kenya	-7.84469
"	-7.84496
▁kwenda	-7.84631
▁biashara	-7.84868
▁ambazo	-7.85551
S	-7.85944
l	-7.86487
▁mbele	-7.87539
▁upande	-7.87976
▁mwisho	-7.8817
▁Chama	-7.8825
▁HAPA	-7.88251
▁mwenye	-7.88337
▁ita	-7.88443
▁vijana	-7.88461
▁mwezi	-7.88476
▁nguvu	-7.88852
▁uwezo	-7.89095
sa	-7.89126
▁wewe	-7.89263
▁wanafunzi	-7.89415
▁kwani	-7.89745
▁Kuu	-7.89794
h	-7.90209
▁mkoani	-7.90378
▁wako	-7.90667
te	-7.90792
▁kura	-7.91347
▁akizungumza	-7.91366
▁kiasi	-7.9142
▁Je	-7.91453
▁Ofisi	-7.91673
▁ata	-7.91847
▁yenye	-7.92342
▁10	-7.92688
▁aina	-7.92703
pata	-7.92875
▁hasa	-7.9335
r	-7.93462
▁aka	-7.93854
▁mkoa	-7.94044
▁vile	-7.94117
▁tayari	-7.94507
▁tofauti	-7.95775
▁tarehe	-7.95985
▁hawa	-7.95991
▁tatu	-7.96178
▁Ali	-7.96543
▁Hata	-7.96736
▁afya	-7.97024
▁S	-7.9799
▁gani	-7.98046
▁duniani	-7.98186
ja	-7.98313
▁zina	-7.98353
▁2017	-7.98491
▁msingi	-7.98501
▁matumizi	-7.98579
▁basi	-7.98792
▁Polisi	-7.9922
▁Mashariki	-7.99271
nga	-7.99272
kuwa	-7.99446
re	-7.99584
(	-7.99587
▁saa	-7.99743
▁uta	-8.00031
,”	-8.00126
▁yeye	-8.00504
ne	-8.00651
▁namna	-8.00848
weza	-8.00998
▁Dodoma	-8.01028
▁Alisema	-8.01154
▁Jamii	-8.01159
▁hizi	-8.01543
▁wilaya	-8.01758
▁wakiwa	-8.01819
▁uliopita	-8.01956
▁mtoto	-8.02021
▁mpaka	-8.02075
▁Lakini	-8.02127
▁suala	-8.02283
▁Kama	-8.024
▁Nchi	-8.0257
mo	-8.02634
▁wiki	-8.02766
▁huko	-8.02992
▁kina	-8.0314
▁Mataifa	-8.03161
▁Maendeleo	-8.03253
▁kampuni	-8.03509
d	-8.0379
▁wata	-8.04508
▁dunia	-8.04796
di	-8.04893
▁mimi	-8.05688
yo	-8.05785
▁hakuna	-8.05844
me	-8.05885
▁lina	-8.05986
▁Baraza	-8.06065
ba	-8.06117
▁Kikwete	-8.06184
▁vizuri	-8.07016
▁2	-8.07099
▁kuhakikisha	-8.07265
▁Yesu	-8.07331
to	-8.07359
▁Bw	-8.07402
▁KATIKA	-8.0759
ro	-8.08012
pa	-8.09223
zo	-8.09232
▁lazima	-8.09327
▁wale	-8.09467
▁rasmi	-8.09674
▁polisi	-8.09784
▁nyumba	-8.09839
▁asilimia	-8.09948
▁milioni	-8.10075
▁wanawake	-8.10265
▁uli	-8.10578
▁Matukio	-8.1074
▁Hii	-8.11096
▁shughuli	-8.11602
mi	-8.11743
▁jina	-8.11944
▁kusema	-8.12421
▁Spika	-8.12741
▁MATOKEO	-8.1283
▁HABARI	-8.12837
▁lime	-8.12845
▁1	-8.1289
▁Ka	-8.1323
▁ndiyo	-8.13352
ga	-8.1366
▁mujibu	-8.13717
▁ambalo	-8.13875
▁tangu	-8.13978
I	-8.14024
▁mama	-8.14054
▁sio	-8.14124
▁Mbunge	-8.14181
▁jinsi	-8.14222
▁RAIS	-8.14346
▁kawaida	-8.14478
▁zilizo	-8.14515
▁karibu	-8.14543
▁ujenzi	-8.14557
▁tatizo	-8.14595
▁rais	-8.15347
▁Afya	-8.15638
▁mengi	-8.15838
▁mkono	-8.15921
sema	-8.15982
▁Kusini	-8.16257
▁E	-8.1629
▁waandishi	-8.16457
▁vyombo	-8.16581
no	-8.1686
▁Makamu	-8.17303
▁ilikuwa	-8.17379
▁matokeo	-8.17484
▁Mambo	-8.17786
b	-8.17926
▁mazingira	-8.18106
▁–	-8.18155
▁Halmashauri	-8.1828
▁zime	-8.18485
N	-8.18714
anza	-8.18825
T	-8.18849
P	-8.1896
▁3	-8.19009
▁kuanza	-8.19043
je	-8.19222
▁zinazo	-8.19415
▁kuendelea	-8.19886
B	-8.20271
▁karibuni	-8.20299
▁Kamati	-8.20323
taka	-8.20339
co	-8.20342
O	-8.20531
da	-8.20775
.”	-8.20861
▁lengo	-8.20862
▁kuongeza	-8.2092
▁kwake	-8.20961
▁Mapinduzi	-8.21509
▁iki	-8.21647
▁mji	-8.2196
▁ziara	-8.22113
▁Jeshi	-8.22165
▁masuala	-8.22178
▁nyumbani	-8.22226
C	-8.22419
▁mengine	-8.22493
▁5	-8.22658
ona	-8.22714
▁mfumo	-8.22932
▁vi	-8.22991
com	-8.24028
▁Pombe	-8.24247
▁mechi	-8.24355
▁tume	-8.24664
wi	-8.24918
vi	-8.24953
▁amani	-8.25162
▁Baada	-8.25276
▁K	-8.25582
▁usalama	-8.25826
WA	-8.25841
▁kimataifa	-8.26059
▁Simba	-8.26355
▁ulio	-8.26449
▁mwingine	-8.2645
▁Cha	-8.26465
▁Chuo	-8.26534
▁sisi	-8.26583
ha	-8.26692
▁umri	-8.26803
▁O	-8.27064
▁C	-8.27093
▁Kiswahili	-8.27208
▁wangu	-8.27426
▁vita	-8.27745
▁fursa	-8.28006
vu	-8.28421
▁mradi	-8.28491
▁changamoto	-8.28674
▁Shirika	-8.28892
▁mpango	-8.29049
▁nzuri	-8.29099
▁sekta	-8.29195
D	-8.29359
▁yoyote	-8.2937
▁kuona	-8.29409
tumia	-8.29488
NI	-8.29886
▁kuanzia	-8.3008
▁yaliyo	-8.30331
mba	-8.30763
▁wala	-8.3106
▁Leo	-8.31115
▁mafunzo	-8.31243
c	-8.31618
▁makubwa	-8.31905
▁Taarifa	-8.32182
▁wazi	-8.32245
bi	-8.32289
▁/	-8.32505
▁ndege	-8.32642
w	-8.3294
▁michezo	-8.33046
▁unaweza	-8.33223
▁zetu	-8.33432
▁yanayo	-8.33452
▁tukio	-8.34029
▁hiki	-8.34166
▁unao	-8.34171
▁4	-8.34173
▁Elimu	-8.34541
▁yana	-8.34755
▁anaye	-8.3476
▁klabu	-8.34761
▁Balozi	-8.34791
▁maoni	-8.34794
▁familia	-8.34798
fa	-8.34848
▁Arusha	-8.35055
ye	-8.35072
▁T	-8.3514
▁20	-8.35669
▁kuliko	-8.3588
▁mfano	-8.35966
kwa	-8.36169
▁Wakati	-8.36345
▁umma	-8.36355
▁salaam	-8.36569
▁Watanzania	-8.36638
▁lake	-8.36823
▁kituo	-8.372
▁maelezo	-8.37202
▁Tume	-8.37271
▁uchumi	-8.37348
▁NI	-8.37427
▁pale	-8.37436
▁Aidha	-8.3748
▁siasa	-8.37667
▁Watu	-8.378
▁walikuwa	-8.37824
▁.	-8.37975
▁kuji	-8.37995
▁Uhuru	-8.38142
▁MKUU	-8.38202
▁sawa	-8.38314
▁B	-8.3834
▁LEO	-8.38387
▁uki	-8.38396
▁uongozi	-8.38537
▁Bwana	-8.38711
cha	-8.38897
▁TANZANIA	-8.39088
▁Picha	-8.39089
▁Bi	-8.39292
▁mrefu	-8.39338
▁kuli	-8.39345
▁19	-8.39355
▁kuto	-8.39543
▁kuweka	-8.39713
▁uwanja	-8.39744
▁kundi	-8.3975
▁Yanga	-8.39764
▁mwanamke	-8.39815
▁lugha	-8.39887
bu	-8.39926
go	-8.39928
▁Kimataifa	-8.40123
▁mabadiliko	-8.40178
MA	-8.40375
ng	-8.4053
▁taasisi	-8.40693
▁ka	-8.40979
▁mtandao	-8.41192
▁50	-8.41672
▁Pia	-8.41674
▁binafsi	-8.42107
G	-8.42961
▁bali	-8.43197
▁Sera	-8.43248
▁'	-8.43365
▁Ulaya	-8.4374
▁kiwango	-8.44192
▁15	-8.44239
p	-8.44246
▁umeme	-8.44352
▁dawa	-8.44509
pe	-8.44516
▁11	-8.44605
▁ile	-8.44709
▁12	-8.44726
▁zamani	-8.44914
F	-8.45028
▁nne	-8.45065
▁Katiba	-8.451
▁msaada	-8.45299
▁N	-8.45327
▁vyama	-8.45406
▁tovuti	-8.4547
▁Sheria	-8.45665
ru	-8.46041
▁wadau	-8.46084
K	-8.46489
▁miongoni	-8.46491
▁ukweli	-8.46516
▁DW	-8.46532
▁humo	-8.46883
shi	-8.47239
▁WAZIRI	-8.47395
▁Ligi	-8.4807
▁Mwaka	-8.48079
▁La	-8.48284
▁kijamii	-8.48296
▁mbaya	-8.48396
▁Uchaguzi	-8.48398
▁huwa	-8.48669
▁mazungumzo	-8.49036
▁Uwanja	-8.49134
▁matatizo	-8.49265
▁kadhaa	-8.49295
▁usiku	-8.49388
▁kujenga	-8.49433
▁kikao	-8.49541
▁ndoa	-8.49732
▁idadi	-8.49841
E	-8.50066
▁alipo	-8.50087
▁ujumbe	-8.50117
hi	-8.50141
R	-8.50187
▁Mwanza	-8.50446
amini	-8.50448
▁kiongozi	-8.50617
▁barabara	-8.50643
▁Siku	-8.50806
▁ofisi	-8.51038
▁Mawasiliano	-8.51361
@	-8.51717
▁kufikia	-8.51798
▁kisiasa	-8.5183
toka	-8.51914
▁mwili	-8.51985
▁bidhaa	-8.52244
▁yame	-8.52483
▁nime	-8.52562
ngo	-8.52621
g	-8.52654
▁Tu	-8.52716
▁sita	-8.52866
▁KIDATO	-8.53166
▁imani	-8.53546
▁maneno	-8.53605
▁6	-8.53643
▁chakula	-8.53671
▁matangazo	-8.53671
TA	-8.53721
▁shilingi	-8.53931
cho	-8.53958
endelea	-8.54085
▁kesi	-8.5418
▁Baadhi	-8.54193
▁2016	-8.5431
▁wawili	-8.54743
tokea	-8.54988
▁ndugu	-8.55
▁VYA	-8.55027
▁Si	-8.55053
▁Michezo	-8.55143
▁Sh	-8.5517
▁G	-8.55185
se	-8.55314
▁muziki	-8.55392
▁ambacho	-8.55403
weka	-8.55695
▁Mu	-8.55863
▁kuingia	-8.55886
▁hai	-8.56208
▁mali	-8.56218
3	-8.56222
enda	-8.56388
▁14	-8.56577
▁kujua	-8.56746
▁MA	-8.56755
▁awali	-8.56853
▁ha	-8.56942
▁lili	-8.5713
▁nao	-8.57145
▁PICHA	-8.57307
chukua	-8.57442
z	-8.5764
▁wabunge	-8.57645
▁gharama	-8.5773
▁naye	-8.57733
▁Mahakama	-8.57744
▁mauaji	-8.57929
▁Mkutano	-8.57976
▁mi	-8.58127
pi	-8.58262
▁dini	-8.58341
▁pekee	-8.58409
jua	-8.58449
ge	-8.58558
▁huyu	-8.58669
penda	-8.5872
▁mwenyewe	-8.58763
▁bei	-8.58836
▁7	-8.58933
▁binadamu	-8.59045
▁18	-8.59187
ngu	-8.59198
▁badala	-8.59217
▁Taasisi	-8.5943
▁Uingereza	-8.59755
fi	-8.60165
▁chake	-8.60284
▁wanachama	-8.60475
▁Mi	-8.60986
▁wafanyakazi	-8.61104
▁nyuma	-8.61238
▁ukurasa	-8.61321
▁iliyopita	-8.61354
]	-8.61509
▁Mwalimu	-8.61603
▁maarufu	-8.61605
▁kidogo	-8.62154
de	-8.62183
▁Fedha	-8.6225
▁kuzi	-8.62258
▁Kazi	-8.62322
▁mafanikio	-8.6233
▁maalum	-8.62477
▁8	-8.62785
▁kampeni	-8.63286
▁namba	-8.63397
▁Benki	-8.63573
ishi	-8.63575
▁msimu	-8.63711
▁Kampuni	-8.63824
nge	-8.63865
▁kilimo	-8.64193
▁kuchukua	-8.64264
▁watumishi	-8.64477
▁wachezaji	-8.64635
▁Mtendaji	-8.64677
▁aliyekuwa	-8.64976
▁HAYA	-8.65029
▁moyo	-8.65044
▁haja	-8.65102
▁miradi	-8.65105
▁ila	-8.65253
▁kisheria	-8.65299
▁Dunia	-8.65558
▁BBC	-8.656
▁Mbeya	-8.65631
▁Mwenyezi	-8.65679
▁waka	-8.65703
▁Nyerere	-8.65741
▁huru	-8.65845
f	-8.65917
▁ardhi	-8.66206
▁Kuna	-8.66712
▁vifaa	-8.66722
▁F	-8.66862
▁gari	-8.67036
▁Mjini	-8.67105
▁Kuhusu	-8.67269
▁haraka	-8.67315
▁barua	-8.67342
▁linalo	-8.67382
▁ushindi	-8.6742
KA	-8.67524
▁DAR	-8.67625
▁raia	-8.67641
▁Ujerumani	-8.6776
▁anasema	-8.67764
▁Mara	-8.67771
nda	-8.67817
▁P	-8.67884
▁D	-8.68061
lu	-8.68515
▁13	-8.68544
▁China	-8.68657
▁vitu	-8.68842
▁jeshi	-8.68985
onekana	-8.69094
▁kushiriki	-8.69195
▁mu	-8.69226
▁kauli	-8.69285
▁Mama	-8.69641
▁wenyewe	-8.69785
5	-8.69807
▁2015	-8.6984
▁Kanisa	-8.69843
▁hoja	-8.70039
LI	-8.7014
▁zili	-8.70172
in	-8.70216
1	-8.70449
▁jimbo	-8.70554
▁Kikuu	-8.70635
lia	-8.70664
▁itakuwa	-8.70706
▁pesa	-8.70708
▁miezi	-8.70728
Na	-8.70796
▁tano	-8.71031
pewa	-8.71109
▁soka	-8.71427
▁mataifa	-8.71572
▁Kristo	-8.71708
pu	-8.72114
▁waziri	-8.72134
▁mafuta	-8.72146
onyesha	-8.72153
▁Jimbo	-8.72163
▁kuboresha	-8.72204
4	-8.72287
ingia	-8.72448
▁KI	-8.72511
▁H	-8.72654
▁ikiwemo	-8.72885
▁ushirikiano	-8.72987
she	-8.72988
▁saba	-8.73059
▁Ikulu	-8.73091
▁fulani	-8.73107
▁Sa	-8.73328
▁mamlaka	-8.73461
do	-8.73505
▁Jijini	-8.7353
ho	-8.73691
▁uamuzi	-8.73728
▁ama	-8.73763
eleza	-8.73858
▁Wananchi	-8.7388
▁kile	-8.74043
▁upinzani	-8.74192
▁16	-8.74213
▁sahihi	-8.74227
▁jumla	-8.74231
kubali	-8.74399
▁Kati	-8.7441
▁uhuru	-8.74743
▁kodi	-8.74797
▁kuweza	-8.74839
kushoto	-8.74894
▁Za	-8.7503
▁tabia	-8.7514
▁Miaka	-8.75177
▁Watoto	-8.75196
mbo	-8.75291
▁Al	-8.75323
▁kamati	-8.75358
▁ilivyo	-8.75518
▁30	-8.75924
shwa	-8.76106
bo	-8.76136
Ma	-8.76244
▁hospitali	-8.76319
▁safari	-8.76356
▁magari	-8.76432
▁nasi	-8.76504
▁mkataba	-8.76641
ze	-8.76894
▁Akizungumza	-8.76898
▁nina	-8.76903
▁kikubwa	-8.77025
▁Hivi	-8.77228
▁kushoto	-8.77254
▁mwanzo	-8.77276
▁Mamlaka	-8.773
▁17	-8.77451
sho	-8.77648
▁utekelezaji	-8.77782
▁Idara	-8.77916
TI	-8.77957
▁kupiga	-8.78003
▁mdogo	-8.78059
▁Bodi	-8.78081
▁kushirikiana	-8.78169
SI	-8.78329
▁ajira	-8.78395
▁kulia	-8.78559
▁ambavyo	-8.78615
kulia	-8.78708
▁shirika	-8.78783
▁kime	-8.7883
▁Home	-8.78876
▁Meneja	-8.78972
W	-8.79344
an	-8.79358
▁Hassan	-8.7946
▁mke	-8.79527
hu	-8.79574
▁:	-8.7964
zidi	-8.79855
▁historia	-8.79932
▁kupunguza	-8.8
▁*	-8.80014
▁Viongozi	-8.80107
▁MTAA	-8.80153
NA	-8.8018
▁9	-8.80185
▁nili	-8.80194
piga	-8.80206
▁Magazeti	-8.80239
▁Tanga	-8.80332
▁yeyote	-8.80498
be	-8.80609
▁bilioni	-8.80654
▁utawala	-8.80707
▁sera	-8.80773
fanyika	-8.80819
nya	-8.8091
▁viwanja	-8.8091
▁thamani	-8.8094
▁mapenzi	-8.80948
▁pa	-8.81135
▁uzinduzi	-8.81146
▁ligi	-8.81149
shinda	-8.81237
▁viwanda	-8.81594
▁kinacho	-8.81684
▁Biblia	-8.81792
▁wateja	-8.82038
▁tuta	-8.82315
▁moto	-8.82351
▁NNE	-8.82401
▁inaweza	-8.82446
▁akitoa	-8.8256
▁utaratibu	-8.82626
fikia	-8.82747
L	-8.82786
▁matukio	-8.82859
▁mawazo	-8.82889
▁MWAKA	-8.82995
hitaji	-8.83011
▁kifo	-8.83211
▁ukumbi	-8.83256
▁ajali	-8.83363
JI	-8.83494
▁ujumla	-8.83622
▁wanaume	-8.83767
rudi	-8.83801
▁hatari	-8.83889
▁mapema	-8.83939
▁baba	-8.84155
▁Novemba	-8.84178
▁kucheza	-8.84258
ongoza	-8.84314
▁mzuri	-8.84387
▁kutafuta	-8.84478
▁kilicho	-8.84819
▁kuleta	-8.84832
ndo	-8.84973
▁video	-8.85205
▁tafadhali	-8.85256
▁Jakaya	-8.85377
▁wamekuwa	-8.85697
▁kasi	-8.8576
▁kijiji	-8.85821
RI	-8.85825
▁lolote	-8.85845
▁Mh	-8.85931
▁Uganda	-8.85986
▁mikoa	-8.8617
▁uchunguzi	-8.86294
shiriki	-8.86313
▁imekuwa	-8.86352
▁Vi	-8.86425
▁lililo	-8.86472
unga	-8.86532
▁vitendo	-8.86574
▁kusaidia	-8.86694
▁Ta	-8.8671
▁toka	-8.86851
▁kuya	-8.86895
LA	-8.86909
▁ugonjwa	-8.86971
▁ndiye	-8.87183
x	-8.87189
▁neno	-8.87195
▁Facebook	-8.87348
▁dakika	-8.87513
▁mahakama	-8.87632
▁Haki	-8.87642
▁dola	-8.87807
▁Vijana	-8.87921
▁kiuchumi	-8.88024
▁Biashara	-8.88044
▁kitaifa	-8.8813
▁watanzania	-8.88159
▁kuangalia	-8.88355
kuja	-8.88703
▁asili	-8.88719
▁Una	-8.88809
▁kata	-8.88872
▁mashindano	-8.88967
▁ngazi	-8.89275
▁kumi	-8.89318
▁25	-8.89346
▁juhudi	-8.89366
▁kutaka	-8.8939
▁uhusiano	-8.89433
▁Kaimu	-8.89447
▁umuhimu	-8.89743
▁ulinzi	-8.89799
▁Bara	-8.89849
▁Mkoani	-8.89912
▁Oktoba	-8.89965
ana	-8.90128
patikana	-8.90586
▁kutekeleza	-8.90616
va	-8.90672
2	-8.90724
▁Mohamed	-8.90785
▁siyo	-8.90823
▁Tuna	-8.90987
▁Kuwa	-8.91013
▁kutosha	-8.91075
▁Nje	-8.91098
pita	-8.91131
▁haku	-8.91163
▁wakazi	-8.91186
▁Chadema	-8.91222
▁n	-8.91245
▁Pamoja	-8.91339
takiwa	-8.91409
▁Kila	-8.91414
ombe	-8.91463
▁rahisi	-8.91512
▁filamu	-8.9152
▁asubuhi	-8.91561
▁Sasa	-8.9166
▁Huduma	-8.91734
du	-8.91859
▁Kombe	-8.9197
▁alama	-8.92306
sh	-8.9236
▁Unaweza	-8.9239
▁baadaye	-8.92464
▁anaweza	-8.92474
▁sifa	-8.92636
▁CHADEMA	-8.9267
fahamu	-8.92783
fika	-8.92813
▁kuku	-8.92888
▁Septemba	-8.92928
mbi	-8.9295
▁mawasiliano	-8.93085
▁Mpango	-8.93089
▁vituo	-8.93149
pokea	-8.93355
▁kuishi	-8.93357
▁faragha	-8.93523
ngi	-8.93581
▁Kwanza	-8.93659
▁wajumbe	-8.93667
▁©	-8.9393
▁katiba	-8.94035
▁[...]	-8.94082
▁kuwepo	-8.94184
kaa	-8.94235
▁Kiongozi	-8.94255
▁heshima	-8.94359
▁Ndani	-8.94398
▁Maji	-8.94427
▁mahali	-8.94474
▁Jumuiya	-8.94522
▁akili	-8.94581
▁kupambana	-8.94583
▁utafiti	-8.946
leta	-8.94694
▁wilayani	-8.94818
▁hafla	-8.94863
▁walimu	-8.95071
kutana	-8.95152
▁Kaskazini	-8.95162
▁Hivyo	-8.95409
▁awamu	-8.95445
RA	-8.95493
▁Julai	-8.95525
▁mitandao	-8.95577
▁[	-8.95623
▁Juni	-8.95809
tangaza	-8.95928
▁kisha	-8.9606
saidia	-8.962
▁makundi	-8.96286
omba	-8.9636
▁Majaliwa	-8.96463
▁madai	-8.96633
▁Hospitali	-8.96804
▁Agosti	-8.96984
▁Iringa	-8.97042
▁wazazi	-8.97106
▁Mei	-8.97125
▁Profesa	-8.97241
▁husika	-8.97319
▁li	-8.9747
▁faida	-8.97501
▁kuelekea	-8.97682
▁gazeti	-8.97714
▁kusoma	-8.97914
▁mkononi	-8.97928
▁chuo	-8.98028
▁kujiunga	-8.98089
▁Baba	-8.98184
▁mapato	-8.98223
SA	-8.98311
▁damu	-8.98353
▁Maisha	-8.9848
acha	-8.98495
▁kanuni	-8.98524
▁zita	-8.98556
▁Machi	-8.9857
CCM	-8.98604
▁21	-8.98654
▁Januari	-8.98782
Y	-8.98841
▁ndogo	-8.98998
▁Shule	-8.99443
▁malengo	-8.99618
▁Utalii	-8.99683
▁wakuu	-8.99947
▁mahitaji	-9.00045
ndi	-9.00086
▁uliofanyika	-9.00562
j	-9.00593
▁Matokeo	-9.00692
sikia	-9.00838
▁sherehe	-9.00871
▁zi	-9.00896
▁kufanyika	-9.01061
▁vina	-9.01102
kwenda	-9.01157
▁zenye	-9.01177
▁rafiki	-9.01293
▁halisi	-9.0171
▁mchakato	-9.01747
▁kushindwa	-9.01772
▁Kwenye	-9.01812
▁MATUKIO	-9.01929
▁(1)	-9.02036
▁bajeti	-9.02102
▁Li	-9.02255
▁furaha	-9.02355
▁sauti	-9.02397
▁wizara	-9.02672
th	-9.02686
▁Ha	-9.0271
!!	-9.0279
▁maswali	-9.02835
▁Hapa	-9.02944
che	-9.03027
▁MAGUFULI	-9.03077
▁yenu	-9.03235
he	-9.03253
▁Dr	-9.03278
▁kuimarisha	-9.0331
."	-9.03369
▁iwe	-9.03399
gi	-9.0357
er	-9.03583
gu	-9.03603
shindwa	-9.03683
▁Umma	-9.03714
▁soko	-9.038
▁s	-9.03857
▁#	-9.03877
tumika	-9.03916
▁kuhusiana	-9.04052
▁majina	-9.04069
▁kuzingatia	-9.04136
▁makini	-9.0427
▁nia	-9.04346
▁Ufaransa	-9.04429
LE	-9.04505
▁wimbo	-9.04576
nu	-9.04607
▁chanzo	-9.04683
▁kitabu	-9.04901
▁umoja	-9.04925
▁ule	-9.05133
▁baina	-9.05166
H	-9.05168
▁yale	-9.05234
▁kanisa	-9.05249
ce	-9.05292
su	-9.05306
▁uka	-9.05352
▁Kisiasa	-9.05457
▁Mo	-9.05624
▁madini	-9.05647
▁kisasa	-9.05675
amua	-9.05685
▁nayo	-9.05856
so	-9.05873
▁mchezaji	-9.06095
▁Diamond	-9.06141
fuata	-9.06142
▁miwili	-9.06146
▁urais	-9.06234
▁SERIKALI	-9.06299
tia	-9.06329
soma	-9.06374
▁fainali	-9.06407
▁zisizo	-9.06573
▁mazuri	-9.06596
▁mipango	-9.0662
▁yali	-9.06645
▁Jumapili	-9.06806
▁mabao	-9.06919
nde	-9.06945
▁maamuzi	-9.07106
▁wakulima	-9.07253
▁Wana	-9.07334
▁blog	-9.07359
▁askari	-9.07462
▁kufuatia	-9.07477
▁matibabu	-9.07593
▁Kata	-9.07605
▁HII	-9.0774
▁24	-9.07745
▁je	-9.07747
st	-9.07769
▁wapi	-9.07782
ZA	-9.07841
Wa	-9.07926
KU	-9.07935
▁United	-9.07979
▁JIJINI	-9.08004
▁Mwandishi	-9.08009
▁wasanii	-9.0804
▁TAARIFA	-9.08054
▁masomo	-9.08143
ita	-9.0815
▁Morogoro	-9.08168
▁kinyume	-9.0818
▁yule	-9.08203
▁uhakika	-9.08249
▁KISWAHILI	-9.08413
▁kikosi	-9.08445
dai	-9.0845
▁pepe	-9.0858
▁taratibu	-9.0859
▁Zaidi	-9.08672
▁jioni	-9.08751
9	-9.0886
▁michuano	-9.08887
sababisha	-9.09039
▁e	-9.09051
▁kusikiliza	-9.09093
▁kwao	-9.09094
▁maombi	-9.09211
▁nzima	-9.09243
▁vyema	-9.09251
▁waliokuwa	-9.09341
▁licha	-9.09375
Kwa	-9.09415
kua	-9.0942
IDHAA	-9.09429
▁Afisa	-9.09542
▁majukumu	-9.0956
▁Ujenzi	-9.09635
▁makala	-9.09653
tolewa	-9.09823
▁upendo	-9.10165
▁DKT	-9.10252
baki	-9.10291
▁ES	-9.10307
▁Ndugu	-9.10331
▁Se	-9.10503
▁zoezi	-9.10523
▁benki	-9.10526
▁Ra	-9.10562
▁Pili	-9.10625
maliza	-9.10646
▁kali	-9.10691
▁ripoti	-9.10708
▁Shirikisho	-9.10727
▁Mimi	-9.10775
▁tuli	-9.10939
▁kesho	-9.10949
ZI	-9.11111
▁Ba	-9.11118
▁marehemu	-9.1114
▁kufunga	-9.11144
▁Joseph	-9.11164
▁hawana	-9.11187
▁Hali	-9.11376
▁wasio	-9.11579
▁mna	-9.11662
FU	-9.11722
▁TAIFA	-9.11744
▁yaani	-9.11844
ck	-9.11924
▁makosa	-9.12067
▁wowote	-9.12162
▁Kassim	-9.12163
▁chochote	-9.12203
▁sh	-9.12447
▁mashabiki	-9.12557
▁kumaliza	-9.1258
▁kupokea	-9.1261
▁Shein	-9.1264
▁mgombea	-9.12682
▁mpira	-9.12815
▁MPYA	-9.12821
Z	-9.12858
andika	-9.12931
▁rushwa	-9.12936
PO	-9.13029
▁Kilimo	-9.13143
▁lita	-9.13289
▁2012	-9.13304
▁SALAAM	-9.13454
▁Amesema	-9.13494
▁Manispaa	-9.13599
▁silaha	-9.13617
▁Rwanda	-9.13676
▁Prof	-9.13693
▁vyote	-9.13704
▁Kutoka	-9.13745
▁Kituo	-9.13785
▁wanaweza	-9.13863
▁vinavyo	-9.13927
▁maslahi	-9.13944
▁Mikoa	-9.14046
▁kutokea	-9.14136
▁22	-9.14342
al	-9.14345
cheza	-9.14474
▁Timu	-9.14494
▁kutangaza	-9.14555
▁Usalama	-9.14787
▁amekuwa	-9.14843
▁De	-9.14914
▁Aprili	-9.14925
tambua	-9.15022
▁salama	-9.15026
Ni	-9.15265
▁tuzo	-9.1531
itwa	-9.15334
▁kukabiliana	-9.15411
▁ushauri	-9.15682
▁mawili	-9.15686
▁Ana	-9.15687
▁Iran	-9.15713
ch	-9.1572
sta	-9.16336
▁hotuba	-9.16364
▁wapo	-9.16553
▁wajibu	-9.16627
BA	-9.16657
▁Mpya	-9.16691
▁Jinsi	-9.16696
▁Korea	-9.16738
▁Bongo	-9.17387
changia	-9.17413
▁kike	-9.17432
▁kutu	-9.17447
▁Hu	-9.17449
▁siri	-9.17654
▁mchango	-9.17699
KI	-9.177
,"	-9.17743
▁Kanda	-9.17812
▁k	-9.1792
▁bunge	-9.17923
isha	-9.17996
fungwa	-9.1818
▁kusimamia	-9.18215
▁Ina	-9.18256
▁100	-9.18281
▁Singida	-9.18292
tembelea	-9.18325
▁Azam	-9.18329
▁bure	-9.18363
es	-9.18375
6	-9.18485
▁dhambi	-9.18854
▁Mipango	-9.18861
▁FC	-9.19021
▁Lu	-9.19108
▁Moja	-9.1917
▁Bo	-9.19221
ter	-9.19326
▁kuzuia	-9.19338
▁MAGAZETI	-9.19365
ing	-9.19386
▁Trump	-9.19417
▁kili	-9.19476
▁mbunge	-9.19539
▁majibu	-9.19599
wahi	-9.196
▁kuja	-9.19639
funga	-9.19965
▁usi	-9.19989
▁maalumu	-9.20002
▁1.	-9.20069
▁jiji	-9.20101
▁Februari	-9.20139
▁PILI	-9.20184
▁ulikuwa	-9.20186
▁mada	-9.20237
▁swali	-9.20265
▁utendaji	-9.20363
▁kulipa	-9.20415
▁alipokuwa	-9.20468
▁Juma	-9.20524
▁kujifunza	-9.20543
▁2014	-9.20605
▁Wazee	-9.20624
▁Kilimanjaro	-9.20733
▁letu	-9.20848
▁Urusi	-9.20866
chi	-9.20959
▁ufisadi	-9.21002
▁KUTOKA	-9.21034
on	-9.21066
▁ZAIDI	-9.2111
▁NCHINI	-9.21348
▁makubaliano	-9.21458
▁City	-9.21495
▁iliyopo	-9.21578
▁KUWA	-9.2167
▁shaka	-9.217
▁uzalishaji	-9.21955
kosa	-9.22007
▁kidato	-9.22139
el	-9.22154
▁zawadi	-9.2224
▁kosa	-9.22311
▁kuonyesha	-9.22316
▁The	-9.22407
▁wageni	-9.22428
▁23	-9.22562
▁mahusiano	-9.22579
▁Nchini	-9.22848
▁ipo	-9.23074
▁2013	-9.23102
8	-9.23139
▁jamaa	-9.2314
▁mazoezi	-9.23176
▁nusu	-9.23271
▁Mfumo	-9.23308
▁malipo	-9.23405
jaribu	-9.23443
▁iko	-9.23483
▁mbinu	-9.23633
▁Mwana	-9.23652
▁maafisa	-9.23794
▁ulimwengu	-9.2388
shika	-9.24009
▁J	-9.24045
ua	-9.24304
▁lenye	-9.24417
▁Mzee	-9.24428
ongeza	-9.24512
▁ambako	-9.24577
▁Nairobi	-9.24684
▁baraza	-9.24699
▁Mtakatifu	-9.24706
TE	-9.24763
▁Jumamosi	-9.24796
SHA	-9.24801
▁kushinda	-9.24835
onesha	-9.24891
▁kusababisha	-9.24892
liwa	-9.25035
▁Basi	-9.25104
▁Duniani	-9.25191
▁kulinda	-9.25193
▁Tabia	-9.2533
▁R	-9.25334
faa	-9.25366
▁Sehemu	-9.2538
▁kamili	-9.2541
▁kuwasiliana	-9.25431
▁KWENYE	-9.25439
▁kununua	-9.25467
ani	-9.25471
nd	-9.25522
PA	-9.25555
MU	-9.25614
angalia	-9.2563
▁wito	-9.25694
vyo	-9.25821
julikana	-9.25916
▁halmashauri	-9.25977
▁hana	-9.25993
▁mfupi	-9.26086
▁Ame	-9.26096
▁ika	-9.26211
▁mitatu	-9.26215
▁mwishoni	-9.26307
▁YAKE	-9.26364
elewa	-9.26386
kia	-9.26414
▁mikopo	-9.2643
▁CUF	-9.26435
▁BOFYA	-9.26435
▁vyuo	-9.26509
▁zangu	-9.26534
▁al	-9.26537
▁Mstaafu	-9.26546
▁kukutana	-9.26668
▁utamaduni	-9.26701
▁Ili	-9.26757
▁Syria	-9.26812
▁Shinyanga	-9.26831
lenga	-9.26937
▁mwandishi	-9.27036
▁bao	-9.27181
▁DARASA	-9.27189
▁BLOG	-9.27251
tajwa	-9.27359
▁kuanzisha	-9.27389
DA	-9.2755
▁of	-9.27553
▁kuzungumza	-9.27579
ry	-9.27749
zungumzia	-9.2775
▁Kagera	-9.27763
pinga	-9.27795
▁Ijumaa	-9.27903
▁kwako	-9.27981
▁Utamaduni	-9.28091
▁kuomba	-9.28289
▁Maelezo	-9.28293
▁teknolojia	-9.28418
▁wagonjwa	-9.28453
▁Desemba	-9.28491
▁jitihada	-9.28573
▁zilizopo	-9.28714
mpa	-9.28799
▁Z	-9.28881
▁Jaji	-9.28919
▁barani	-9.2903
fungua	-9.29057
one	-9.29063
▁hewa	-9.29183
▁waweze	-9.29212
▁bahati	-9.29216
▁maadili	-9.29343
tegemea	-9.29449
▁Bu	-9.29495
▁vilivyo	-9.29554
lipa	-9.29745
▁kula	-9.29805
jengwa	-9.29865
▁KUHUSU	-9.29917
ll	-9.30008
▁KUU	-9.3023
fanywa	-9.30237
▁msimamo	-9.30266
▁Sanaa	-9.30279
▁magonjwa	-9.30381
▁ubora	-9.30423
jenga	-9.3048
▁Simu	-9.30531
▁makuu	-9.3059
▁Paul	-9.30655
%	-9.30817
▁Kiislamu	-9.30818
tokana	-9.30874
▁ziki	-9.30908
▁kuchangia	-9.30946
▁Re	-9.3099
▁maadhimisho	-9.31004
en	-9.31178
▁macho	-9.31286
▁kumu	-9.31425
▁juzi	-9.31732
▁Mtu	-9.31804
▁Pa	-9.31805
Ku	-9.31848
▁Mafunzo	-9.31882
▁Tawala	-9.31909
▁huenda	-9.3202
▁nafuu	-9.32236
▁Kamanda	-9.32278
▁wafanyabiashara	-9.32481
▁kukaa	-9.32622
▁utoaji	-9.32688
tafuta	-9.32696
fanikiwa	-9.32706
▁mikutano	-9.3281
▁kukosa	-9.32859
▁mwana	-9.32942
▁kuondoa	-9.33
V	-9.33048
ondoka	-9.3306
▁mwanafunzi	-9.33225
poteza	-9.33454
▁40	-9.33479
▁kote	-9.335
▁uwekezaji	-9.33522
▁mchana	-9.33599
▁ta	-9.33722
or	-9.33782
▁kulevya	-9.33918
▁Samia	-9.33973
▁chache	-9.34161
▁Jinsia	-9.34229
▁kwetu	-9.34282
▁kufika	-9.343
ria	-9.34453
▁Video	-9.34456
▁watatu	-9.34471
▁kuendeleza	-9.34568
▁Zilizopo	-9.34656
▁Mfuko	-9.347
▁ingawa	-9.34808
▁naomba	-9.34905
▁kijana	-9.35019
wezesha	-9.35033
ly	-9.35089
▁W	-9.35089
zungumza	-9.35213
▁Madini	-9.35281
▁Ushirikiano	-9.35292
▁Da	-9.35693
ve	-9.35708
▁mshindi	-9.35714
▁kuki	-9.35717
mbe	-9.35787
▁kumbukumbu	-9.35877
▁26	-9.35923
▁Wanafunzi	-9.35942
▁Masuala	-9.3606
WE	-9.36101
▁madarakani	-9.36138
▁Man	-9.36294
0	-9.36297
▁programu	-9.36382
▁mahakamani	-9.36406
▁ndipo	-9.36411
▁maandamano	-9.36476
▁Idhaa	-9.36509
▁L	-9.36522
▁utakuwa	-9.36569
▁Julius	-9.36864
▁Jumatatu	-9.36912
▁kulingana	-9.36981
▁kutengeneza	-9.37104
▁jukumu	-9.37169
▁28	-9.37175
▁Nigeria	-9.37197
▁kujadili	-9.37287
FA	-9.37343
▁Suluhu	-9.37445
TU	-9.37502
▁Matangazo	-9.3753
▁kuacha	-9.37693
▁mingi	-9.37738
▁c	-9.37823
▁JAMII	-9.37823
▁sekondari	-9.3784
▁kita	-9.37854
▁Mtume	-9.3795
nzi	-9.37969
▁Mitaa	-9.37985
▁hifadhi	-9.38046
▁Wanawake	-9.38222
▁kambi	-9.38233
▁kuni	-9.38293
son	-9.38305
▁Ndege	-9.38345
▁wataalamu	-9.38495
ed	-9.38512
▁sambamba	-9.38589
▁mwenyekiti	-9.38631
Picha	-9.38635
▁ametoa	-9.38702
▁hakika	-9.38708
▁risasi	-9.38722
▁in	-9.38793
7	-9.38797
▁jengo	-9.38802
▁zako	-9.38928
▁orodha	-9.38932
▁Njia	-9.39005
▁SIKU	-9.39007
▁msanii	-9.39126
▁vitabu	-9.39227
▁wingi	-9.39234
▁Pwani	-9.39281
endesha	-9.39428
▁Bora	-9.39461
▁Mradi	-9.39505
▁mwanaume	-9.39533
▁iwapo	-9.39608
▁miundombinu	-9.39699
▁ahadi	-9.39702
▁kuondoka	-9.39748
▁Seif	-9.39759
▁kiswahili	-9.39763
▁Blog	-9.3977
▁BAADA	-9.3978
KO	-9.39817
▁vingine	-9.40079
▁walipo	-9.40117
▁magazeti	-9.40171
▁kitendo	-9.40225
▁tuhuma	-9.40232
▁bara	-9.40261
▁Maliasili	-9.40279
▁haina	-9.40334
▁wenzake	-9.40337
▁mazao	-9.40445
▁mume	-9.40478
▁Manchester	-9.40618
▁Wabunge	-9.40654
Ki	-9.4068
▁kuandika	-9.40682
▁Sisi	-9.40704
▁Mhandisi	-9.40755
▁makazi	-9.40763
▁pande	-9.40798
▁mpenzi	-9.40863
▁Ufafanuzi	-9.40907
▁Jumanne	-9.41019
tuma	-9.41024
▁Aki	-9.41032
▁kukuza	-9.41073
▁kufuata	-9.41084
jitokeza	-9.41151
▁MKOA	-9.41192
▁ukiwa	-9.41263
▁2011	-9.41338
ina	-9.41504
▁mgogoro	-9.41507
▁Hakuna	-9.41602
▁nyimbo	-9.41613
▁iliyofanyika	-9.4163
▁Mazingira	-9.41637
▁vime	-9.41663
▁Masharti	-9.41706
uza	-9.41854
▁kutambua	-9.41861
▁Tovuti	-9.4204
▁2.	-9.4209
▁Mrisho	-9.42181
NGA	-9.42203
TO	-9.42212
▁usajili	-9.42312
▁the	-9.42328
▁Juu	-9.42348
husika	-9.42351
▁alivyo	-9.42393
▁Asili	-9.42435
▁Israel	-9.42448
▁Fa	-9.4253
▁Msingi	-9.42897
▁kuwapa	-9.43009
▁zile	-9.43033
▁akisalimiana	-9.43119
▁Mtandao	-9.43142
▁jirani	-9.43211
nyo	-9.43224
▁itakayo	-9.43271
▁awe	-9.43294
▁maandalizi	-9.43311
▁Faragha	-9.43415
▁Sha	-9.4343
▁VI	-9.43452
▁Mwa	-9.43463
▁Kenyatta	-9.43609
▁Misri	-9.43666
▁mno	-9.43926
▁rangi	-9.43936
▁mashirika	-9.43956
▁kusini	-9.4396
▁usafiri	-9.44108
ali	-9.4414
▁watakao	-9.44176
▁kurudi	-9.44188
▁kupewa	-9.44364
▁matumaini	-9.44504
▁Ja	-9.44555
▁hofu	-9.44661
chu	-9.44665
▁hati	-9.44725
husisha	-9.44728
▁Ilani	-9.44756
▁»	-9.44763
▁Sudan	-9.44775
▁Nishati	-9.44825
▁Sayansi	-9.4484
▁bungeni	-9.44843
▁mitano	-9.44866
▁nani	-9.44868
▁ushahidi	-9.44924
▁nita	-9.44983
zu	-9.45134
▁Hifadhi	-9.45314
▁adhabu	-9.45339
▁uwezekano	-9.45443
▁wazee	-9.45468
▁Kupata	-9.45512
▁rasilimali	-9.4561
▁Kutokana	-9.45628
▁tiketi	-9.45725
▁Waandishi	-9.4592
▁Jumatano	-9.45936
▁kombe	-9.45941
▁Lowassa	-9.46017
▁Me	-9.46194
▁Hawa	-9.46279
man	-9.4635
wekwa	-9.46407
▁aliyo	-9.46419
▁roho	-9.46475
▁kutembelea	-9.4657
us	-9.46642
▁watendaji	-9.46754
▁27	-9.46964
▁uwe	-9.46972
▁kupatikana	-9.46978
▁•	-9.47009
▁vingi	-9.47065
▁Ardhi	-9.47203
HA	-9.47215
▁madaktari	-9.47256
jibu	-9.47307
▁Magharibi	-9.4732
▁yanaweza	-9.47326
▁News	-9.47416
▁muungano	-9.47417
▁shida	-9.47585
▁Mji	-9.47657
▁Le	-9.47684
▁Roho	-9.47861
▁dirisha	-9.4792
v	-9.47926
▁makao	-9.47933
▁ajabu	-9.47948
▁Ru	-9.4799
JA	-9.48093
▁Hatua	-9.48176
husu	-9.4818
▁Redio	-9.48299
▁Kigoma	-9.48349
▁ujao	-9.48386
▁atakuwa	-9.48404
▁madaraka	-9.48409
▁NCHI	-9.48596
▁miguu	-9.48682
▁zingine	-9.487
panda	-9.48743
shuhudia	-9.48746
▁kikuu	-9.48792
▁Ko	-9.48891
▁mvua	-9.48957
▁vifo	-9.49102
▁dhamana	-9.49165
▁2017.	-9.49392
▁utalii	-9.49503
▁New	-9.4954
▁kocha	-9.49563
mbu	-9.49725
▁mgeni	-9.49749
▁kiume	-9.49757
▁upatikanaji	-9.49814
RE	-9.49939
▁isiyo	-9.49941
▁Nyumba	-9.49993
▁hisia	-9.50078
▁Uturuki	-9.50108
▁kupinga	-9.50174
kata	-9.50231
▁madhara	-9.5027
▁2010	-9.50282
ca	-9.50332
▁marafiki	-9.50349
▁masharti	-9.50407
▁Vipindi	-9.50492
▁wafuasi	-9.50502
▁Barua	-9.50674
▁Mabadiliko	-9.50842
▁TV	-9.50865
▁kiwanda	-9.50873
▁WATU	-9.50922
▁V	-9.50943
▁mawaziri	-9.51076
▁katikati	-9.51084
▁Jiji	-9.5109
▁Mtwara	-9.51309
▁niaba	-9.51363
▁Charles	-9.51398
▁Urais	-9.51435
▁akisema	-9.5145
▁ngumu	-9.51481
▁Nime	-9.51539
▁VIDEO	-9.51553
▁Naye	-9.5168
ongozwa	-9.51789
▁Makonda	-9.51802
▁tuki	-9.5203
▁Haya	-9.52182
NE	-9.52187
▁MAKAMU	-9.52298
▁wanasema	-9.52313
▁kutumika	-9.52357
panga	-9.52381
simamia	-9.52507
”.	-9.52529
▁Obama	-9.52575
mia	-9.52615
▁Wakuu	-9.52727
▁Ikiwa	-9.52753
▁Mkazi	-9.52814
am	-9.52858
ende	-9.52862
simama	-9.52931
▁mzima	-9.52948
▁kupoteza	-9.53122
▁vibaya	-9.53212
▁Tanganyika	-9.53231
▁TFF	-9.53297
▁darasa	-9.53305
katikati	-9.53308
▁liki	-9.53349
▁Raila	-9.53362
▁wasi	-9.5349
pigwa	-9.53516
▁Kinondoni	-9.53578
▁upya	-9.53714
▁misingi	-9.53876
tekeleza	-9.53915
▁yata	-9.53967
▁hawaku	-9.54058
▁wadogo	-9.54221
▁ufanisi	-9.54257
▁imesema	-9.54296
▁Sekondari	-9.54354
▁Arsenal	-9.54393
▁uzoefu	-9.54412
▁Ji	-9.5447
▁Kamishna	-9.54564
▁WIZARA	-9.54634
▁safi	-9.54653
▁Chi	-9.54741
▁Ukurasa	-9.54888
▁kimoja	-9.55049
MI	-9.55174
▁njema	-9.55269
▁burudani	-9.55375
!!!	-9.5539
▁pichani	-9.55408
▁wachache	-9.55452
▁Ulinzi	-9.55455
▁Yako	-9.55539
▁Ro	-9.55579
▁yasiyo	-9.55628
▁kule	-9.55814
▁lako	-9.55871
▁kudhibiti	-9.55921
▁wavuti	-9.56007
▁3.	-9.56093
▁amri	-9.56185
▁Amani	-9.56299
▁nika	-9.56312
▁athari	-9.56336
▁yupo	-9.56354
▁wasiwasi	-9.56371
ts	-9.56402
▁spika	-9.56446
▁Makala	-9.56452
▁daraja	-9.56606
▁gesi	-9.56666
▁William	-9.5691
▁29	-9.56952
zwa	-9.56997
▁Nina	-9.57094
▁MKOANI	-9.5721
▁mnamo	-9.57221
▁yuko	-9.5723
▁AFYA	-9.57277
▁MIAKA	-9.57413
J	-9.57428
ahidi	-9.5747
▁HUU	-9.5765
▁TU	-9.57652
nyi	-9.57676
▁mikakati	-9.57736
▁bonyeza	-9.57958
▁kufungua	-9.58034
▁Askofu	-9.58058
▁to	-9.5808
▁Wafanyakazi	-9.58239
▁wenu	-9.58345
unda	-9.58353
shauri	-9.58422
▁Idadi	-9.58438
▁washiriki	-9.5862
▁MTOTO	-9.58637
pelekea	-9.58657
▁kuzaliwa	-9.58744
▁ibada	-9.58784
▁&	-9.58829
▁Mohammed	-9.58943
▁misaada	-9.58943
elezea	-9.58993
subiri	-9.59115
▁alitoa	-9.59295
ongo	-9.59302
▁kuendesha	-9.59302
▁harakati	-9.59449
▁Utafiti	-9.59493
▁Utawala	-9.59682
nia	-9.59683
▁manufaa	-9.59691
▁wasichana	-9.5972
▁tamaa	-9.59755
kama	-9.59816
kuwepo	-9.59868
▁Msanii	-9.59876
▁Unguja	-9.59922
KE	-9.59928
▁KAZI	-9.60008
▁kuuza	-9.60036
YA	-9.60037
BU	-9.60083
▁India	-9.60173
▁mimba	-9.60199
▁Hai	-9.60227
▁mbio	-9.60275
▁uliopo	-9.60289
▁MTIHANI	-9.60359
▁hatimaye	-9.60385
▁Nili	-9.60479
fe	-9.60534
▁Huu	-9.60539
peleka	-9.60755
▁Stars	-9.60834
beba	-9.6084
▁kutimiza	-9.60886
▁kuongoza	-9.60994
dhi	-9.61028
▁ziada	-9.61108
▁abiria	-9.61143
▁kutatua	-9.61195
ruhusu	-9.61269
▁Maalum	-9.61354
▁ndoto	-9.61381
chukuliwa	-9.61393
▁Pemba	-9.61431
wasili	-9.61514
▁tiba	-9.61538
um	-9.61557
kataa	-9.61585
▁wanasiasa	-9.6163
jadili	-9.61765
▁Tamko	-9.61766
▁MUNGU	-9.61792
▁Kijiji	-9.61856
▁wanahabari	-9.6188
▁Viwanda	-9.62001
tumiwa	-9.62001
▁makampuni	-9.62008
▁de	-9.62019
▁ufunguzi	-9.6203
▁chumba	-9.62046
▁watumiaji	-9.62071
▁TAZAMA	-9.62109
shu	-9.62172
lea	-9.62211
▁vijiji	-9.6222
▁viwango	-9.62254
▁ishara	-9.62316
▁wanapo	-9.62329
fikiri	-9.62361
zaliwa	-9.6244
▁kizazi	-9.62575
▁wanyama	-9.62579
▁Mmoja	-9.62614
▁w	-9.62635
▁barabarani	-9.62741
paswa	-9.62909
▁Vodacom	-9.63108
▁akaunti	-9.63393
▁sura	-9.63406
▁kuwasaidia	-9.63449
▁uko	-9.63457
▁atakaye	-9.63482
ss	-9.63514
▁kigeni	-9.63607
▁kuta	-9.63626
▁inavyo	-9.63632
▁kuandaa	-9.63636
▁wakimbizi	-9.63662
▁hukumu	-9.63714
▁kufa	-9.63724
▁KA	-9.63831
▁peke	-9.63875
▁VYOMBO	-9.63906
▁Kijerumani	-9.63936
▁usimamizi	-9.6394
ME	-9.64018
taja	-9.64031
ongea	-9.643
▁mjadala	-9.64353
▁uhalifu	-9.64385
▁Alhamisi	-9.64424
▁nane	-9.64436
▁vijijini	-9.64557
▁takwimu	-9.6459
▁SABA	-9.64602
▁Madrid	-9.64624
dw	-9.64641
▁Mpira	-9.64681
▁Mwakilishi	-9.6472
▁albino	-9.6477
▁kichwa	-9.64812
▁kudumu	-9.64813
▁Waislamu	-9.64818
▁kupanda	-9.64913
▁lilikuwa	-9.64937
▁Burundi	-9.64962
tenda	-9.64971
▁dalili	-9.64979
▁mipaka	-9.65018
eni	-9.65072
zungu	-9.65093
andaa	-9.6511
▁kaskazini	-9.65169
▁nyota	-9.65195
▁hoteli	-9.65283
uliza	-9.65298
▁kijeshi	-9.65393
▁ba	-9.65416
▁Mtoto	-9.65775
▁mtazamo	-9.6581
▁Ga	-9.65929
▁uongo	-9.6605
▁kulikuwa	-9.66155
▁kanda	-9.66192
dha	-9.66252
ongezeka	-9.66279
▁Tabora	-9.66341
ur	-9.66349
▁Maana	-9.66403
▁haija	-9.6641
▁ELIMU	-9.66417
▁unajua	-9.6643
tarajiwa	-9.66436
▁Uongozi	-9.66577
kumbuka	-9.6663
▁Vyombo	-9.66677
▁uteuzi	-9.66677
▁Lugha	-9.66719
daiwa	-9.66742
▁hawaja	-9.66804
▁Mapambano	-9.66946
lla	-9.67112
▁Moshi	-9.67214
_	-9.67299
fanyiwa	-9.6733
▁upo	-9.67358
▁fomu	-9.67367
▁MHE	-9.67384
▁mkakati	-9.67386
jali	-9.67409
ondoa	-9.67489
▁He	-9.67518
▁and	-9.67556
zuia	-9.67635
▁31	-9.67965
▁nishati	-9.68042
▁Maafisa	-9.68065
▁60	-9.68107
▁bongo	-9.68128
▁Yehova	-9.68154
▁mikono	-9.68189
▁Kozi	-9.68246
▁mabaya	-9.68274
▁CHINI	-9.68279
oa	-9.68354
▁leseni	-9.68373
▁mashambulizi	-9.68378
▁halali	-9.68399
▁ijayo	-9.68436
▁kudai	-9.68501
wapa	-9.68596
▁magumu	-9.68642
▁Orodha	-9.68791
nunua	-9.68821
▁mtihani	-9.68878
▁Di	-9.6892
▁idara	-9.68935
stahili	-9.68956
▁kibiashara	-9.69115
▁chombo	-9.69116
linda	-9.69151
▁hawezi	-9.69216
[	-9.69231
ngwa	-9.69287
▁am	-9.693
▁Tuma	-9.69385
▁Teknolojia	-9.69386
▁George	-9.69438
▁hazi	-9.69455
▁wagombea	-9.69466
▁Yeye	-9.69469
▁ndo	-9.69473
▁Mwisho	-9.69511
▁Mwakyembe	-9.69599
▁Jenerali	-9.69608
▁iliyotolewa	-9.69653
▁mashariki	-9.69679
ir	-9.69753
▁WAKE	-9.69754
pitia	-9.69912
▁Tigo	-9.69976
▁maelekezo	-9.70045
▁akiongea	-9.70177
*	-9.70225
▁miliki	-9.70277
▁MKUTANO	-9.70282
▁WILAYA	-9.70307
fanyia	-9.70411
▁Mbowe	-9.70504
kamilika	-9.70531
agiza	-9.70546
▁dada	-9.70628
▁nguo	-9.70682
▁tuandikie	-9.70785
wasilisha	-9.70837
▁vikao	-9.70855
▁pointi	-9.70901
▁Copyright	-9.70992
et	-9.71009
▁shabiki	-9.71037
▁Makao	-9.71081
▁majengo	-9.71158
ju	-9.71219
▁Injili	-9.71223
▁Hayo	-9.71287
▁Te	-9.71326
▁masikioni	-9.71361
▁usio	-9.71426
▁So	-9.71564
000	-9.71594
▁kuamua	-9.71624
▁Rejea	-9.71698
▁Maswali	-9.71737
▁Ukumbi	-9.7174
▁wakubwa	-9.71769
▁Nini	-9.7188
▁Matumizi	-9.71962
▁mkewe	-9.72028
▁sa	-9.72041
▁mta	-9.72044
▁Tatu	-9.72124
▁Deutsche	-9.7219
▁Muongozo	-9.72213
▁Welle	-9.72278
▁asi	-9.72289
▁uhai	-9.72325
▁Mbali	-9.72371
tawala	-9.72476
▁Mjumbe	-9.72483
20	-9.72488
▁Mgombea	-9.72531
kubaliana	-9.72621
▁kadi	-9.72654
ele	-9.72679
▁kwangu	-9.72709
▁Demokrasia	-9.72743
▁Neno	-9.72761
▁Su	-9.72975
▁DODOMA	-9.7305
il	-9.73079
▁kuwasili	-9.73135
▁Ujumbe	-9.73274
tengeneza	-9.73321
▁Utumishi	-9.7337
▁migogoro	-9.73403
▁Kigwangalla	-9.73427
rejea	-9.73523
Makofi	-9.7356
▁kipato	-9.73782
▁WANAFUNZI	-9.73879
▁demokrasia	-9.73886
▁Kusikiliza	-9.73947
zingatia	-9.74003
▁kuvi	-9.74023
▁amewataka	-9.74057
▁kuonekana	-9.74186
▁Co	-9.74335
▁Nya	-9.74344
▁Wikipedia	-9.74416
▁matunda	-9.74433
▁Wiki	-9.74439
▁vyao	-9.74519
▁kutolewa	-9.74531
▁We	-9.74537
▁Geita	-9.74538
▁watakuwa	-9.74603
▁milele	-9.74866
▁Said	-9.74867
dhani	-9.74895
▁Nakili	-9.74916
lipwa	-9.7494
▁Makuu	-9.74963
tha	-9.75039
▁kiunganisho	-9.75084
▁viunganisho	-9.75161
▁utulivu	-9.75223
▁ng	-9.7523
▁Sekta	-9.75251
▁Ri	-9.75318
▁mapambano	-9.75362
▁Wetu	-9.75467
▁Klabu	-9.75531
▁bwana	-9.75572
▁wapinzani	-9.75606
▁sanaa	-9.75721
▁mifugo	-9.75873
▁jumuiya	-9.75897
▁Mke	-9.7594
▁tija	-9.76028
▁vipi	-9.76051
▁Ulimwengu	-9.76088
PI	-9.76089
▁anapo	-9.76289
▁miti	-9.76299
▁vyakula	-9.76358
▁vurugu	-9.76478
▁matakwa	-9.76528
▁mbegu	-9.76551
▁0	-9.76585
▁kuzalisha	-9.76588
▁Siasa	-9.76692
▁Mwenye	-9.76737
ah	-9.76805
andaliwa	-9.76829
▁Lindi	-9.76839
▁tisa	-9.76848
://	-9.76896
▁kutokuwa	-9.77019
tarajia	-9.77038
▁miji	-9.77079
▁sare	-9.77098
▁lile	-9.77105
▁Mawaziri	-9.77118
▁majira	-9.77132
aiwajibiki	-9.77137
▁Ke	-9.77139
▁mkali	-9.7714
▁Bungeni	-9.77191
▁>	-9.77206
▁HA	-9.77362
▁dharura	-9.77425
safiri	-9.77449
miliki	-9.77451
▁akim	-9.77456
▁Tuko	-9.77533
▁hau	-9.77572
▁Awamu	-9.77588
▁re	-9.77593
▁Wema	-9.77623
▁Wakala	-9.77651
▁2016.	-9.77666
lala	-9.77756
▁semina	-9.778
▁mapya	-9.77807
▁binti	-9.77812
▁ongezeko	-9.77833
▁nyakati	-9.77857
▁ujuzi	-9.77859
▁Uwekezaji	-9.77862
▁inasema	-9.77868
▁takribani	-9.77873
▁kiungo	-9.77886
▁Ajira	-9.77888
▁ubunge	-9.77894
▁mia	-9.77953
▁Chelsea	-9.7802
Ha	-9.78041
▁se	-9.78054
▁kuwania	-9.78223
▁kilichopo	-9.7828
▁kero	-9.7831
▁wawekezaji	-9.78457
▁England	-9.78486
▁bahari	-9.78518
elekea	-9.78631
▁dhati	-9.78654
▁rekodi	-9.78734
▁kupita	-9.78791
▁marufuku	-9.78822
▁Gazeti	-9.78852
▁Ufundi	-9.78889
▁mwalimu	-9.78952
▁ilitumwa	-9.78973
sahau	-9.79055
▁kufanikisha	-9.79077
jifunza	-9.79092
▁waliyo	-9.79104
▁(2)	-9.79119
▁kujali	-9.79199
▁Lo	-9.79235
▁mapendekezo	-9.79251
kiwa	-9.79296
▁wasomaji	-9.79359
furahi	-9.79375
▁DUNIA	-9.79411
▁Zitto	-9.79412
▁wanajeshi	-9.7945
▁uzazi	-9.79612
▁yalikuwa	-9.79658
▁wapenzi	-9.79688
▁mfuko	-9.79913
▁kumalizika	-9.80018
ad	-9.80037
▁wanavyo	-9.80076
▁langu	-9.80129
▁mahojiano	-9.80134
▁mikataba	-9.80144
▁Tano	-9.80157
▁Shi	-9.80274
▁imara	-9.80299
▁kuwasilisha	-9.80393
▁kukagua	-9.80431
nja	-9.80476
▁ndivyo	-9.80533
▁bodi	-9.80649
anzisha	-9.80677
▁Msemaji	-9.80686
tangazwa	-9.80704
▁malalamiko	-9.8071
LO	-9.80845
▁iliyokuwa	-9.8085
▁Nape	-9.80851
▁Donald	-9.80933
ar	-9.80969
▁niki	-9.81009
ia	-9.81055
▁mfululizo	-9.81062
▁Soka	-9.81075
▁unapo	-9.81164
▁alim	-9.81183
oni	-9.81187
umba	-9.81215
au	-9.81219
▁BABA	-9.81276
▁Be	-9.8134
▁kuunda	-9.81388
fahamika	-9.81391
▁MBEYA	-9.81432
▁kufuatilia	-9.81442
hara	-9.81837
▁aliwa	-9.81929
▁Muhimbili	-9.82005
▁ukaguzi	-9.82056
▁mapinduzi	-9.82101
at	-9.82114
▁Au	-9.82129
▁4.	-9.82131
ny	-9.82174
▁2009	-9.82208
▁YAKO	-9.82237
elezwa	-9.82336
nye	-9.824
—	-9.82518
▁walivyo	-9.82557
▁Ben	-9.82607
▁mungu	-9.82629
▁uwepo	-9.82672
▁akawa	-9.82721
▁Mar	-9.82736
shwe	-9.82765
▁Edward	-9.82799
▁IKULU	-9.82892
▁kua	-9.82902
▁kueleza	-9.83061
▁Kabla	-9.8312
shirikiana	-9.83121
uzi	-9.83154
▁mashtaka	-9.83323
▁NDANI	-9.83339
▁mema	-9.83343
▁Hamad	-9.8339
▁Ju	-9.83501
▁CHUO	-9.83651
▁Congo	-9.8367
▁kiu	-9.83687
pangwa	-9.83716
id	-9.83722
vunja	-9.83804
fikisha	-9.83852
▁Kauli	-9.8389
▁ukosefu	-9.83938
▁Nyingine	-9.8407
▁Kocha	-9.8409
▁kujibu	-9.84109
MO	-9.84181
▁kufanikiwa	-9.8419
shaji	-9.84299
▁KWANZA	-9.84453
▁hatu	-9.84594
sisitiza	-9.84662
▁SC	-9.84674
zindua	-9.84712
▁ukubwa	-9.84723
▁Karibu	-9.8477
▁tawala	-9.84802
▁uzito	-9.84839
▁Africa	-9.84854
▁Kitengo	-9.84885
tazama	-9.84916
▁mwanadamu	-9.84956
ini	-9.84963
▁wanafanya	-9.85043
▁uso	-9.85069
▁kukamilisha	-9.85228
hisi	-9.85255
▁lao	-9.85276
▁kurejea	-9.85303
▁kupigwa	-9.85388
▁wanataka	-9.85388
▁wizi	-9.85404
fuatilia	-9.85415
▁saini	-9.85418
▁utakao	-9.85419
▁07	-9.85428
mw	-9.85431
▁marekebisho	-9.85452
▁Wajumbe	-9.85511
▁nilikuwa	-9.85512
▁Kulia	-9.85521
▁Hakimu	-9.85583
▁Mwanamke	-9.85596
▁kuongezeka	-9.85628
ment	-9.85628
▁Hili	-9.85648
▁1,	-9.85657
▁St	-9.85669
▁Ziwa	-9.85687
▁Msaidizi	-9.85728
▁ufafanuzi	-9.85787
▁tuka	-9.85902
▁kukubali	-9.85972
.....	-9.86009
▁ofisini	-9.86068
▁anayo	-9.86102
▁waumini	-9.8616
thi	-9.86195
▁Fi	-9.86222
hama	-9.86304
▁Mali	-9.86307
▁Che	-9.86342
▁meli	-9.86386
▁usafi	-9.8641
▁Francis	-9.86505
▁endelevu	-9.86547
▁Kundi	-9.86554
▁masoko	-9.86575
▁Real	-9.86591
▁Papa	-9.86592
Tuna	-9.86607
▁ngozi	-9.86822
▁kuunga	-9.86831
▁mzazi	-9.86832
▁Uchumi	-9.86851
▁wanayo	-9.86892
▁pindi	-9.86918
badilika	-9.86929
yu	-9.86962
▁Uki	-9.86983
▁kuchagua	-9.8708
▁me	-9.87101
▁vyanzo	-9.87157
".	-9.87162
▁kipya	-9.872
wezekana	-9.87216
kufa	-9.87225
▁pole	-9.87253
▁Ethiopia	-9.87345
▁utu	-9.87346
▁)	-9.87396
aga	-9.8741
▁Tazama	-9.87518
▁haramu	-9.87557
▁Hi	-9.87557
▁@	-9.8756
▁upasuaji	-9.8772
▁so	-9.87798
kuta	-9.87819
▁Go	-9.87871
▁Vyama	-9.87903
▁70	-9.87914
▁inaendelea	-9.87967
▁90	-9.8797
▁kiti	-9.88019
▁wapiga	-9.88043
per	-9.88145
▁kukusanya	-9.88176
SS	-9.88179
jitahidi	-9.88222
▁May	-9.88236
▁Katoliki	-9.88243
▁Ho	-9.88257
▁Kitaifa	-9.88337
▁UMOJA	-9.88368
▁MAMBO	-9.88386
▁kutuma	-9.88405
▁mishahara	-9.88429
▁Ripoti	-9.88432
Ali	-9.88454
hitajika	-9.88497
▁kusikia	-9.88509
▁Nne	-9.88537
▁kubadilisha	-9.88549
kabidhi	-9.88668
▁AFRIKA	-9.88686
▁Peter	-9.88696
▁Marehemu	-9.88708
kula	-9.88767
▁Maoni	-9.88808
▁agizo	-9.88873
▁vema	-9.88913
▁mashine	-9.88939
▁tunaweza	-9.88964
jumuisha	-9.88992
▁aibu	-9.89089
kwe	-9.891
▁wanne	-9.89262
▁Mwili	-9.893
▁Kanuni	-9.89342
ibuka	-9.89616
▁akina	-9.89653
▁matendo	-9.89659
▁tuweze	-9.8969
▁ilipo	-9.89717
▁hadhara	-9.8976
chagua	-9.8981
▁upungufu	-9.89812
▁on	-9.89881
ndu	-9.89891
▁Mkapa	-9.89895
fundisha	-9.89923
▁Allah	-9.89923
▁Simiyu	-9.89956
dia	-9.9007
▁Awali	-9.9023
▁mojawapo	-9.90303
pungua	-9.90316
lisha	-9.90355
▁Mapato	-9.90377
▁kuwekeza	-9.90382
fanyi	-9.90395
10	-9.90405
CHA	-9.90508
endeshwa	-9.90511
▁baadae	-9.90513
shughulikia	-9.90515
▁nafsi	-9.90537
shukuru	-9.90606
HI	-9.90626
▁Mtanzania	-9.90669
▁ngono	-9.90703
▁labda	-9.90731
▁Filamu	-9.90732
mani	-9.90752
▁App	-9.90792
▁Do	-9.90888
alisema	-9.90938
Ka	-9.91012
tion	-9.91018
▁katibu	-9.91055
▁anataka	-9.91127
nt	-9.91129
▁wakiwemo	-9.91132
it	-9.91346
onya	-9.91361
▁madawa	-9.91365
▁Wewe	-9.91376
tumwa	-9.91427
▁kuelewa	-9.91436
vo	-9.91484
ache	-9.9152
▁Kiingereza	-9.9155
ungana	-9.91591
▁TA	-9.91598
ver	-9.91611
▁akasema	-9.91712
▁Ilala	-9.91713
▁kushika	-9.9175
▁Milioni	-9.91782
▁mingine	-9.9192
wezi	-9.91927
anzishwa	-9.91931
▁Lissu	-9.91949
▁ange	-9.91959
▁Odinga	-9.92018
Si	-9.92069
▁MAFUNZO	-9.9208
▁kikamilifu	-9.92279
▁jipya	-9.92303
▁tamasha	-9.92342
▁WAKATI	-9.92358
▁Somalia	-9.92414
▁Kufanya	-9.92437
▁kompyuta	-9.9245
sti	-9.92486
▁kifungo	-9.92552
▁kumpa	-9.92595
▁Uchukuzi	-9.92695
mshukuru	-9.92721
ingiza	-9.928
▁wanaoishi	-9.9286
▁waasi	-9.92888
ine	-9.92983
▁unataka	-9.93013
tetea	-9.93086
thibitisha	-9.93097
▁Emmanuel	-9.93164
▁haiku	-9.93172
▁kukamilika	-9.93185
▁In	-9.93225
GA	-9.93283
▁zitakazo	-9.93402
▁msichana	-9.93481
▁NAFASI	-9.93613
:-	-9.93628
▁data	-9.93668
▁kifungu	-9.93699
tamani	-9.93703
▁ZANZIBAR	-9.93717
▁takriban	-9.9375
▁mstaafu	-9.93772
▁Ti	-9.93789
▁online	-9.9391
lazimika	-9.93938
▁	-9.93961
▁Bajeti	-9.94075
vaa	-9.94078
▁mzee	-9.94081
▁mita	-9.9416
▁2005	-9.94208
▁maumivu	-9.94209
ang	-9.94274
▁Magereza	-9.94284
sia	-9.94312
▁200	-9.94365
▁Dawa	-9.94394
ZO	-9.94453
badili	-9.94497
▁JAMHURI	-9.94604
▁Zi	-9.9461
nce	-9.94667
zunguka	-9.94673
▁anga	-9.94717
▁vili	-9.94718
futa	-9.94751
▁Uta	-9.94763
▁kikundi	-9.94828
▁kuamini	-9.94918
▁Mchezo	-9.94919
▁Slaa	-9.9492
▁kugombea	-9.94952
▁mbinguni	-9.94959
▁hususan	-9.94976
kamatwa	-9.95006
▁mitihani	-9.95039
▁vigumu	-9.95056
▁MAMA	-9.95069
▁Jambo	-9.95141
gwa	-9.95149
athiri	-9.95212
▁vikundi	-9.95294
▁dhana	-9.95295
▁shamba	-9.95387
▁majadiliano	-9.95411
▁2018.	-9.95472
▁Radio	-9.95598
▁kilele	-9.95641
▁mifumo	-9.95669
▁Ally	-9.95709
▁David	-9.95711
▁jela	-9.95726
▁DUNIANI	-9.95728
pelekwa	-9.95732
▁isipokuwa	-9.95741
▁Sheikh	-9.95773
▁endapo	-9.95794
▁Bibi	-9.95924
pongeza	-9.95925
▁chenye	-9.95969
▁Zimbabwe	-9.95982
▁UNA	-9.96039
▁JESHI	-9.96167
▁ubingwa	-9.96171
ano	-9.96201
DI	-9.96382
un	-9.96415
▁joto	-9.96425
▁kukata	-9.96429
▁zima	-9.96442
▁Airtel	-9.96461
▁MUUNGANO	-9.96485
▁pengine	-9.96534
▁vyake	-9.96555
VU	-9.96557
▁asiye	-9.96587
▁AU	-9.96592
lio	-9.966
ambiwa	-9.96602
undwa	-9.96745
TUKO	-9.96755
unganisha	-9.96845
▁WATOTO	-9.96877
▁ho	-9.96884
▁Abdul	-9.96914
▁OFISI	-9.96937
▁zilikuwa	-9.96988
▁kwanini	-9.96991
▁likiwa	-9.97031
▁vikwazo	-9.9705
▁Ndiyo	-9.97061
▁Programu	-9.97078
okoa	-9.97135
rudisha	-9.97155
▁kaunti	-9.97169
chaguliwa	-9.97174
▁umekuwa	-9.9728
▁mtandaoni	-9.97281
jiunga	-9.97294
▁mw	-9.97302
▁MWANZA	-9.97315
mp	-9.97333
▁LIGI	-9.9741
▁Ndio	-9.97424
▁Bila	-9.9743
▁Rasmi	-9.97439
▁ktk	-9.97457
▁kimya	-9.97477
weke	-9.9748
sikiliza	-9.9755
▁ukuaji	-9.97638
fiki	-9.97664
▁mkopo	-9.97696
▁kutetea	-9.97699
▁kufungwa	-9.97707
▁Wengine	-9.97767
▁Mkataba	-9.97925
▁mitaa	-9.98005
ci	-9.98021
dumu	-9.98029
anga	-9.98044
▁Soma	-9.98046
▁Ubungo	-9.9813
▁jua	-9.98149
▁hasara	-9.98168
▁HALI	-9.98179
▁yenyewe	-9.98226
▁ji	-9.98232
▁matatu	-9.98301
▁makali	-9.98305
▁mwenzake	-9.98362
▁sijui	-9.98362
▁hakuwa	-9.98366
▁msiba	-9.98374
ssa	-9.98405
▁kifedha	-9.9842
▁itaendelea	-9.98451
▁wapya	-9.98469
▁b	-9.98474
▁London	-9.98547
as	-9.98658
▁Swahili	-9.98666
kwisha	-9.98703
▁Mifugo	-9.98717
▁samaki	-9.98741
▁Tuzo	-9.98756
▁hatia	-9.98777
▁fupi	-9.98916
▁mazishi	-9.99008
▁uendeshaji	-9.99058
▁ulemavu	-9.99063
▁SASA	-9.99162
▁James	-9.99255
▁SIMBA	-9.99328
▁Barcelona	-9.99404
▁Kweli	-9.99415
▁wahusika	-9.99507
▁ushindani	-9.99552
▁elfu	-9.99554
▁Hakika	-9.99556
▁sina	-9.99586
▁TUKO	-9.99617
▁MI	-9.99681
tengenezwa	-9.99686
sababishwa	-9.99706
▁Maria	-9.99737
▁busara	-9.99766
ns	-9.99774
▁kikazi	-9.99802
▁Hiyo	-9.9982
▁kima	-9.99826
tekelezwa	-9.99869
▁Saba	-9.99876
tz	-9.99919
kana	-9.99936
pendekeza	-9.99951
▁Paulo	-9.99964
shia	-9.99973
▁35	-9.99997
picha	-10.0002
elekeza	-10.0004
▁kidini	-10.0015
▁ifikapo	-10.0019
▁MAISHA	-10.0022
▁sakata	-10.0022
▁majeshi	-10.0024
▁POLISI	-10.0024
▁tamko	-10.0027
▁Upinzani	-10.0036
▁majimbo	-10.0042
▁rufaa	-10.0042
tumie	-10.0051
▁enzi	-10.0052
▁wenyeji	-10.0054
ili	-10.0055
YO	-10.0058
tuko	-10.0061
▁Binadamu	-10.0062
timiza	-10.0063
▁Brazil	-10.0068
jo	-10.0073
▁viungo	-10.0083
asi	-10.0086
▁Ummy	-10.0094
▁kujaribu	-10.0097
▁Mwezi	-10.01
▁amewa	-10.0104
▁nk	-10.0105
▁NAIBU	-10.0112
baini	-10.0112
ard	-10.0113
▁Mabingwa	-10.0115
▁kupanga	-10.0127
▁vyenye	-10.0133
▁fa	-10.0141
X	-10.0147
rd	-10.0149
▁Italia	-10.0152
▁Mechi	-10.0166
▁yaliyofanyika	-10.0169
▁mstari	-10.017
▁37	-10.017
▁Kushoto	-10.0176
▁kuongea	-10.0177
▁Pinda	-10.0182
▁unavyo	-10.0185
▁kuhamasisha	-10.0187
▁do	-10.0202
▁mkazi	-10.0208
▁kipekee	-10.021
kiri	-10.0211
▁hasira	-10.0217
▁UMMA	-10.0231
▁kuzindua	-10.0236
▁BONGO	-10.0238
anzia	-10.0238
maanisha	-10.0238
▁Twitter	-10.0241
▁chuki	-10.0243
andikwa	-10.0257
▁Dola	-10.0259
fanye	-10.0262
▁Mratibu	-10.028
shuka	-10.028
▁hadhi	-10.0283
▁p	-10.0286
▁CRDB	-10.0286
▁Jo	-10.0289
▁akimkabidhi	-10.0289
▁kume	-10.029
ud	-10.0295
ngine	-10.0298
▁haita	-10.0299
ngwe	-10.0299
▁Fu	-10.03
▁ufumbuzi	-10.0305
▁mtaa	-10.0308
▁mabingwa	-10.0308
shangaa	-10.031
▁Kidato	-10.0312
▁KAMA	-10.0318
▁PAMOJA	-10.0338
▁dhahabu	-10.0341
▁No	-10.0344
▁Mwananchi	-10.0347
▁Abdallah	-10.0348
▁ada	-10.0351
▁32	-10.0355
ishia	-10.0356
tii	-10.0358
jikuta	-10.0368
▁kujitokeza	-10.037
▁UN	-10.0372
hoji	-10.0373
gundua	-10.039
▁usawa	-10.0391
▁we	-10.0394
▁MAJI	-10.0396
▁inakuwa	-10.0396
▁Sita	-10.0406
▁Uislamu	-10.041
12	-10.0412
▁2008	-10.0412
▁magharibi	-10.042
▁AKUTANA	-10.0421
▁jukwaa	-10.0425
▁kuhifadhi	-10.044
▁ko	-10.0442
RO	-10.0446
▁Ne	-10.0452
▁mwingi	-10.0462
hudhuria	-10.0466
▁vikuu	-10.0467
▁Maneno	-10.0467
▁Sababu	-10.0468
Mb	-10.0469
▁Ca	-10.0472
▁kubadili	-10.0472
▁zipo	-10.0481
▁mme	-10.0483
wakilisha	-10.0487
BI	-10.0489
is	-10.0491
▁Ukweli	-10.0493
▁Wali	-10.0503
▁Kambi	-10.0503
▁2017/2018	-10.0505
▁kongamano	-10.0508
▁Vita	-10.0512
▁Mtazamo	-10.0521
▁mbadala	-10.0529
▁jinsia	-10.0531
▁majaribio	-10.054
▁uelewa	-10.054
▁kuvunja	-10.0543
▁kiroho	-10.0544
▁uharibifu	-10.0545
▁hazina	-10.0547
▁njaa	-10.0553
▁kamwe	-10.0556
▁o	-10.0558
▁utajiri	-10.0559
ul	-10.0559
▁MAJINA	-10.0562
▁YOTE	-10.0568
▁Mtaa	-10.057
▁halafu	-10.0583
uli	-10.0584
▁ukatili	-10.0586
▁Robert	-10.0592
jue	-10.0594
▁neema	-10.0599
▁JK	-10.06
▁huwezi	-10.0605
ripotiwa	-10.0606
▁urahisi	-10.0614
▁Mwanasheria	-10.0623
11	-10.0632
itaka	-10.0632
▁vitafungu	-10.064
▁maziwa	-10.0644
▁Takwimu	-10.0649
▁Ofisa	-10.065
▁2,	-10.0652
▁jibu	-10.0654
ungu	-10.0664
▁upate	-10.0668
2017	-10.0671
▁Israeli	-10.0672
▁Mwinyi	-10.0674
▁80	-10.068
▁Zambia	-10.0682
likuwa	-10.0687
▁X	-10.0693
▁Uvuvi	-10.0693
▁kaka	-10.0696
kabiliwa	-10.0699
▁maofisa	-10.0699
▁japo	-10.0706
▁Kikosi	-10.0708
▁swala	-10.0713
▁Wi	-10.0721
ifanya	-10.0722
punguza	-10.0728
▁Platnumz	-10.0736
▁kutoku	-10.0741
▁JUU	-10.0742
▁WANA	-10.0742
uzwa	-10.0746
swa	-10.0748
WI	-10.0749
▁June	-10.0749
▁alio	-10.0757
▁bandari	-10.0758
▁Ibrahim	-10.0758
PE	-10.076
▁maskini	-10.0762
▁kamusi	-10.0763
▁nyama	-10.0763
▁Karume	-10.0765
CHO	-10.077
▁kuhudhuria	-10.0774
▁Tarehe	-10.0776
▁JANA	-10.0777
hubiri	-10.0779
endeleza	-10.078
ruhusiwa	-10.0783
▁MBALIMBALI	-10.0783
rs	-10.0788
▁uwanjani	-10.0791
CO	-10.0799
▁kuwezesha	-10.0802
▁WANANCHI	-10.0806
▁mtindo	-10.0816
▁kingine	-10.0817
▁viti	-10.0818
▁bi	-10.0819
▁2007	-10.083
▁Wengi	-10.084
▁Hamisi	-10.0842
jiandaa	-10.0846
▁kazini	-10.0851
▁f	-10.0859
▁mapigano	-10.0862
▁kuepuka	-10.0877
▁Ime	-10.088
▁maarifa	-10.0883
▁alieleza	-10.0883
▁SIMU	-10.0885
▁SHULE	-10.0899
karibia	-10.0902
AN	-10.0906
▁ZIARA	-10.0913
▁NDIO	-10.0914
▁wema	-10.0918
▁kipaumbele	-10.092
▁16,	-10.0924
▁Ge	-10.0924
▁hadharani	-10.0928
▁▷	-10.0933
▁Imani	-10.0941
▁msi	-10.0948
▁kupeleka	-10.095
kazi	-10.0952
▁alifanya	-10.0954
zwe	-10.0954
der	-10.0954
▁Muda	-10.096
▁Manyara	-10.096
▁Kongo	-10.0962
▁Gu	-10.0964
▁vikosi	-10.097
▁kubaini	-10.0971
▁kubeba	-10.0978
▁KIKWETE	-10.0983
▁bo	-10.0984
▁Hadi	-10.0985
▁Liverpool	-10.0985
▁daima	-10.0986
lie	-10.0987
mfanya	-10.099
▁zilizopita	-10.0991
▁wawakilishi	-10.1002
▁Temeke	-10.1004
▁5.	-10.1015
▁Uhusiano	-10.1015
▁kukamatwa	-10.1017
▁Instagram	-10.1018
gawa	-10.1018
▁dhahiri	-10.1019
50	-10.102
▁inawezekana	-10.1025
▁Huyu	-10.1028
▁kuzungumzia	-10.1028
▁April	-10.1033
▁Masoko	-10.1034
▁Meya	-10.1041
ers	-10.1042
▁amefariki	-10.1044
gusa	-10.1047
▁2015.	-10.1052
▁imetoa	-10.1057
▁NEC	-10.106
▁Bandari	-10.1061
gha	-10.1067
anda	-10.107
▁300	-10.1071
▁madiwani	-10.1072
MBA	-10.1073
▁Wachezaji	-10.1077
▁napenda	-10.1081
▁hamu	-10.1084
▁Maalim	-10.1087
▁To	-10.1088
▁UKIMWI	-10.1088
▁shukrani	-10.1101
▁salamu	-10.1106
▁ninyi	-10.1109
▁nidhamu	-10.1125
▁umaskini	-10.1127
▁mlango	-10.1127
heshimu	-10.1129
▁ngoma	-10.1139
▁ungependa	-10.114
▁Du	-10.1141
”,	-10.1146
▁hisa	-10.1147
▁zenu	-10.1149
▁maradhi	-10.1149
zaa	-10.115
▁aliongeza	-10.1151
▁Serengeti	-10.1155
SU	-10.1163
▁Wilayani	-10.1165
▁shuleni	-10.1165
▁KATIBU	-10.1166
RU	-10.1169
▁watano	-10.1173
▁popote	-10.1176
tembea	-10.1177
karibisha	-10.1178
▁wanapaswa	-10.1178
kusanya	-10.1188
q	-10.1193
gmail	-10.1194
▁sayansi	-10.1195
▁for	-10.1196
land	-10.1199
▁kupa	-10.12
kamilisha	-10.1203
jaa	-10.121
▁minne	-10.1215
▁2006	-10.1219
▁Salum	-10.1219
▁maelfu	-10.122
▁Kampeni	-10.1229
▁WOTE	-10.1231
ster	-10.1232
NDI	-10.1236
▁fikra	-10.1239
▁Wakristo	-10.1244
▁pikipiki	-10.1246
▁wamesema	-10.1247
▁kufanyiwa	-10.125
iti	-10.1251
▁nyaraka	-10.1253
▁kuvutia	-10.1255
▁wawe	-10.1258
▁huruma	-10.126
athirika	-10.1264
ambatana	-10.1278
▁Moyo	-10.1279
▁ilivyokuwa	-10.1284
▁wanaishi	-10.1287
▁huja	-10.1295
NDA	-10.1297
achia	-10.1299
▁20,	-10.1299
''	-10.1301
▁bidii	-10.1302
2016	-10.1305
▁Mgeni	-10.1319
kabidhiwa	-10.1333
▁mfalme	-10.1338
▁mafundisho	-10.1339
fikiria	-10.1339
▁mawe	-10.1343
▁unayo	-10.1348
▁t	-10.1354
▁mshahara	-10.1355
chukulia	-10.1355
▁mwanachama	-10.1359
▁nakala	-10.1366
▁maambukizi	-10.1367
oga	-10.1369
▁Tiba	-10.1371
▁Wakenya	-10.1371
SE	-10.1375
ila	-10.1389
▁robo	-10.139
tiwa	-10.139
30	-10.1393
badilisha	-10.1395
▁Ar	-10.1406
▁kuwawezesha	-10.1406
▁Tukio	-10.141
▁ombi	-10.141
▁MJINI	-10.1422
▁hi	-10.1425
malizika	-10.1425
▁ALI	-10.1433
▁hususani	-10.1433
▁mto	-10.1438
▁kufahamu	-10.1438
kali	-10.1442
▁mwao	-10.1442
▁NYUMBA	-10.1442
bidi	-10.145
▁Kim	-10.145
▁Petro	-10.1452
▁Clouds	-10.1452
▁WALIO	-10.1453
▁Umeme	-10.1456
funguliwa	-10.1457
ote	-10.146
▁Jubilee	-10.1462
ff	-10.1462
▁kwasababu	-10.1463
▁Maeneo	-10.1468
▁mashamba	-10.1471
▁Simon	-10.1472
▁wastani	-10.1474
▁hauna	-10.1474
▁kukua	-10.1477
▁kihistoria	-10.1484
▁HAPO	-10.1486
wataka	-10.1489
some	-10.1492
▁15,	-10.1492
▁anafanya	-10.1494
▁SA	-10.1506
▁mo	-10.1514
▁be	-10.1515
▁Barabara	-10.1522
▁kuanzishwa	-10.1527
▁muundo	-10.1528
▁Upendo	-10.1529
▁uzima	-10.1534
▁Usimamizi	-10.1536
▁mkurugenzi	-10.1545
imba	-10.1546
▁kitengo	-10.155
▁kuifanya	-10.1563
▁ra	-10.1571
▁Pi	-10.1575
▁Ufalme	-10.1575
Afrika	-10.1585
potea	-10.1589
▁Muhimu	-10.159
▁lini	-10.1591
▁anavyo	-10.1592
▁Sikiliza	-10.1596
▁he	-10.1596
▁michango	-10.1598
▁Makazi	-10.1601
▁Aliongeza	-10.1603
▁ratiba	-10.1604
▁dhamira	-10.1607
saini	-10.1609
▁ubunifu	-10.1613
ee	-10.1615
▁Makamba	-10.1616
▁amefanya	-10.1616
▁Es	-10.1617
takuwa	-10.1623
fanana	-10.1623
▁BA	-10.1624
▁urefu	-10.1625
▁vyeti	-10.1629
▁g	-10.1632
▁Viwanja	-10.1635
▁El	-10.1644
▁wakifuatilia	-10.1645
▁MAENDELEO	-10.1645
Ta	-10.1648
▁Vyuo	-10.1649
ty	-10.165
aki	-10.165
▁Sura	-10.1651
▁mshambuliaji	-10.166
▁elezo	-10.1663
▁vigezo	-10.1668
VI	-10.1675
▁Mashindano	-10.1676
▁wenzetu	-10.1679
▁tendo	-10.1686
▁ulivyo	-10.1688
▁Ban	-10.1692
▁RASMI	-10.1698
▁mavazi	-10.1698
▁Gi	-10.1699
ol	-10.1701
patiwa	-10.1718
▁Tatizo	-10.1726
▁Mashirika	-10.1735
▁Sepetu	-10.1735
▁mzigo	-10.1736
▁karne	-10.1743
▁kunywa	-10.1745
zima	-10.1746
▁kulipwa	-10.175
▁alipotembelea	-10.1751
▁alipata	-10.1752
tuhumiwa	-10.1753
▁ubaguzi	-10.1759
▁Bukoba	-10.1761
▁vipaji	-10.1764
▁ambae	-10.1766
nk	-10.1774
▁kuingilia	-10.1777
GE	-10.1778
?”	-10.178
▁Wote	-10.1781
▁shindano	-10.1786
▁inapatikana	-10.1795
▁MWANAMKE	-10.1801
▁Ndugai	-10.1802
▁kulala	-10.1805
nywa	-10.1805
▁wenzao	-10.1806
▁mitambo	-10.181
hami	-10.1811
▁Miss	-10.1813
▁Mikopo	-10.1819
SHI	-10.1821
▁Rukwa	-10.1826
▁Asante	-10.183
▁kisa	-10.1831
▁UWANJA	-10.1831
▁reli	-10.1836
ngekuwa	-10.184
▁hekima	-10.1848
▁Wadau	-10.1853
▁Qur	-10.1862
kh	-10.1863
▁mikononi	-10.1865
keti	-10.1866
▁ulimwenguni	-10.1873
TFF	-10.1878
▁walisema	-10.1879
tupa	-10.188
▁akipokea	-10.1881
▁mizigo	-10.1883
▁Akizungumzia	-10.1891
ris	-10.1892
pambana	-10.1893
Mi	-10.1899
▁UJENZI	-10.1913
▁2000	-10.1914
▁Ng	-10.1921
▁SANA	-10.1925
tua	-10.1925
▁MICHEZO	-10.1926
▁MWA	-10.1929
▁SI	-10.1931
▁yatakayo	-10.1935
▁alizo	-10.1936
changa	-10.1936
▁mwanga	-10.1938
▁kuchunguza	-10.194
▁miili	-10.1941
NG	-10.1942
▁budi	-10.1947
tumikia	-10.1948
▁email	-10.1949
buni	-10.1952
mail	-10.1952
▁nami	-10.1957
▁goli	-10.1958
bia	-10.1958
▁mteja	-10.1961
▁FA	-10.1963
▁uhaba	-10.1967
▁ufundi	-10.1968
▁hadithi	-10.1969
▁eti	-10.197
hudumu	-10.1972
▁Chakula	-10.1979
▁Nnauye	-10.1981
bisha	-10.1981
▁Jina	-10.1985
▁wanapata	-10.1985
▁TRA	-10.1986
▁January	-10.1991
▁Michael	-10.1993
▁kashfa	-10.1995
▁Job	-10.1998
▁Kisha	-10.2006
sifu	-10.2009
kumbwa	-10.2012
▁serikalini	-10.2012
ambia	-10.2015
gharimu	-10.2027
Tanzania	-10.2039
▁kushughulikia	-10.2041
toe	-10.2042
▁Mto	-10.2043
kimbia	-10.2046
▁msamaha	-10.2051
▁Kitabu	-10.2053
fo	-10.2055
▁operesheni	-10.206
▁Safari	-10.206
▁Japan	-10.206
▁Sala	-10.2061
▁kutakuwa	-10.2064
▁kupima	-10.2069
▁Ukimwi	-10.207
▁taaluma	-10.2071
▁12,	-10.2073
▁kiki	-10.2076
▁Asia	-10.2083
▁KUTOA	-10.2083
▁unahitaji	-10.2086
▁KAMATI	-10.2091
▁uweze	-10.2092
▁kuwataka	-10.2095
▁HUDUMA	-10.2118
▁TANESCO	-10.2119
▁Kumi	-10.2122
▁sikukuu	-10.2122
▁mwenendo	-10.2122
▁Po	-10.2125
▁WIKI	-10.2132
fariki	-10.2136
▁Tangu	-10.2138
▁kwenu	-10.2139
▁mgonjwa	-10.214
GO	-10.2144
▁Usi	-10.2147
▁faini	-10.2148
▁virusi	-10.2153
▁yafuatayo	-10.2156
▁wamiliki	-10.2166
▁Watumishi	-10.2167
▁mzozo	-10.2168
▁Tafadhali	-10.217
▁mabasi	-10.2194
▁saratani	-10.2195
bainika	-10.2195
▁mti	-10.2198
▁Bonyeza	-10.22
furahia	-10.2201
▁kuokoa	-10.2205
jui	-10.2207
▁Sauti	-10.2208
▁makusudi	-10.2212
▁zinaweza	-10.2216
▁mwendo	-10.2217
rt	-10.2217
KWA	-10.2221
▁fi	-10.2222
▁Ziara	-10.2222
18	-10.223
▁Kupitia	-10.2231
mpenda	-10.2235
▁Kura	-10.2239
ct	-10.2242
▁kushangaza	-10.2246
▁kuonesha	-10.2247
▁maka	-10.2248
▁akihutubia	-10.2254
▁viwili	-10.226
ari	-10.2265
ula	-10.2276
▁mgumu	-10.2278
▁redio	-10.228
▁wanadamu	-10.228
▁Aka	-10.2282
▁mwelekeo	-10.2284
ara	-10.2284
▁Jana	-10.2289
jia	-10.2289
▁Anasema	-10.2289
▁Walimu	-10.229
▁BORA	-10.229
▁Lengo	-10.2299
▁Tamasha	-10.2303
▁Mwenge	-10.2311
▁tawi	-10.2319
▁bingwa	-10.2324
▁mtumishi	-10.2326
▁kumw	-10.2329
tosha	-10.2331
▁Wawakilishi	-10.2339
▁Ila	-10.2348
▁pombe	-10.2351
▁Hussein	-10.2355
▁humu	-10.2355
▁aweze	-10.2357
jiri	-10.2361
▁Arabia	-10.2367
▁is	-10.2367
▁Ruvuma	-10.2371
dhibiti	-10.2375
▁kuchukuliwa	-10.2379
▁inaonyesha	-10.2379
nza	-10.238
zinduliwa	-10.2381
▁awa	-10.2391
ld	-10.2395
▁tusi	-10.2397
▁Iraq	-10.2397
▁maagizo	-10.2402
▁Hapo	-10.2404
▁KIMATAIFA	-10.2409
▁TAREHE	-10.2409
▁Vijijini	-10.2412
▁angalau	-10.2415
▁hatuna	-10.2416
▁chao	-10.2416
▁anatarajiwa	-10.2417
▁Miongoni	-10.2423
▁33	-10.2424
▁zimekuwa	-10.2424
▁ulipo	-10.2427
CHADEMA	-10.2429
▁washindi	-10.2431
▁Disemba	-10.2431
▁ziwa	-10.2435
shambulia	-10.2439
▁kuachana	-10.2439
▁Dewji	-10.2441
▁AKIWA	-10.2442
▁Kahama	-10.2451
▁YANGA	-10.2457
24	-10.2458
mali	-10.2458
▁maonyesho	-10.2463
UN	-10.2465
les	-10.2481
▁hawajui	-10.2482
▁amem	-10.2484
▁MWENYE	-10.2485
=	-10.2489
▁harusi	-10.2489
▁nadhani	-10.2492
▁2019	-10.2493
▁BWANA	-10.2501
▁inapo	-10.2502
CA	-10.2503
tt	-10.2506
▁masaa	-10.2508
▁tunayo	-10.2509
kabili	-10.2511
saidie	-10.2511
▁KUFANYA	-10.2514
amuzi	-10.2518
▁MWENYEKITI	-10.2523
▁watuhumiwa	-10.2524
lakini	-10.2524
Q	-10.2525
▁WATANZANIA	-10.2529
▁Bar	-10.2529
▁muafaka	-10.2532
▁haiwezi	-10.2532
▁wataalam	-10.2532
▁''	-10.2533
fikiwa	-10.2538
ST	-10.2548
▁Msaada	-10.255
▁Historia	-10.2553
ungwa	-10.2554
▁daktari	-10.2558
▁kibinadamu	-10.2558
▁Kitu	-10.2561
ripoti	-10.2562
▁14,	-10.2565
▁Darasa	-10.2567
40	-10.257
▁isi	-10.2572
▁nazo	-10.2572
▁Mwanzo	-10.2575
▁shirikisho	-10.2578
▁taa	-10.2579
ZE	-10.2581
▁Libya	-10.2584
▁Mola	-10.2584
▁madarasa	-10.2594
▁Wakurugenzi	-10.2598
▁Ghana	-10.2611
ser	-10.2612
▁Google	-10.2615
RT	-10.262
▁MASOMO	-10.2621
▁kuibuka	-10.2623
▁wafugaji	-10.2624
▁Philip	-10.2624
▁Sugar	-10.2626
elewe	-10.2634
▁Hizi	-10.2644
▁Ingawa	-10.265
07	-10.2656
▁ushiriki	-10.2658
▁che	-10.2658
▁jiwe	-10.2662
▁tunaomba	-10.2663
ton	-10.2666
▁45	-10.2667
▁10,	-10.2668
▁mwema	-10.2675
▁maandishi	-10.2684
▁kibali	-10.2701
▁500	-10.2707
▁York	-10.2708
▁by	-10.2715
▁Dini	-10.2715
Ba	-10.2723
fikishwa	-10.2728
▁televisheni	-10.2733
wo	-10.2737
zalisha	-10.2741
ssi	-10.2742
▁Mfano	-10.2742
▁lingine	-10.2742
▁mwanzoni	-10.2743
▁PA	-10.2744
▁SITA	-10.2745
ms	-10.2757
▁She	-10.2758
ogopa	-10.276
▁chetu	-10.2764
hari	-10.2765
▁kutenda	-10.2767
▁tani	-10.277
toke	-10.2774
▁tasnia	-10.2784
▁Ramadhani	-10.2784
Chadema	-10.2784
▁aliwataka	-10.2785
▁inatoa	-10.2788
▁kigaidi	-10.279
▁KUPATA	-10.2793
HU	-10.2795
ada	-10.2807
▁MB	-10.2809
leo	-10.2809
▁taji	-10.2811
▁Anna	-10.2814
14	-10.2814
▁Wimbo	-10.282
ulize	-10.2822
▁DRC	-10.2822
▁mumewe	-10.2823
▁co	-10.2826
▁36	-10.2827
▁KILA	-10.2831
▁OKTOBA	-10.2833
▁ifuatavyo	-10.2833
▁ja	-10.2839
▁kujiuzulu	-10.2846
zia	-10.2856
▁uvuvi	-10.2869
CH	-10.2871
Sa	-10.2875
▁Naomba	-10.2879
▁alidai	-10.2885
▁udhibiti	-10.2887
NU	-10.2888
▁Haji	-10.2895
▁Licha	-10.2895
▁Kinana	-10.2895
▁Nguvu	-10.2895
▁kumekuwa	-10.2896
▁kusimama	-10.2896
??	-10.2907
▁d	-10.291
▁waliopo	-10.2916
▁Shilingi	-10.2918
▁iweze	-10.2919
▁MWISHO	-10.2932
▁Muhammad	-10.2932
mwa	-10.2934
▁Bagamoyo	-10.2934
teuliwa	-10.2942
▁hawata	-10.2943
vutia	-10.2944
15	-10.2948
▁kushuhudia	-10.2956
▁4,	-10.2956
▁mzunguko	-10.296
▁mtangazaji	-10.2961
▁kijinsia	-10.2962
▁aliwahi	-10.2964
▁Amerika	-10.2964
hifadhi	-10.2968
▁umaarufu	-10.2971
▁MOJA	-10.2974
▁sija	-10.2976
▁HIYO	-10.2981
▁maudhui	-10.2982
▁JKT	-10.2986
washukuru	-10.2988
▁kuruhusu	-10.2991
▁Mfalme	-10.2991
▁chako	-10.2994
▁2017/18	-10.2999
▁Saudi	-10.3003
▁utumishi	-10.3004
▁madogo	-10.3005
nufaika	-10.3008
SHWA	-10.3022
▁magoli	-10.3027
▁tuwe	-10.3028
▁kujitoa	-10.3033
▁limekuwa	-10.304
▁ukanda	-10.3041
salia	-10.3042
▁ustawi	-10.3047
▁kufuzu	-10.3049
mtaka	-10.3052
uwa	-10.3057
▁alii	-10.3057
▁ghafla	-10.306
▁LI	-10.3065
▁sukari	-10.3068
▁ipasavyo	-10.3069
▁afisa	-10.3071
pitisha	-10.3074
▁Eneo	-10.3074
▁po	-10.3076
▁Wale	-10.3078
▁no	-10.3083
▁adui	-10.3093
16	-10.3094
tolea	-10.3099
▁Car	-10.3101
▁nyuklia	-10.3107
samehe	-10.3109
▁Mchezaji	-10.3116
▁duka	-10.3119
▁Mchungaji	-10.3124
▁misitu	-10.3125
▁Mwigulu	-10.3125
▁Kulingana	-10.3126
▁Njombe	-10.3129
▁maduka	-10.3131
▁kadhalika	-10.3132
▁17,	-10.3135
UA	-10.3136
uma	-10.3146
▁MU	-10.315
▁mjumbe	-10.3156
▁itikadi	-10.3157
▁visa	-10.3159
▁Swali	-10.3166
▁washirika	-10.3168
oo	-10.3176
+	-10.3177
▁Miguu	-10.3181
em	-10.3184
▁kuwapatia	-10.3191
▁inaonekana	-10.3193
▁Ushirika	-10.3196
misha	-10.3198
▁Ruto	-10.3201
kati	-10.3203
▁SOMA	-10.3203
▁da	-10.3204
▁1-0	-10.3205
▁ushawishi	-10.3207
▁Familia	-10.3208
ajiri	-10.323
▁Kikao	-10.3232
▁Gavana	-10.3233
▁kufikiri	-10.3233
▁amei	-10.3235
▁zinasema	-10.3235
ura	-10.3237
▁FIFA	-10.3239
▁mfanyakazi	-10.3239
▁Kijamii	-10.3239
▁kiafya	-10.324
▁NASA	-10.3243
chunguza	-10.3247
▁uwazi	-10.3247
tangulia	-10.325
19	-10.3257
▁waliohudhuria	-10.326
▁Hoteli	-10.3263
hawapo	-10.3267
▁kutembea	-10.3279
▁maonesho	-10.3286
ashiria	-10.3286
▁Wasiliana	-10.3287
▁Daraja	-10.3287
▁mateso	-10.3294
teka	-10.3297
sasa	-10.33
SO	-10.3301
▁www	-10.3301
tenga	-10.3307
▁somo	-10.331
▁fani	-10.331
▁baridi	-10.3312
▁mwananchi	-10.3316
▁ccm	-10.3316
▁ununuzi	-10.3319
▁kuthibitisha	-10.3321
▁wapiganaji	-10.3324
▁go	-10.3327
CE	-10.3329
▁Mbarawa	-10.3329
▁kwaajili	-10.3334
2018	-10.3337
FI	-10.3338
▁Kongamano	-10.3341
▁kukabidhi	-10.3351
katika	-10.3352
MBO	-10.3353
▁wanatakiwa	-10.3354
▁tanzania	-10.336
moja	-10.3361
▁imeanza	-10.3363
▁wanaendelea	-10.337
Tu	-10.3373
▁Salma	-10.3381
twa	-10.3383
sheni	-10.3384
▁hawawezi	-10.3384
▁25,	-10.3389
DU	-10.3392
▁Ume	-10.3392
▁mwake	-10.3393
ber	-10.3394
Mimi	-10.3395
▁vikali	-10.3397
▁BUNGE	-10.3399
▁Maalumu	-10.3404
▁Nchemba	-10.3407
shirikisha	-10.341
▁Uhamiaji	-10.3411
nti	-10.3411
▁34	-10.3412
▁tathmini	-10.3413
▁Fe	-10.3432
▁kiserikali	-10.3432
▁kilo	-10.3433
wafanya	-10.3442
▁Jukwaa	-10.3444
▁Membe	-10.3449
▁wahamiaji	-10.345
▁(1	-10.3454
kasema	-10.3455
olewa	-10.3456
▁KUTAZAMA	-10.3457
▁kuungana	-10.3462
▁su	-10.3465
▁KUBWA	-10.3467
▁Mada	-10.3467
▁Musa	-10.347
org	-10.3474
▁kilomita	-10.3476
▁ikawa	-10.3478
▁kuhusika	-10.3482
▁30,	-10.3483
▁uliofanywa	-10.3486
▁Y	-10.3489
hukumu	-10.3497
▁Mba	-10.3502
▁yamekuwa	-10.3505
▁wapatao	-10.3508
ala	-10.3508
ongeze	-10.3511
▁kurejesha	-10.3511
▁zinazoendelea	-10.3513
azi	-10.3513
▁Salim	-10.3514
▁kabila	-10.3517
▁mwongozo	-10.3517
▁madeni	-10.3519
▁baraka	-10.3519
▁3,	-10.3521
▁nikiwa	-10.3521
▁ARUSHA	-10.3522
▁kufu	-10.3532
▁movie	-10.3536
01	-10.3539
▁NMB	-10.354
▁7,	-10.3541
ondo	-10.3543
▁Nafasi	-10.355
iba	-10.355
▁Malawi	-10.355
▁inge	-10.3556
MB	-10.3559
hali	-10.3561
Vi	-10.3564
ombea	-10.3568
▁kijijini	-10.3568
ongezea	-10.3568
▁kifupi	-10.3575
▁Kiba	-10.3576
▁tafsiri	-10.3582
▁Mafanikio	-10.3583
▁vipindi	-10.3583
▁kusambaza	-10.3584
ingi	-10.3587
▁Vya	-10.3588
▁Sitta	-10.3595
▁v	-10.36
▁Group	-10.3601
▁kuadhimisha	-10.3607
▁Maadhimisho	-10.3608
▁wenzangu	-10.3609
▁sala	-10.3612
▁UCHAGUZI	-10.3613
▁Uzinduzi	-10.3613
▁Mary	-10.3625
shangaza	-10.3627
▁Maandishi	-10.3627
ame	-10.3631
▁vyumba	-10.3639
▁BARA	-10.3644
▁Aliyekuwa	-10.3645
▁FEDHA	-10.3646
▁mwakilishi	-10.3648
▁kuisaidia	-10.3657
▁6.	-10.3658
pende	-10.3665
▁Kisutu	-10.3666
shikilia	-10.3669
▁unaendelea	-10.3673
BO	-10.3678
Kama	-10.3679
▁umakini	-10.368
▁uliyo	-10.368
▁42	-10.3684
▁kuka	-10.3686
▁kusafiri	-10.3686
▁ILI	-10.3688
▁umbali	-10.3688
bara	-10.3689
▁BENKI	-10.369
▁mgomo	-10.3694
bainisha	-10.3696
▁Rashid	-10.3696
▁TANO	-10.3698
▁kando	-10.3702
▁KIKUU	-10.3706
▁Fursa	-10.371
▁ujauzito	-10.371
▁Kidemokrasia	-10.3719
Je	-10.3719
tukio	-10.3729
▁MTU	-10.3739
▁Upate	-10.3741
▁Roma	-10.3741
▁DC	-10.3743
▁uchimbaji	-10.3745
▁fidia	-10.3745
▁inafanya	-10.3754
▁ufugaji	-10.3756
▁Mtangazaji	-10.3757
▁AKI	-10.3759
23	-10.3765
wepo	-10.3766
▁Ndg	-10.3769
▁haikuwa	-10.3769
▁ushuru	-10.3771
tambulisha	-10.3773
▁Hispania	-10.3776
▁ufahamu	-10.378
▁utata	-10.378
▁HUYU	-10.3781
▁sote	-10.3781
▁CHAMA	-10.3781
▁Merkel	-10.3788
▁mifuko	-10.379
▁BODI	-10.3791
▁shambulio	-10.3791
▁tajiri	-10.3796
▁zikiwa	-10.3804
▁Ye	-10.3804
▁h	-10.3806
▁ugaidi	-10.3815
mizi	-10.3819
kosea	-10.3821
▁usafirishaji	-10.3836
▁raha	-10.3839
▁Moto	-10.384
ou	-10.3841
pia	-10.3846
▁maafa	-10.3848
▁22,	-10.3851
shawishi	-10.3855
ting	-10.3856
▁mageuzi	-10.3859
▁mamilioni	-10.3859
▁bu	-10.3868
▁manispaa	-10.3875
▁FM	-10.3876
▁19,	-10.388
kili	-10.3885
▁11,	-10.3886
▁matarajio	-10.3891
▁Muziki	-10.3897
21	-10.3901
▁kudumisha	-10.3903
▁Makame	-10.3909
NGO	-10.3915
▁$	-10.3915
▁ajenda	-10.3916
▁deni	-10.3916
▁kada	-10.3917
▁5,	-10.392
▁kelele	-10.3921
sajili	-10.3927
▁Wanao	-10.3928
▁MECHI	-10.3931
▁alisisitiza	-10.3933
▁mauzo	-10.3933
▁Daudi	-10.3937
▁kutunza	-10.3938
▁Raia	-10.3944
the	-10.3947
usi	-10.3955
▁pasipo	-10.3966
▁kupenda	-10.3969
ran	-10.3969
▁laki	-10.3972
,2018	-10.3979
▁Kagame	-10.3983
▁Yake	-10.3984
lima	-10.399
▁Mwenyewe	-10.3991
saba	-10.3996
lika	-10.3998
AJI	-10.4007
▁Chu	-10.4007
06	-10.4009
▁wange	-10.401
▁Tsh	-10.4011
▁cheti	-10.4013
letwa	-10.4013
▁Uchunguzi	-10.4014
▁alicho	-10.4015
▁kushuka	-10.4017
▁sumu	-10.4025
▁akifanya	-10.4027
▁Ngu	-10.4033
imarisha	-10.4034
amuru	-10.4044
▁kirafiki	-10.4048
INI	-10.4048
▁mhariri	-10.4049
▁II	-10.4053
▁kupatiwa	-10.4057
▁Mahiga	-10.4057
▁wavulana	-10.4065
▁Daniel	-10.4065
▁VIJANA	-10.4065
op	-10.4067
IC	-10.4067
▁Kucheza	-10.4068
▁akifungua	-10.407
▁anajua	-10.4072
▁400	-10.4075
▁Bahari	-10.4075
▁13,	-10.4078
▁?	-10.4078
aka	-10.4085
▁kuwekwa	-10.4085
▁kusisitiza	-10.4092
danganya	-10.41
▁maandiko	-10.4104
anguka	-10.4104
▁kukataa	-10.4106
kweli	-10.4113
ANA	-10.4122
▁balozi	-10.4124
▁moyoni	-10.4127
▁ORODHA	-10.413
takatifu	-10.4131
▁Pu	-10.4133
▁mabomu	-10.4134
▁mka	-10.414
dy	-10.4147
08	-10.4159
▁kusitisha	-10.4161
▁fu	-10.4162
▁kusubiri	-10.4162
amu	-10.4162
hamia	-10.4163
▁Kabwe	-10.4163
▁meza	-10.4173
▁inahitaji	-10.4185
▁IDADI	-10.4187
tabiri	-10.4188
kiuka	-10.419
sali	-10.4191
▁Rufaa	-10.4201
▁6,	-10.4208
▁24,	-10.4209
anze	-10.4212
▁tahadhari	-10.4213
▁Wazazi	-10.4214
▁WADAU	-10.4215
tengwa	-10.4219
mwe	-10.422
▁masikini	-10.422
▁mfanyabiashara	-10.4222
▁vipimo	-10.4234
▁ghasia	-10.4235
▁Wenye	-10.4235
rejesha	-10.4239
▁uadilifu	-10.4243
onge	-10.4246
▁MAPENZI	-10.4247
▁jingine	-10.4253
▁posho	-10.4255
:00	-10.4256
▁29,	-10.4257
▁shinikizo	-10.426
▁kipa	-10.4262
olojia	-10.4263
▁Mwanadamu	-10.4265
▁21,	-10.4266
▁ametangaza	-10.4269
▁Mussa	-10.428
▁Q	-10.4282
kumbusha	-10.4284
lan	-10.4286
17	-10.4287
▁Mpekuzi	-10.4288
▁walizo	-10.4293
▁Ubalozi	-10.4297
▁alianza	-10.4301
▁mioyo	-10.4302
▁umasikini	-10.4303
▁Yule	-10.4303
ondolewa	-10.4304
▁WhatsApp	-10.4306
Mo	-10.4309
▁kuunganisha	-10.4309
▁niliyo	-10.431
▁Chini	-10.4311
nyang	-10.4317
▁12:00	-10.4326
uni	-10.4336
▁ushirika	-10.4338
▁MIKOA	-10.4338
▁wasomi	-10.4339
▁Miradi	-10.4342
▁Zetu	-10.4343
▁MWILI	-10.4345
jiuliza	-10.4357
▁akiwemo	-10.436
wasilishwa	-10.4365
▁bin	-10.4375
achwa	-10.4378
▁kufuta	-10.4379
▁Amina	-10.4385
▁Benjamin	-10.4386
▁mshikamano	-10.4386
▁kufanywa	-10.4387
▁vinginevyo	-10.4389
▁Media	-10.4394
▁Mshambuliaji	-10.4397
▁lililopo	-10.4397
00	-10.4402
▁DR	-10.4407
iri	-10.4411
▁(3)	-10.4411
YE	-10.4412
▁kuelezea	-10.4413
▁Mwi	-10.4415
▁bima	-10.4415
bakia	-10.442
▁Akiwa	-10.4423
▁Jafo	-10.4423
▁Harrison	-10.4425
hudumia	-10.4426
33	-10.4432
haribu	-10.4433
▁kuua	-10.4441
▁Askari	-10.4442
▁wakimsikiliza	-10.4443
▁Maadili	-10.4443
▁Lema	-10.4445
▁naona	-10.4446
tunza	-10.445
llah	-10.445
▁Ndoa	-10.4451
▁kuchaguliwa	-10.4452
uraguri	-10.4452
▁UTALII	-10.4454
▁udhaifu	-10.4454
▁Kiarabu	-10.4455
▁kufundisha	-10.4455
▁JINSI	-10.4456
ulizwa	-10.4457
▁Alikuwa	-10.4458
▁tuma	-10.4458
eli	-10.4461
▁Ltd	-10.4465
LIA	-10.4467
ene	-10.4477
▁18,	-10.4478
▁mwenyeji	-10.4478
▁Yoyote	-10.4478
rea	-10.4481
▁radhi	-10.4485
mwambia	-10.4488
▁wazo	-10.4491
haba	-10.4493
▁tuichapishe	-10.4493
tambulika	-10.4494
▁Namba	-10.4495
▁cheo	-10.4498
▁mwangi	-10.4503
kosoa	-10.4504
▁kuhamia	-10.4505
▁Majina	-10.4506
tra	-10.4511
kupa	-10.4512
▁Mapenzi	-10.4512
▁kimapenzi	-10.4514
05	-10.4515
▁Ustawi	-10.4515
▁HIVI	-10.4516
▁dogo	-10.4517
▁Tuli	-10.4518
NGU	-10.4521
▁ST	-10.4523
▁wapate	-10.4524
▁Saa	-10.4525
wasaidia	-10.4529
▁kubaki	-10.4543
Lakini	-10.4547
......	-10.4548
hani	-10.455
▁Ham	-10.4554
im	-10.4556
laani	-10.4557
iomba	-10.4562
▁mikubwa	-10.4568
tenge	-10.4569
▁Jipatie	-10.4573
▁wasiliana	-10.4573
toto	-10.4574
chapa	-10.4576
▁havi	-10.458
wekeza	-10.4584
▁Mtihani	-10.4589
▁48	-10.4591
▁Mugabe	-10.4591
▁DK	-10.4592
▁kuamkia	-10.4593
▁maswala	-10.4593
▁naamini	-10.4594
▁Washington	-10.4596
▁bendera	-10.4597
▁banda	-10.4598
▁Aliye	-10.4603
▁watalii	-10.4604
ugu	-10.4608
▁linaweza	-10.4609
mini	-10.4619
▁ujasiri	-10.4625
▁Tofauti	-10.4625
ibu	-10.4626
▁kung	-10.4628
fua	-10.4631
NEC	-10.4632
▁AM	-10.4634
▁Ratiba	-10.464
▁nyongeza	-10.465
▁2020	-10.4651
twaa	-10.4657
▁Songea	-10.4661
bati	-10.4677
▁mata	-10.4678
ika	-10.4683
▁ukarabati	-10.4685
▁kujitolea	-10.4689
chukue	-10.469
▁kinga	-10.469
▁Ronaldo	-10.4691
eleze	-10.4693
▁Mandela	-10.4694
aa	-10.4695
▁wanazo	-10.4698
res	-10.4699
▁10.	-10.4702
▁AJALI	-10.4703
kutwa	-10.4703
▁ukusanyaji	-10.4704
▁Mbo	-10.471
▁Mw	-10.4714
▁kutazama	-10.4717
▁taka	-10.4717
▁WANAWAKE	-10.4717
CT	-10.4723
▁Msajili	-10.4724
▁lika	-10.4726
▁majeruhi	-10.4726
▁toleo	-10.4727
▁Mta	-10.4731
▁alipowasili	-10.4731
geuka	-10.4732
▁kutwaa	-10.4732
▁VVU	-10.4733
kari	-10.4734
▁Madaktari	-10.4737
▁MATAIFA	-10.4742
nyu	-10.4745
ight	-10.4746
▁wanahitaji	-10.4749
vuta	-10.475
▁mashaka	-10.4762
▁Freeman	-10.4769
▁MIKOPO	-10.4772
▁mmiliki	-10.4776
waambia	-10.4777
ELE	-10.478
▁MBUNGE	-10.4787
▁Viti	-10.4788
jikita	-10.4796
▁beki	-10.4797
takapo	-10.4797
▁chaguzi	-10.4801
▁mamia	-10.4801
TAKA	-10.4805
▁tunapo	-10.4806
pigania	-10.481
husi	-10.481
yi	-10.4811
Mungu	-10.4811
ovu	-10.4815
▁RADIO	-10.4815
Katika	-10.4819
▁amesha	-10.4819
▁kutegemea	-10.4819
▁Blogu	-10.482
rudia	-10.4821
▁Foundation	-10.4821
▁machache	-10.4822
▁JOHN	-10.4827
▁Binafsi	-10.4829
bwa	-10.483
adhimisha	-10.4846
▁JE	-10.4848
apa	-10.4855
▁2002	-10.4862
▁kurasa	-10.4862
CC	-10.4864
▁Ole	-10.4864
25	-10.4866
ker	-10.4868
▁kucha	-10.4871
▁Sherehe	-10.4875
▁KILIMO	-10.4876
bariki	-10.4885
▁MUDA	-10.4887
sajiliwa	-10.4889
nzo	-10.489
▁Alex	-10.49
▁vidogo	-10.4901
▁mitaani	-10.4903
ama	-10.4907
▁kuharibu	-10.4913
▁akam	-10.4915
▁ndilo	-10.4915
▁Usipitwe	-10.4919
▁Madiwani	-10.4921
mar	-10.4931
ume	-10.4932
▁DIAMOND	-10.4932
simamiwa	-10.4934
▁Lipumba	-10.4942
▁WENYE	-10.495
▁February	-10.495
▁Yetu	-10.4952
▁TIMU	-10.496
▁heri	-10.4961
▁akutana	-10.4964
mb	-10.4969
▁mtaji	-10.4969
▁kale	-10.4969
▁shahada	-10.497
CHE	-10.497
pitishwa	-10.4977
▁Mpaka	-10.4978
▁23,	-10.4979
▁vilevile	-10.498
▁viumbe	-10.4982
▁msemaji	-10.4982
▁azma	-10.4986
sikika	-10.4988
chezwa	-10.4989
▁wamesha	-10.4991
▁kujiandaa	-10.4992
▁Allaah	-10.4992
▁kuingiza	-10.4995
▁Mbu	-10.4998
▁utukufu	-10.4999
▁Kikristo	-10.5001
ege	-10.5003
▁mwilini	-10.5007
▁Bima	-10.5008
▁hauja	-10.5009
pendekezwa	-10.5011
▁SEHEMU	-10.5013
▁tujadiliane	-10.5016
▁2-1	-10.5018
▁KUM	-10.5023
umiza	-10.5024
hakikishia	-10.5025
▁MO	-10.5028
▁wivu	-10.5028
ota	-10.5033
▁mafuriko	-10.5034
▁kuoa	-10.5038
▁·	-10.5043
tani	-10.5049
Kila	-10.5058
▁MSIBA	-10.5058
19.01.2012	-10.5059
▁Abbas	-10.5062
▁Issa	-10.5068
▁mafisadi	-10.5077
▁hesabu	-10.5078
endelee	-10.5079
▁”	-10.5081
▁kilikuwa	-10.5081
▁Ajili	-10.5087
▁zilizokuwa	-10.5087
ub	-10.5089
▁Hamis	-10.5093
VA	-10.5094
▁Yohana	-10.5094
▁ndefu	-10.5096
▁te	-10.5098
bali	-10.5102
▁Wako	-10.5102
▁madawati	-10.5106
▁naibu	-10.5106
▁An	-10.5113
▁MARA	-10.5113
▁International	-10.5119
▁up	-10.512
▁Mas	-10.5125
▁kilichofanyika	-10.5125
▁as	-10.5129
▁akifafanua	-10.5131
▁ca	-10.5133
▁mbwa	-10.5135
▁Global	-10.5136
zoea	-10.5139
choki	-10.514
IN	-10.5145
▁VIONGOZI	-10.5145
▁2016/2017	-10.5147
▁vichwa	-10.5147
▁msaidizi	-10.5149
nta	-10.5156
▁8,	-10.5159
up	-10.5161
▁Wayahudi	-10.5163
thamini	-10.5168
rusi	-10.517
▁zikiwemo	-10.5172
▁hawakuwa	-10.5174
▁06	-10.5175
▁kisiwa	-10.5178
▁Con	-10.5183
▁ameeleza	-10.5193
▁uwajibikaji	-10.5194
Nime	-10.5194
NO	-10.5195
▁HALMASHAURI	-10.5196
▁Palestina	-10.5198
▁Online	-10.5205
2015	-10.5215
▁2017,	-10.5216
▁meneja	-10.5219
▁duni	-10.5221
▁zuri	-10.5223
▁wazima	-10.5223
▁Kudumu	-10.5232
▁23.03.2011	-10.5233
▁kadha	-10.5236
▁huna	-10.5237
▁ZI	-10.5239
▁Richard	-10.5241
▁kufikiria	-10.5249
▁mchanga	-10.525
▁Mombasa	-10.5254
▁kutakiwa	-10.5264
▁inatarajiwa	-10.5266
▁Kum	-10.5267
▁ZOTE	-10.5267
▁Vifaa	-10.5272
▁Bilioni	-10.5273
ganga	-10.5273
▁kupelekwa	-10.5275
▁Mafuta	-10.5282
navyo	-10.5283
▁kuinua	-10.5287
▁Angalia	-10.5288
lalamika	-10.5288
▁Waka	-10.5289
▁mbiu	-10.5289
▁Pata	-10.529
▁ukombozi	-10.5292
HE	-10.5293
jihusisha	-10.5295
▁Martin	-10.5296
▁Tangazo	-10.5297
Tume	-10.5299
tri	-10.5301
nji	-10.5301
▁mapumziko	-10.5304
seme	-10.5306
▁kufanyia	-10.5307
▁Fahamu	-10.5311
▁kupitisha	-10.5312
▁usambazaji	-10.5313
▁28,	-10.5316
▁Diwani	-10.5316
▁SHERIA	-10.5318
▁lipo	-10.5321
▁Mah	-10.5325
▁Jumla	-10.5328
▁Mwanafunzi	-10.5342
▁Tundu	-10.5345
▁pro	-10.5345
▁Canada	-10.535
▁Baraka	-10.5352
▁imeendelea	-10.5355
nje	-10.5367
sita	-10.5371
▁wajasiriamali	-10.5372
akasema	-10.5373
▁KITAIFA	-10.5373
fara	-10.5377
▁lililofanyika	-10.5387
maji	-10.5389
ted	-10.539
zua	-10.5391
ipa	-10.5392
▁Labda	-10.5393
▁AJILI	-10.5396
▁ufalme	-10.5398
▁38	-10.5398
▁akitokea	-10.5401
▁mlima	-10.5401
mas	-10.5403
nder	-10.5405
▁imetangaza	-10.5406
▁kusahau	-10.5406
▁HU	-10.5408
live	-10.5409
▁wanatumia	-10.5411
▁Kwani	-10.5414
JE	-10.5414
▁hospitalini	-10.5415
▁NJE	-10.5415
▁BURE	-10.5417
▁safu	-10.5417
▁BO	-10.5422
▁tangazo	-10.5423
▁Kigamboni	-10.5426
▁Kiuchumi	-10.5426
▁wanaofanya	-10.5433
▁mahindi	-10.5435
▁tumbo	-10.5437
▁uhifadhi	-10.5439
▁Mourinho	-10.5439
▁pwani	-10.5441
wana	-10.5443
▁zilizotolewa	-10.5444
▁machafuko	-10.5462
▁INA	-10.5465
▁Mkakati	-10.5466
jipanga	-10.5467
dhihirisha	-10.5468
▁Omar	-10.5468
▁Bingwa	-10.5471
kusudia	-10.5477
▁uchungu	-10.5478
▁Tayari	-10.5478
▁hela	-10.5479
▁Fainali	-10.5483
▁BARAZA	-10.5483
▁Makinda	-10.5484
▁machozi	-10.5485
▁Ibada	-10.5485
▁dereva	-10.5488
▁atu	-10.5493
▁kumbe	-10.5494
▁Zari	-10.5497
laumu	-10.5498
tishia	-10.5498
▁kutekelezwa	-10.5501
JU	-10.5505
▁Ama	-10.5506
ban	-10.551
13	-10.551
weze	-10.551
▁ziko	-10.5513
▁7.	-10.5515
HO	-10.5517
tisha	-10.5519
▁Club	-10.552
▁WAKO	-10.5526
▁juma	-10.5527
▁kutangazwa	-10.5528
tor	-10.5531
▁Kambarage	-10.5534
▁kufikisha	-10.5535
09	-10.5536
fungia	-10.5536
▁tulio	-10.5537
▁mwanasiasa	-10.5539
▁Walio	-10.5539
▁+	-10.5542
ner	-10.5543
▁Fm	-10.5545
▁makamu	-10.555
▁Masa	-10.5552
ic	-10.5552
▁kupungua	-10.5553
▁1:	-10.5555
▁lisilo	-10.5561
▁zozote	-10.5565
▁MWEZI	-10.5567
▁tuliyo	-10.5568
▁limesema	-10.5569
▁walioko	-10.557
▁Afghanistan	-10.557
ID	-10.5572
▁ipi	-10.5576
▁makanisa	-10.5581
sse	-10.5582
▁LINK	-10.5583
kodi	-10.5589
▁kipengele	-10.5593
▁Pe	-10.5593
▁kus	-10.5597
port	-10.5599
▁wi	-10.5601
han	-10.5602
jengea	-10.5603
▁kuwapo	-10.5606
▁LIVE	-10.5611
▁meno	-10.5618
▁Android	-10.5618
03	-10.5622
▁maishani	-10.5624
▁Wakili	-10.5625
DE	-10.5626
angalie	-10.5627
▁kaburi	-10.563
▁TAMISEMI	-10.5633
ida	-10.5635
niambia	-10.5638
▁mtendaji	-10.564
▁Bei	-10.5645
▁UHURU	-10.5646
▁kumiliki	-10.5646
▁desturi	-10.5649
",	-10.5651
▁ANA	-10.5654
▁Ukaguzi	-10.5655
▁Yo	-10.5656
▁kuondolewa	-10.5657
waomba	-10.5659
▁Pakua	-10.5659
▁HAI	-10.5661
▁kimsingi	-10.5664
▁tuu	-10.5667
▁Wakimbizi	-10.567
ham	-10.5673
EN	-10.568
▁maabara	-10.5682
▁blogu	-10.5682
▁41	-10.5682
▁Ubunge	-10.5682
▁anapaswa	-10.5683
▁injili	-10.5684
▁Hebu	-10.5689
▁atakapo	-10.569
▁kuuliza	-10.5693
.1	-10.5695
llo	-10.5699
▁mifano	-10.5701
▁27,	-10.5706
mon	-10.5707
▁pembeni	-10.5709
hifadhiwa	-10.5709
▁yanayoendelea	-10.5709
▁bomba	-10.571
▁Hiki	-10.5712
▁ubalozi	-10.5712
lly	-10.5714
bra	-10.5714
▁Mizengo	-10.5715
▁zika	-10.5716
▁Maka	-10.5718
▁anaamini	-10.572
asa	-10.5726
▁support	-10.5726
▁pato	-10.5727
▁ilio	-10.5728
▁Ushauri	-10.5731
onyeshwa	-10.5732
▁Hesabu	-10.5733
▁Ahmed	-10.5735
▁warsha	-10.5739
tari	-10.5741
▁October	-10.575
▁AZINDUA	-10.5751
▁kuuawa	-10.5754
▁mtuhumiwa	-10.5755
▁akimkaribisha	-10.5758
▁madereva	-10.576
lazimisha	-10.576
▁Utangazaji	-10.5761
▁Barack	-10.5762
▁Kar	-10.5763
▁YESU	-10.5764
▁UVCCM	-10.5768
patia	-10.5769
▁Tuta	-10.5772
NYA	-10.5784
▁Khamis	-10.5787
ger	-10.5788
	-10.5789
▁Kipindi	-10.5794
▁kutia	-10.5802
22	-10.5802
▁vitambulisho	-10.5804
▁ujio	-10.5806
▁kujifungua	-10.5807
▁wadhifa	-10.5809
▁Ishara	-10.581
▁9,	-10.5812
ANDA	-10.5812
▁Vile	-10.5814
▁Bilal	-10.5826
▁yalio	-10.5831
▁Abdulrahman	-10.5831
▁kurekebisha	-10.5837
▁BIASHARA	-10.5839
▁wanaamini	-10.5839
bar	-10.584
hudhuriwa	-10.5844
▁KUONA	-10.5845
saka	-10.5849
▁Jamuhuri	-10.585
▁Zoezi	-10.586
▁kitakacho	-10.5864
sumbua	-10.5873
▁hiari	-10.5873
▁MV	-10.5878
▁mboga	-10.5879
nes	-10.5879
▁Kujenga	-10.5882
▁Kitanzania	-10.5882
▁nguzo	-10.5883
▁BREAKING	-10.5884
▁hufanya	-10.5885
▁Wame	-10.5886
▁kusafirisha	-10.5893
▁kumsaidia	-10.5897
lipokuwa	-10.5902
▁MKURUGENZI	-10.5908
ajiriwa	-10.5909
uawa	-10.591
▁Wasanii	-10.5912
04	-10.5914
IA	-10.5914
“	-10.5914
▁akiba	-10.5917
▁African	-10.5921
▁malaika	-10.5924
una	-10.5924
▁Usajili	-10.5926
▁mlipuko	-10.5927
▁Iddi	-10.5928
ingilia	-10.5929
▁Mlima	-10.5929
▁kujipatia	-10.5937
▁suluhisho	-10.5942
pili	-10.5942
DC	-10.5943
▁inawa	-10.5945
▁muswada	-10.5956
tende	-10.5957
tanda	-10.5958
29	-10.596
▁Zote	-10.5966
▁KATI	-10.5968
▁wakifanya	-10.5969
▁Mlezi	-10.597
▁Endelea	-10.597
himiza	-10.5974
▁Mganga	-10.598
▁Wata	-10.5983
▁kukidhi	-10.5985
▁WANAO	-10.5988
▁Eli	-10.5991
▁akisisitiza	-10.5991
▁44	-10.5997
ongelea	-10.5997
▁tulikuwa	-10.5998
wajibika	-10.5999
▁ukuta	-10.6
▁Mashahidi	-10.6002
▁kifaa	-10.6003
▁uchambuzi	-10.6003
▁mgodi	-10.6004
▁ufadhili	-10.6009
▁Pro	-10.6009
▁lishe	-10.6014
▁HOSPITALI	-10.6014
▁NDEGE	-10.6018
▁jinai	-10.6019
▁wahitimu	-10.6019
▁APP	-10.6022
▁hatuwezi	-10.6025
▁yaliyopo	-10.6025
▁2004	-10.6026
LL	-10.6027
▁uaminifu	-10.6035
▁TANGAZO	-10.6036
▁Rushwa	-10.6046
taki	-10.6046
ganda	-10.6051
▁MWANAFUNZI	-10.6052
eleweka	-10.6057
▁Soko	-10.6063
▁KANDA	-10.6064
▁wameanza	-10.6066
▁Wake	-10.6066
▁Abu	-10.6079
▁imetolewa	-10.6082
▁KUJIUNGA	-10.6088
▁wakili	-10.6091
liona	-10.6092
siwe	-10.6095
▁nyanja	-10.6096
▁Install	-10.61
▁akijibu	-10.6101
▁Wepesi	-10.6102
▁mapungufu	-10.6105
▁njama	-10.6108
▁mila	-10.6113
▁aku	-10.6113
katoliki	-10.6113
▁inabidi	-10.6114
AD	-10.6115
▁pongezi	-10.6122
▁Euro	-10.6122
TV	-10.6131
▁CO	-10.6137
▁tokea	-10.614
▁uhamisho	-10.6142
▁2016,	-10.6143
litaka	-10.6144
▁kukimbia	-10.6146
▁Vilevile	-10.6148
oro	-10.6152
▁yanapatikana	-10.6154
▁Hati	-10.6157
▁tunataka	-10.6164
▁Sana	-10.6167
▁55	-10.6168
▁IME	-10.6179
▁shambulizi	-10.618
▁Sio	-10.6181
▁Download	-10.6185
Ja	-10.6188
wili	-10.6189
▁RA	-10.6194
kta	-10.6194
▁ulaya	-10.6197
▁tunao	-10.6204
fungu	-10.6208
▁kulipia	-10.6213
▁2:	-10.6213
▁hapana	-10.6216
▁NEWS	-10.6217
▁2018/2019	-10.6218
▁Anne	-10.6221
▁ikilinganishwa	-10.6221
▁Museveni	-10.6224
▁unga	-10.6225
▁imesha	-10.6225
hariri	-10.6229
vamia	-10.623
▁KUKU	-10.623
▁uliokuwa	-10.6231
▁Mkaguzi	-10.624
islam	-10.624
zuka	-10.6242
▁mwanamuziki	-10.6242
milikiwa	-10.6245
▁26,	-10.6245
▁zijazo	-10.6253
▁akipata	-10.6253
▁faili	-10.6254
▁Maombi	-10.6255
▁Cup	-10.6256
▁kufariki	-10.6257
▁KATIBA	-10.6258
tta	-10.626
▁mwakani	-10.626
hamasisha	-10.6261
▁inapaswa	-10.6263
▁nzito	-10.6263
wekea	-10.6264
▁Angela	-10.6265
▁Wasichana	-10.6265
▁kimwili	-10.6267
▁MSINGI	-10.6267
▁mwako	-10.6271
▁anakuwa	-10.6273
BE	-10.6274
▁con	-10.6276
▁kutaja	-10.6277
▁Stephen	-10.6278
day	-10.6281
SHO	-10.6281
uti	-10.6285
39	-10.6287
TRA	-10.6295
▁sadaka	-10.6298
▁chote	-10.6302
▁Cho	-10.6308
▁kubuni	-10.6308
▁uzalendo	-10.6314
▁lo	-10.6318
rushwa	-10.632
fafanua	-10.6322
▁Bayern	-10.6324
safi	-10.6338
MWA	-10.6339
ble	-10.634
nisha	-10.6342
▁Mhariri	-10.6342
▁watawala	-10.6342
▁Chanzo	-10.6343
oko	-10.6346
dogo	-10.6349
▁Namna	-10.635
adi	-10.635
▁MOVIE	-10.6351
pendwa	-10.6354
▁jamani	-10.6356
▁Eng	-10.6362
▁Suleiman	-10.6363
▁Mtukufu	-10.6363
▁akikabidhi	-10.6366
▁nywele	-10.6368
▁tutakuwa	-10.6375
▁mtumiaji	-10.6377
▁Kanumba	-10.6378
shikiliwa	-10.638
▁ti	-10.6385
▁itakapo	-10.6388
ngeweza	-10.6389
35	-10.639
dh	-10.639
▁ham	-10.6391
&	-10.6392
▁radio	-10.6393
▁janga	-10.6397
sisi	-10.64
▁kitanzania	-10.6401
▁→	-10.6402
▁anatakiwa	-10.6406
▁aya	-10.6408
▁Victoria	-10.6408
semwa	-10.6408
▁kutumiwa	-10.6415
Rais	-10.6419
▁Kuzuia	-10.642
▁kipo	-10.6425
▁urafiki	-10.6426
lizi	-10.6432
▁August	-10.6433
▁AL	-10.6434
fuatia	-10.6436
▁kuolewa	-10.6438
▁Mazungumzo	-10.6439
ania	-10.644
▁ujasiriamali	-10.6442
▁Lulu	-10.6443
▁Ze	-10.6444
▁viki	-10.6447
▁wanakuwa	-10.6447
▁tafiti	-10.645
▁Mahusiano	-10.6451
SHE	-10.6451
▁Mitandao	-10.6458
▁sha	-10.6462
▁imewa	-10.6463
▁Shetani	-10.6466
▁Viunganish	-10.6467
shtakiwa	-10.6468
▁Mku	-10.647
▁Songwe	-10.6473
▁ndicho	-10.6476
▁kujihusisha	-10.6481
ning	-10.6481
kagua	-10.6482
husishwa	-10.6483
▁wakitoa	-10.6484
ie	-10.6484
AT	-10.6486
▁Wateja	-10.6488
▁bia	-10.6488
27	-10.649
▁kuwafanya	-10.6493
uta	-10.6493
▁Breaking	-10.6498
HESLB	-10.6499
▁King	-10.65
hili	-10.6502
▁kivita	-10.6511
▁Sirro	-10.6513
▁iliyoko	-10.6514
ut	-10.6515
net	-10.6517
▁nilivyo	-10.6518
▁kiwanja	-10.6518
DO	-10.6521
▁UJUMBE	-10.6522
▁ikiwamo	-10.6522
lalamikia	-10.6524
▁uraia	-10.6524
▁asilia	-10.6524
▁ukilinganisha	-10.6527
▁it	-10.6528
rani	-10.6529
▁chanjo	-10.6534
▁HAWA	-10.6535
▁POMBE	-10.6536
▁tunavyo	-10.6541
▁Aina	-10.6542
kuu	-10.6543
▁Wazanzibari	-10.6544
enzi	-10.6545
▁CHINA	-10.6546
▁kupigia	-10.6547
jisikia	-10.6548
▁yaliyokuwa	-10.6549
▁Maku	-10.655
▁Steven	-10.6551
amba	-10.6551
▁Am	-10.6551
ak	-10.6552
▁imewasilishwa	-10.6553
▁litakuwa	-10.6554
nte	-10.6555
▁uzuri	-10.6563
fai	-10.6565
▁MTANDAO	-10.6565
▁vitisho	-10.6575
▁nilipo	-10.6577
▁Kuji	-10.658
▁mrembo	-10.6593
31	-10.6599
▁YATOA	-10.6599
▁waliochaguliwa	-10.6601
▁Msimu	-10.6602
26	-10.6603
▁uandishi	-10.6604
▁kadiri	-10.6605
▁msafara	-10.6607
husiana	-10.6609
45	-10.6611
▁600	-10.6613
▁udanganyifu	-10.6613
nsi	-10.6613
sukuma	-10.6617
▁MPANGO	-10.6619
ls	-10.6622
▁RC	-10.6624
▁korosho	-10.6624
▁Wapo	-10.6627
▁vyetu	-10.6634
▁kifua	-10.6636
▁Msumbiji	-10.6644
▁Vitabu	-10.6646
chapishwa	-10.6648
fadhili	-10.665
Mu	-10.6652
▁Ngorongoro	-10.6659
▁Kumbuka	-10.6659
CUF	-10.666
▁unge	-10.6661
sihi	-10.6664
pima	-10.6664
▁KWAKE	-10.6665
FANYA	-10.6667
SEMA	-10.6671
▁zifuatazo	-10.6676
▁West	-10.6677
▁zinazotolewa	-10.6687
▁asasi	-10.6691
▁Kili	-10.6692
▁MRADI	-10.6692
uliwa	-10.6698
▁Ad	-10.6699
▁75	-10.6699
tro	-10.6702
ONGO	-10.6704
▁Un	-10.6704
nus	-10.6706
▁hutumia	-10.6709
▁akikagua	-10.6709
▁kujengwa	-10.6714
▁amefunguka	-10.6714
▁maadui	-10.6715
▁kugundua	-10.6715
ngali	-10.6717
sto	-10.6717
▁mtakatifu	-10.6717
▁wanajua	-10.672
andamana	-10.6722
umia	-10.6726
ph	-10.6732
▁mak	-10.6735
▁kuwajengea	-10.6735
ata	-10.6736
▁vibali	-10.674
▁zahanati	-10.674
komboa	-10.6741
▁kuzitumia	-10.6749
▁Morocco	-10.675
▁wokovu	-10.6751
▁ingekuwa	-10.6751
pigia	-10.6754
▁Whatsapp	-10.6756
goma	-10.6758
NT	-10.6761
▁Kima	-10.6767
AM	-10.6767
▁mbona	-10.6772
okoka	-10.6773
▁vivutio	-10.6774
▁kurudisha	-10.6775
▁nataka	-10.678
▁kiraia	-10.6781
▁asema	-10.6785
▁March	-10.6787
ANI	-10.6788
▁Huku	-10.679
▁Fleva	-10.6791
▁Mitihani	-10.6793
▁itasaidia	-10.6798
gonga	-10.6799
▁mas	-10.68
▁Sports	-10.6804
▁Msa	-10.6805
▁JA	-10.6809
▁post	-10.681
siki	-10.6813
▁ACT	-10.6817
nukuu	-10.6818
staafu	-10.6818
▁kutisha	-10.682
▁Pakistan	-10.6823
▁mashuhuri	-10.6826
jenge	-10.6828
▁Tena	-10.6828
▁akielezea	-10.6829
▁Umwagiliaji	-10.6831
▁Ubelgiji	-10.6833
▁Menejimenti	-10.6834
▁HISTORIA	-10.6836
▁KUPITIA	-10.6836
om	-10.6836
▁mdau	-10.6843
▁suluhu	-10.6845
▁53	-10.6845
boresha	-10.6847
▁2015,	-10.6849
28	-10.685
▁unaona	-10.685
ambie	-10.6851
▁Mal	-10.6851
dra	-10.6851
▁Majeshi	-10.6853
ITA	-10.6854
▁upelelezi	-10.6854
▁liko	-10.6856
▁kusudi	-10.6858
▁kubadilishana	-10.6861
ds	-10.6863
▁wakala	-10.6863
▁giza	-10.6863
▁upepo	-10.6864
▁AME	-10.6865
▁Uwezo	-10.6865
kubalika	-10.6867
▁tumekuwa	-10.6868
▁Waafrika	-10.6869
▁kiitwacho	-10.6872
que	-10.6872
▁TABIA	-10.6872
▁baa	-10.6873
▁jadi	-10.6874
▁iliyoandaliwa	-10.6876
▁54	-10.688
tete	-10.6882
▁MPENZI	-10.6885
▁amepata	-10.6887
▁Kufuatia	-10.6887
▁aliamua	-10.6889
▁alie	-10.689
liwe	-10.6891
▁Kutoa	-10.6893
▁Paris	-10.69
▁alifariki	-10.6902
dala	-10.6904
▁Star	-10.6904
▁Limited	-10.6908
▁kukupa	-10.691
▁hamasa	-10.6912
▁Abeid	-10.692
▁kaya	-10.6925
▁mki	-10.6925
▁Hotuba	-10.6925
▁Mata	-10.6927
pokelewa	-10.6928
▁Kipa	-10.6928
kabiliana	-10.6929
▁alizaliwa	-10.6933
▁Joyce	-10.6933
▁tuko	-10.6935
▁Kisa	-10.694
▁di	-10.6941
▁Msi	-10.6942
▁HEWA	-10.6942
▁kilometa	-10.6943
▁kukabidhiwa	-10.6947
▁DHIDI	-10.6948
▁ro	-10.6951
lwa	-10.6952
▁NDOA	-10.6961
▁Ngo	-10.6962
▁alitumia	-10.6964
▁AJIRA	-10.6975
▁Viungo	-10.698
▁stahiki	-10.6985
▁utapata	-10.6985
DHI	-10.6986
▁kona	-10.6988
elekezwa	-10.699
▁Uamuzi	-10.6991
ven	-10.6991
waza	-10.6994
▁Lazima	-10.6995
?"	-10.6996
idi	-10.6998
chukia	-10.6999
mbia	-10.7002
▁Mitego	-10.7006
asisi	-10.7008
▁..	-10.7009
hitimu	-10.7009
▁Uenezi	-10.701
▁tulivyo	-10.7011
▁kusaini	-10.7012
▁Sir	-10.7017
ice	-10.7018
▁Waki	-10.7019
jishughulisha	-10.7021
▁Wenger	-10.7022
ratibu	-10.7022
▁Kodi	-10.7024
▁tabianchi	-10.7026
▁Messi	-10.7032
▁nimeona	-10.7033
min	-10.7034
baya	-10.7043
▁Zuma	-10.7044
▁UTA	-10.7045
▁Changamoto	-10.7048
ere	-10.7049
pate	-10.7054
▁2001	-10.7055
wawezesha	-10.7057
umu	-10.7057
▁kujionea	-10.7061
▁mbovu	-10.7068
▁SINGIDA	-10.7068
▁IGP	-10.707
02	-10.707
ombwa	-10.707
www	-10.7071
▁Mhagama	-10.7072
▁Commons	-10.7083
▁July	-10.7085
wali	-10.7086
tafakari	-10.7086
▁mwenza	-10.7091
▁siwezi	-10.7093
▁mil	-10.7093
FONT	-10.7094
▁Mso	-10.7097
▁47	-10.7098
▁visiwani	-10.7098
▁HAKI	-10.7099
▁uanachama	-10.7101
▁Ruvu	-10.7102
▁undani	-10.7102
▁Kas	-10.7102
▁kuundwa	-10.7103
▁zinaonyesha	-10.7106
▁uhamiaji	-10.7107
tayarisha	-10.7107
▁nyengine	-10.7111
▁kiapo	-10.7115
▁01	-10.7115
▁150	-10.7116
TC	-10.7121
gh	-10.7123
▁Jacob	-10.7123
▁kuondokana	-10.7126
▁Creative	-10.7128
▁Qatar	-10.7129
▁Kumbukumbu	-10.7131
▁shetani	-10.7131
▁bibi	-10.7132
lf	-10.7136
▁Akiongea	-10.7138
▁Yerusalemu	-10.7142
▁kibao	-10.7143
▁kubadilika	-10.7144
▁Kairuki	-10.7146
▁39	-10.7147
ZWA	-10.7147
▁matawi	-10.7156
▁Mengi	-10.7158
somwa	-10.7159
37	-10.7159
▁walipata	-10.716
iko	-10.7166
▁ufaulu	-10.7168
2007	-10.7169
sambaza	-10.7176
▁BUNGENI	-10.7176
▁wanawa	-10.7184
▁WETU	-10.7184
athiriwa	-10.7187
kanusha	-10.7188
▁ugumu	-10.7188
aji	-10.7189
cu	-10.7192
ingizwa	-10.7192
▁Thomas	-10.7195
▁Australia	-10.7196
▁Bado	-10.72
▁kikatiba	-10.7201
▁aji	-10.7202
▁San	-10.7204
choka	-10.7204
nyima	-10.7208
sili	-10.7217
▁Pesa	-10.7222
▁unakuwa	-10.7223
▁MAHAKAMA	-10.7225
▁wanandoa	-10.7232
200	-10.7232
▁wafungwa	-10.7235
▁Kesi	-10.7237
▁Salama	-10.724
pamba	-10.7241
▁Kibaha	-10.7242
▁NJIA	-10.7243
shiwa	-10.7247
dharau	-10.7248
wapongeza	-10.7253
▁Wakazi	-10.7254
55	-10.7259
▁—	-10.7261
tulia	-10.7264
▁anaendelea	-10.7266
▁Globu	-10.7268
▁kuteuliwa	-10.7275
▁pe	-10.7275
nua	-10.7278
▁Nani	-10.7279
EL	-10.7279
▁kutafakari	-10.7282
▁mtaalamu	-10.7283
fuate	-10.7284
▁malezi	-10.7285
rika	-10.7288
▁kukiwa	-10.7288
▁ruzuku	-10.729
ture	-10.7291
▁chanya	-10.7291
embe	-10.7292
▁yatakuwa	-10.7293
ley	-10.7293
▁kujeruhiwa	-10.7297
tofautiana	-10.7297
ARA	-10.7302
▁kupotea	-10.7303
▁Lukuvi	-10.7305
ung	-10.7307
▁HOTUBA	-10.7312
▁mashitaka	-10.7312
furahishwa	-10.7313
ft	-10.7313
▁kuapishwa	-10.7314
▁SHINYANGA	-10.7316
▁watapata	-10.7316
▁anacho	-10.7316
▁Kupambana	-10.7316
nufaisha	-10.7318
▁kumpata	-10.732
44	-10.7323
hukumiwa	-10.7323
▁Jose	-10.7324
▁onyo	-10.7325
▁52	-10.7325
▁Ilikuwa	-10.7326
nz	-10.7327
pendelea	-10.733
hy	-10.7332
▁hutoa	-10.7334
▁Itikadi	-10.7341
!!!!!	-10.7345
ANZA	-10.7346
inua	-10.7347
▁nyinyi	-10.7348
▁kupo	-10.7348
▁IS	-10.7348
▁Mikutano	-10.7351
simamisha	-10.7353
▁kunipa	-10.7355
▁wakawa	-10.7358
pisha	-10.7368
rithi	-10.737
▁Kiafrika	-10.737
▁Utendaji	-10.7372
▁Sharif	-10.7374
▁Masauni	-10.7374
gra	-10.7374
▁Young	-10.7374
hindi	-10.7375
▁League	-10.7376
▁kukosekana	-10.7379
IKI	-10.738
▁mli	-10.738
▁KUJI	-10.7381
by	-10.7384
▁!	-10.7389
▁amesisitiza	-10.7389
▁Nane	-10.739
▁Posta	-10.7391
▁kiji	-10.7392
▁kuathiri	-10.7393
▁Lazaro	-10.7394
▁One	-10.7396
▁Daktari	-10.7399
▁anwani	-10.7403
▁Sekretarieti	-10.7404
▁MAUAJI	-10.7407
▁Adam	-10.7407
Hii	-10.741
▁MH	-10.7411
▁hazija	-10.7414
pwa	-10.7417
▁wanamgambo	-10.7417
▁anawa	-10.7418
▁Siri	-10.7423
▁kufurahia	-10.7423
▁j	-10.7424
▁wadhamini	-10.7426
▁KITUO	-10.7432
WEZA	-10.7432
▁kadri	-10.7434
aza	-10.7435
ps	-10.7444
mwamini	-10.7445
▁Jibu	-10.7449
▁kuzaa	-10.745
ER	-10.7451
uka	-10.7453
rn	-10.7453
▁umiliki	-10.7455
▁kujiuliza	-10.7459
▁BALOZI	-10.746
▁Jengo	-10.7461
▁Suala	-10.7467
koma	-10.7472
▁Maj	-10.7472
teua	-10.7475
▁Ab	-10.7478
▁anae	-10.748
▁kuvaa	-10.7481
>	-10.7487
mea	-10.7489
▁ukawa	-10.749
ISHI	-10.7495
▁Reli	-10.7495
▁jicho	-10.7505
sio	-10.7508
zee	-10.751
jiuzulu	-10.7515
▁unaoendelea	-10.7515
DHA	-10.7519
▁JW	-10.7521
▁KIJAMII	-10.7522
gombea	-10.7526
ab	-10.753
47	-10.753
▁matusi	-10.7533
ON	-10.7533
ira	-10.7535
US	-10.7545
▁uwa	-10.7545
▁ukimwi	-10.7547
▁Kiwanda	-10.7548
njo	-10.7554
▁ilianza	-10.7554
▁mazoea	-10.7557
The	-10.7557
INGI	-10.756
▁kupanua	-10.756
gomba	-10.7561
▁Wanachama	-10.7561
▁ameamua	-10.7564
▁matajiri	-10.7568
ent	-10.7569
▁wakurugenzi	-10.7572
nao	-10.7575
▁punde	-10.7578
▁link	-10.7578
▁mgongo	-10.758
▁IBADA	-10.7584
Waziri	-10.7586
▁kizuri	-10.7587
▁2-0	-10.7588
▁Pasaka	-10.7594
▁usumbufu	-10.7595
▁Kiwango	-10.7602
mama	-10.7602
▁Ramani	-10.7603
▁majeraha	-10.7607
TER	-10.7608
▁2003	-10.7611
chapisha	-10.7616
▁mpinzani	-10.7618
fundishwa	-10.7619
▁Mbili	-10.7619
▁nimekuwa	-10.762
chochea	-10.762
▁mag	-10.7622
pungu	-10.7624
▁BAADHI	-10.7626
▁walifanya	-10.7626
▁Mapema	-10.7627
▁Rose	-10.7628
saha	-10.763
▁Super	-10.7634
▁wameamua	-10.7635
▁Waheshimiwa	-10.7637
ES	-10.7639
▁waathirika	-10.764
▁watetezi	-10.7643
fahamisha	-10.7647
▁kilio	-10.7647
▁Ugonjwa	-10.7649
▁kozi	-10.765
cookies	-10.7651
con	-10.7653
▁Mwijage	-10.7655
90	-10.7655
▁UKAWA	-10.7656
fadhiliwa	-10.7657
▁wahalifu	-10.7658
▁MAJALIWA	-10.766
▁WAFANYAKAZI	-10.766
PU	-10.766
▁MKE	-10.7661
▁gerezani	-10.7663
▁http	-10.7665
38	-10.7666
▁kujitegemea	-10.767
▁Park	-10.7672
▁mguu	-10.7673
▁Washiriki	-10.7679
▁Hatimaye	-10.768
▁jaribio	-10.768
▁31,	-10.768
bwe	-10.7684
ence	-10.7684
▁matamshi	-10.7688
mpongeza	-10.7691
-2	-10.7692
nne	-10.7695
▁nanyi	-10.7697
hayupo	-10.7698
Ju	-10.7699
▁kuheshimu	-10.7701
▁Nita	-10.7704
▁anao	-10.7705
onea	-10.7707
▁kuchochea	-10.7707
achana	-10.771
▁wakisema	-10.7715
▁kuashiria	-10.7715
ot	-10.7716
▁Sam	-10.7718
▁ishirini	-10.7718
▁Mosi	-10.7719
▁huzuni	-10.7721
timia	-10.7722
▁KENYA	-10.7722
▁kuhudumia	-10.7723
▁Mr	-10.7725
line	-10.7726
use	-10.7728
▁IDARA	-10.7732
ction	-10.7733
fanikisha	-10.7734
▁Tarime	-10.7736
pro	-10.7737
kumbana	-10.7737
▁l	-10.774
46	-10.7744
pangiwa	-10.7751
▁MZEE	-10.7754
32	-10.7757
NGE	-10.7759
▁tishio	-10.7761
NDO	-10.7766
KIA	-10.7767
▁inatokana	-10.7768
ENDELEA	-10.7773
▁mauti	-10.7774
▁kiislamu	-10.7775
▁walinzi	-10.7778
▁TZ	-10.7779
34	-10.778
▁Muadhamu	-10.7784
▁Majibu	-10.7784
▁8.	-10.7785
ainisha	-10.7786
▁utakapo	-10.7788
▁Ukraine	-10.7789
▁kitambulisho	-10.7789
▁kipaji	-10.7791
rah	-10.7793
▁kukiuka	-10.7793
▁iPhone	-10.7795
hata	-10.7796
.........	-10.7801
▁YETU	-10.7802
▁Yemen	-10.7805
sumbuliwa	-10.7806
▁09	-10.7811
▁Napenda	-10.7811
▁PO	-10.7811
▁unatarajiwa	-10.7823
▁wakim	-10.7826
▁mahala	-10.7832
▁Wo	-10.7832
▁wanaotaka	-10.7833
▁uhakiki	-10.7835
▁Mwandamizi	-10.7837
tika	-10.7839
▁yatima	-10.7848
▁kitaaluma	-10.7849
▁kuanguka	-10.7856
▁TAASISI	-10.7859
▁msomaji	-10.7859
-3	-10.7859
buru	-10.7863
ILI	-10.787
▁ME	-10.7871
sk	-10.7877
Li	-10.7877
▁Hilo	-10.788
▁maovu	-10.7881
▁waislamu	-10.7882
▁hatuja	-10.7893
tic	-10.79
▁huweza	-10.79
igi	-10.7905
nal	-10.7906
ther	-10.7911
▁September	-10.7918
▁MABADILIKO	-10.792
2012	-10.792
andikia	-10.7924
▁NAMNA	-10.7928
shauriwa	-10.7933
▁Anthony	-10.7934
kidhi	-10.7935
▁kumfanya	-10.7941
NZI	-10.7944
▁alitaka	-10.7946
▁Up	-10.7946
▁maiti	-10.7951
▁njiani	-10.7955
pp	-10.7956
▁us	-10.7957
▁Munich	-10.7958
Serikali	-10.7963
▁mawakala	-10.7963
CHI	-10.7965
takia	-10.7969
▁unapaswa	-10.7969
▁Gabriel	-10.7971
▁weledi	-10.7971
▁kuitwa	-10.7975
▁kimaendeleo	-10.7976
▁https	-10.7976
▁NGUVU	-10.7978
▁Ibara	-10.7979
hojiwa	-10.7979
▁Mka	-10.7981
▁inatarajia	-10.7982
▁MAN	-10.7982
▁kuaminika	-10.7983
▁waliofika	-10.7984
kandarasi	-10.7985
▁tunahitaji	-10.7988
▁vipengele	-10.7988
▁43	-10.7991
▁ai	-10.7994
???	-10.7995
▁ju	-10.7997
▁05	-10.8001
adhi	-10.8006
▁AFUNGUA	-10.8011
▁akisoma	-10.8011
▁iwezekanavyo	-10.8012
▁Binti	-10.8018
▁walioshiriki	-10.8019
▁pamba	-10.8019
36	-10.802
▁Mwongozo	-10.8021
▁umati	-10.8022
baka	-10.8022
kusudiwa	-10.8023
▁Hoja	-10.8025
▁via	-10.8029
lim	-10.8029
▁Gari	-10.8031
refu	-10.8032
▁wanaharakati	-10.8033
TOA	-10.8034
▁azimio	-10.8034
▁INAYO	-10.804
ok	-10.8042
▁dhaifu	-10.8044
▁kisicho	-10.8045
geuza	-10.8046
gg	-10.8047
▁cho	-10.8048
KILI	-10.8049
kubwa	-10.805
▁yakiwa	-10.8052
▁milima	-10.8054
fukuza	-10.8056
▁bomu	-10.8061
nyika	-10.8068
▁Har	-10.807
▁WATUMISHI	-10.8072
▁08	-10.8075
▁Nay	-10.8075
▁Makampuni	-10.8076
▁kuimba	-10.8079
▁pana	-10.808
▁katoliki	-10.8081
▁Yaani	-10.8084
▁MSIMAMO	-10.8084
▁aliandika	-10.8095
▁Wataalamu	-10.8096
tibu	-10.8097
▁miundo	-10.8099
PIGA	-10.8099
MBI	-10.8101
tafsiri	-10.8102
kufanya	-10.8103
kisha	-10.8108
▁WEMA	-10.8112
UNGU	-10.8114
▁DAWA	-10.8115
2.	-10.8118
▁ye	-10.8124
▁wajawazito	-10.8132
NEWS	-10.8134
▁MAAJABU	-10.8136
▁Hukumu	-10.8145
▁madhubuti	-10.8148
▁Muswada	-10.8149
taraji	-10.815
zito	-10.8154
ngua	-10.8157
▁zitakuwa	-10.8158
muomba	-10.816
▁(4)	-10.816
TH	-10.8162
▁waandamizi	-10.8163
mer	-10.8171
▁Ulemavu	-10.8171
▁wamepata	-10.8171
▁Siha	-10.8173
thibitishwa	-10.8174
▁Azimio	-10.8177
▁im	-10.8178
ii	-10.8179
▁VPL	-10.818
▁More	-10.8181
▁y	-10.8182
kadiriwa	-10.8185
▁kumshukuru	-10.8186
EA	-10.8191
▁Sokoine	-10.8193
▁Uholanzi	-10.8193
BC	-10.8197
ten	-10.8201
▁Uandishi	-10.8204
ong	-10.8204
▁faraja	-10.8205
▁wakiongozwa	-10.8209
fichua	-10.8209
▁Badala	-10.8213
▁yanayohusu	-10.8221
▁kutenga	-10.8225
wazi	-10.8229
▁utambulisho	-10.8231
▁akisaini	-10.8233
os	-10.824
nsa	-10.8241
tembe	-10.8245
▁Maandiko	-10.8245
▁Next	-10.8248
▁ilisema	-10.8253
▁lango	-10.8257
▁Kina	-10.8257
▁Utumiaji	-10.8258
▁Nu	-10.826
▁kinywa	-10.826
hakikisha	-10.8262
dd	-10.8262
▁kasoro	-10.8266
▁vyoo	-10.8268
wasiliana	-10.8275
yumba	-10.8276
shukiwa	-10.8277
▁kuzidi	-10.8278
▁UALIMU	-10.8279
Da	-10.8281
ISHA	-10.8283
RC	-10.8288
ion	-10.8288
▁Bank	-10.829
nze	-10.8292
Maendeleo	-10.8296
cal	-10.8299
▁ameongeza	-10.83
tiki	-10.83
▁majanga	-10.8302
87	-10.8304
▁makaburi	-10.8305
▁mijadala	-10.8306
VYO	-10.8307
hutubia	-10.8308
▁mustakabali	-10.8308
▁uhalali	-10.8311
▁Katavi	-10.8312
vuka	-10.8315
▁kisayansi	-10.8316
▁kidemokrasia	-10.8316
▁hauta	-10.8317
▁MBELE	-10.8319
▁posted	-10.8321
arabu	-10.8321
▁wafanye	-10.8321
▁ne	-10.8322
▁tukiwa	-10.8322
▁Watendaji	-10.8323
▁waliofanya	-10.8325
ue	-10.8326
tus	-10.8331
▁papo	-10.8332
ibua	-10.8335
▁2013/14	-10.8335
▁majambazi	-10.8336
▁Moses	-10.8339
▁Makundi	-10.8351
▁facebook	-10.8352
ree	-10.8355
anyiro	-10.8356
▁kipimo	-10.8357
hesabiwa	-10.8358
our	-10.8361
▁nyara	-10.8361
▁kut	-10.8361
▁ZILIZO	-10.8362
▁hayana	-10.8362
▁utaona	-10.8364
TAA	-10.8364
▁ngome	-10.8364
Al	-10.8365
tambuliwa	-10.8369
▁Madawa	-10.8371
PATA	-10.8374
▁trilioni	-10.8376
▁tukufu	-10.8378
▁Kale	-10.8379
▁WAKUU	-10.8379
moto	-10.838
iga	-10.838
▁wamefanya	-10.838
nipa	-10.8385
tambue	-10.8386
▁kemikali	-10.8391
andishi	-10.8392
DF	-10.8398
▁Vitu	-10.8398
▁aliu	-10.8398
achiwa	-10.8402
▁Elizabeth	-10.8403
king	-10.8405
▁karatasi	-10.8406
▁wangapi	-10.8407
▁Majimbo	-10.8408
▁zilizofanyika	-10.8408
▁Usiku	-10.8411
▁VYUO	-10.8412
lin	-10.8414
▁JF	-10.8416
changanya	-10.8418
jitolea	-10.842
	-10.8421
▁SEKTA	-10.8425
uzia	-10.8428
twe	-10.843
▁zilivyo	-10.843
cc	-10.8433
▁Inawezekana	-10.8433
NDE	-10.8436
56	-10.8438
IS	-10.8438
pewe	-10.8441
▁Coast	-10.8443
habari	-10.8445
▁Tha	-10.8447
▁ujinga	-10.8447
▁sugu	-10.8448
▁kukubaliana	-10.8449
▁MMOJA	-10.8451
60	-10.8452
▁wazuri	-10.8455
rie	-10.8457
▁Burudani	-10.8459
▁maba	-10.846
▁an	-10.846
▁MIMI	-10.8461
loni	-10.8461
▁Mna	-10.8463
rio	-10.847
▁manne	-10.847
mana	-10.8472
▁kusonga	-10.8472
▁kuelimisha	-10.8474
▁Rasimu	-10.8476
▁rununu	-10.8478
nyama	-10.8479
▁ramani	-10.8483
▁Everton	-10.8484
▁nyekundu	-10.8484
▁utunzaji	-10.8489
▁kika	-10.8493
hakikishe	-10.8493
lifanya	-10.8503
49	-10.8503
pendeza	-10.8504
fike	-10.8507
▁ubongo	-10.8508
ALA	-10.8508
▁kujaza	-10.8511
▁kunufaika	-10.8512
▁litakalo	-10.8514
▁akiwasilisha	-10.8515
,	-10.8515
▁Fo	-10.8517
▁haziku	-10.852
▁SHIRIKA	-10.8521
▁kirefu	-10.8524
▁utafanyika	-10.8525
▁Samuel	-10.8525
▁bendi	-10.8527
kubaliwa	-10.8528
▁Nga	-10.8529
▁vizazi	-10.8531
enge	-10.8531
PICHA	-10.8537
ins	-10.8541
▁kutibu	-10.8542
lic	-10.8543
▁Sun	-10.8543
▁kutolea	-10.8547
2013	-10.8548
▁zinazofanywa	-10.855
▁usingizi	-10.855
▁wigo	-10.855
endana	-10.855
jaza	-10.8553
▁kusherehekea	-10.8553
▁Kwamba	-10.8554
▁kifahari	-10.8554
kumbuke	-10.8555
▁Ve	-10.8555
gan	-10.8555
kumba	-10.8556
▁uchafu	-10.8556
▁mkongwe	-10.8556
▁Ste	-10.8557
▁MW	-10.8558
▁kuitumia	-10.8562
pora	-10.8564
af	-10.8564
▁Janeth	-10.8564
!!!!	-10.8565
▁KAMPENI	-10.8566
▁BURUDANI	-10.8567
▁TATU	-10.8568
Mara	-10.857
▁Macha	-10.8574
▁AK	-10.8576
chelewa	-10.8576
▁unatakiwa	-10.8579
▁Hatu	-10.8582
▁waalikwa	-10.8582
▁kusaka	-10.8585
▁3:	-10.8585
ksi	-10.8587
▁State	-10.8588
▁msukumo	-10.8589
▁Kijana	-10.859
▁Majengo	-10.8599
▁inataka	-10.86
▁TUZO	-10.8602
▁walim	-10.8604
▁NINI	-10.8604
▁Maonesho	-10.8606
▁kuhama	-10.8608
risha	-10.8609
▁Amri	-10.861
▁vigogo	-10.8611
tan	-10.8612
▁Katikati	-10.8615
▁Mbwana	-10.8617
▁Mnyika	-10.8617
▁michache	-10.8618
tho	-10.8622
▁mbolea	-10.8622
▁Nadhani	-10.8627
▁waliojitokeza	-10.8627
80	-10.8628
▁bunduki	-10.863
▁Vatican	-10.8634
▁kuahidi	-10.8636
99	-10.8638
▁intaneti	-10.8641
▁WENGINE	-10.8643
TAKIWA	-10.8648
▁ridhaa	-10.8651
chafu	-10.8652
▁hutokea	-10.8653
▁shauri	-10.8653
▁Saleh	-10.8654
Mh	-10.8657
▁MATUMIZI	-10.8657
▁KOMBE	-10.8658
▁visiwa	-10.8661
▁utakaofanyika	-10.8661
ZINDUA	-10.8662
▁chaguo	-10.8663
▁RO	-10.867
▁nambari	-10.867
0227	-10.8671
▁kheri	-10.8672
▁49	-10.8673
zamikoa	-10.8676
hanga	-10.8677
▁TABORA	-10.8678
▁04	-10.868
Kuna	-10.8685
.......	-10.8696
▁Bali	-10.8696
▁Maha	-10.8701
▁mwanamume	-10.8701
5,000	-10.8701
▁PATA	-10.8703
▁kw	-10.8703
sen	-10.8711
UKA	-10.8712
▁Semina	-10.8714
▁kufunguliwa	-10.8714
enea	-10.8715
▁46	-10.8715
▁jo	-10.8717
▁kumpiga	-10.8718
▁TOVUTI	-10.8719
▁unyanyasaji	-10.8719
▁ndizo	-10.8719
5.	-10.8719
▁waendelee	-10.8721
nena	-10.8721
▁Gharib	-10.8726
▁mkondo	-10.8727
▁mchanganyiko	-10.8728
▁alitangaza	-10.8728
▁mnyama	-10.8729
tesa	-10.8729
lai	-10.873
▁yaliyotolewa	-10.873
▁Mtibwa	-10.8734
▁Unapo	-10.8735
TAMISEMI	-10.8735
▁pasi	-10.8736
▁akamwambia	-10.8739
▁zinapochipuka	-10.8742
▁tetemeko	-10.8744
LU	-10.8744
ruka	-10.875
▁Matakwa	-10.8751
▁kupelekea	-10.8752
uwawa	-10.8754
▁madhehebu	-10.8754
▁Kinga	-10.8756
▁mantiki	-10.8757
▁KURASA	-10.8759
furahisha	-10.876
▁riba	-10.876
▁Maghembe	-10.8767
▁anahitaji	-10.8768
▁Kujua	-10.877
▁Mg	-10.8771
Hi	-10.8771
▁KAMPUNI	-10.8772
▁kitaalamu	-10.8772
▁65	-10.8774
▁KUTUMIA	-10.8776
mika	-10.8776
▁pi	-10.8776
ipongeza	-10.878
▁bayana	-10.8782
▁inayoendelea	-10.8782
alikwa	-10.8783
’’	-10.8786
▁kuiba	-10.8787
zaji	-10.8789
Nina	-10.879
▁kuulizwa	-10.8791
▁Yu	-10.8791
▁milango	-10.8794
...’	-10.8795
▁Bay	-10.88
julisha	-10.88
▁kumtaka	-10.88
2011	-10.8801
▁Nyimbo	-10.8801
tendea	-10.8802
▁angalia	-10.8802
mtaja	-10.8804
uri	-10.8804
▁niku	-10.8804
▁(2	-10.8804
lam	-10.8807
▁umebadilishwa	-10.8809
▁nabii	-10.8811
▁Tunatumia	-10.8813
jifunze	-10.8813
▁udongo	-10.8815
napaswa	-10.882
kose	-10.8821
geni	-10.8821
▁License	-10.8822
▁waraka	-10.8823
vutiwa	-10.8824
kimbilia	-10.8825
▁Mkubwa	-10.8826
▁Mabalozi	-10.8828
shutumu	-10.883
▁Is	-10.883
70	-10.8833
▁House	-10.8835
▁pori	-10.8835
▁Kubwa	-10.8835
▁Mdee	-10.8836
▁JI	-10.8838
lli	-10.8838
▁TUME	-10.8841
mie	-10.8847
▁likizo	-10.8847
▁Sweden	-10.8849
▁2012.	-10.885
▁Yote	-10.8855
gia	-10.8856
▁manunuzi	-10.8856
ime	-10.8863
den	-10.8865
▁SHEREHE	-10.8865
▁kisukari	-10.8867
▁́	-10.8873
▁Agano	-10.8876
ogo	-10.8881
▁viatu	-10.8883
▁Bra	-10.8885
singe	-10.8885
▁Bahati	-10.8885
▁marudio	-10.8895
▁Serikalini	-10.8896
▁Babu	-10.8897
vua	-10.8897
▁AONGOZA	-10.8906
▁Ce	-10.8907
▁ulianza	-10.8909
peleke	-10.8919
▁aliyoi	-10.892
▁watakapo	-10.8922
TIA	-10.8923
angamiza	-10.8924
▁KSh	-10.8924
▁mjamzito	-10.8927
kum	-10.8928
▁kilichotokea	-10.893
▁umefika	-10.8935
▁BILA	-10.8937
▁Mnazi	-10.8942
tel	-10.8943
▁MILIONI	-10.8947
ridhisha	-10.8949
▁Tuki	-10.8951
▁JUMATATU	-10.8963
tamba	-10.8966
▁lami	-10.8968
▁waishio	-10.8978
▁mwajiri	-10.8979
▁kuchapika	-10.898
▁ruhusa	-10.8985
▁lawama	-10.8986
▁Mnamo	-10.8986
▁WAANDISHI	-10.8987
Hu	-10.8989
KUWA	-10.899
▁KIDA	-10.899
▁MAZUNGUMZO	-10.8993
▁NSSF	-10.8994
▁Mpina	-10.8997
tamka	-10.8998
▁Mwan	-10.9
ficha	-10.9002
tafute	-10.9002
sco	-10.9003
safirisha	-10.9005
AL	-10.9006
▁kanisani	-10.9006
pigana	-10.9007
▁chafu	-10.9009
▁lililokuwa	-10.9011
48	-10.9011
epuka	-10.9013
▁bandia	-10.9013
▁thabiti	-10.9014
kuletea	-10.9016
▁Attribution	-10.9017
▁uvumilivu	-10.9017
▁waandamanaji	-10.9019
mzi	-10.9026
▁MSAADA	-10.9026
wania	-10.9029
▁Augustine	-10.9031
kupenda	-10.9033
▁ngapi	-10.9034
haribika	-10.9037
youtu	-10.9039
kiti	-10.9041
tekwa	-10.9043
▁kinachohusiana	-10.9045
ShareAlike	-10.9046
▁Sifa	-10.9047
▁Or	-10.9049
▁1-1	-10.9049
▁ga	-10.905
▁Meja	-10.9051
.6	-10.9051
▁kimaisha	-10.9052
▁Per	-10.9057
▁KUSINI	-10.906
▁atoa	-10.9062
▁Arumeru	-10.9064
maa	-10.9064
▁Rehema	-10.9067
lle	-10.9069
▁Sina	-10.9069
okolewa	-10.907
▁wakiendelea	-10.9072
▁upimaji	-10.9075
kuru	-10.9076
▁UK	-10.9076
▁rasimu	-10.9077
▁ugomvi	-10.908
tali	-10.9081
▁Tawi	-10.9081
▁Sp	-10.9082
▁alilo	-10.9087
▁mpito	-10.9087
▁ilani	-10.9089
▁UKITAKA	-10.9093
muona	-10.9094
ION	-10.9096
ridhika	-10.9097
shangazwa	-10.9098
▁imefanya	-10.9103
▁uni	-10.9103
▁Warioba	-10.9104
▁treni	-10.9107
SH	-10.9107
▁Maaskofu	-10.9108
lipofika	-10.9108
▁KWELI	-10.9108
▁NYERERE	-10.9108
upe	-10.911
▁inatakiwa	-10.9111
▁Alhaj	-10.9112
▁hundi	-10.9124
aba	-10.9124
▁TBC	-10.9125
▁kinyang	-10.9127
▁yalivyo	-10.9128
▁Musoma	-10.9128
▁uwiano	-10.9128
sikilize	-10.9129
▁madhumuni	-10.9133
▁WALIOCHAGULIWA	-10.9133
dio	-10.9134
▁tupo	-10.9135
▁kuwahudumia	-10.9137
▁mkulima	-10.9138
▁kumpongeza	-10.9138
▁WATAHINIWA	-10.9139
▁mwengine	-10.9139
▁02	-10.914
▁Harusi	-10.9143
54	-10.9144
tumaini	-10.9145
zz	-10.9145
▁uovu	-10.9147
▁bustani	-10.9148
▁10,000	-10.9149
saliti	-10.915
fia	-10.9152
mwona	-10.9152
▁PSPF	-10.9153
▁Nyota	-10.9156
vy	-10.9158
▁wafadhili	-10.9159
2014	-10.9159
▁chachu	-10.916
▁Ebola	-10.9162
▁dar	-10.9163
▁Gaza	-10.9163
▁Udhibiti	-10.9164
ingereza	-10.9165
▁chuma	-10.9167
▁Jamaa	-10.9168
▁usoni	-10.9168
▁Rafiki	-10.9168
dri	-10.9168
sw	-10.9171
▁+255765056399.	-10.9171
▁ziwe	-10.9173
▁Akitoa	-10.9176
▁baharini	-10.9177
kiza	-10.9179
In	-10.918
▁ENEO	-10.9182
▁msimamizi	-10.9187
▁ingia	-10.9188
kusanywa	-10.9188
▁Nchimbi	-10.9191
▁World	-10.9192
▁Wito	-10.9193
▁ulifanyika	-10.9198
Soma	-10.92
▁urithi	-10.92
TS	-10.92
▁du	-10.9202
thibiti	-10.9207
▁Asha	-10.9207
▁Mifupa	-10.921
▁MWANA	-10.921
▁PIA	-10.9211
▁limetangaza	-10.9211
▁wodi	-10.9214
▁IRINGA	-10.9216
thubutu	-10.9217
▁ikulu	-10.9219
tafutia	-10.9222
▁akifuatilia	-10.9224
▁2014.	-10.9226
aminika	-10.923
RIA	-10.9231
UZI	-10.9232
▁Algeria	-10.9232
▁pembe	-10.9235
jeruhiwa	-10.9237
kushukuru	-10.924
▁KIFO	-10.924
▁Magonjwa	-10.9242
▁JUMUIYA	-10.9245
▁Wao	-10.925
Hata	-10.925
▁kuchapisha	-10.9251
▁kichwani	-10.926
▁mtanzania	-10.926
oto	-10.9264
tawaliwa	-10.9268
▁Tafsiri	-10.9269
▁Ishirini	-10.927
▁you	-10.9271
kutanisha	-10.9272
▁WALIOFANYA	-10.9275
mbuzi	-10.928
koro	-10.9281
▁1995	-10.9281
▁Samatta	-10.9281
▁mbingu	-10.9284
▁zinavyo	-10.9287
▁kustaafu	-10.929
▁120	-10.929
msaidia	-10.9291
▁Olimpiki	-10.9292
sala	-10.9293
▁kuwe	-10.9297
▁Texas	-10.9298
▁uzembe	-10.9304
▁ODM	-10.9304
kwamisha	-10.9306
kea	-10.9309
▁alipofika	-10.931
hadi	-10.931
▁Nyam	-10.9312
▁kupigana	-10.9313
▁Manji	-10.9314
Bi	-10.9315
▁Maonyesho	-10.9318
.7	-10.9319
▁mijini	-10.9319
▁BU	-10.932
▁msikiti	-10.932
patwa	-10.9321
boreshwa	-10.9322
apishwa	-10.9323
TANGAZA	-10.9324
▁majani	-10.9327
PS	-10.9329
▁Karibuni	-10.9331
▁yaliyomo	-10.9337
watu	-10.9341
teseka	-10.9341
iona	-10.9346
▁KAMERA	-10.9346
▁walianza	-10.9347
▁sharti	-10.9348
pepe	-10.9351
▁walipokuwa	-10.9353
onekane	-10.9353
▁haswa	-10.9354
▁hebu	-10.9356
OR	-10.9357
▁Mshindi	-10.9357
▁kuwafikia	-10.9357
▁AFANYA	-10.936
▁Haram	-10.9364
▁Mko	-10.9364
▁kigezo	-10.9365
▁mchungaji	-10.9366
sy	-10.937
▁makabila	-10.9373
▁alipofanya	-10.9374
▁maua	-10.9376
▁MPAKA	-10.9381
▁albamu	-10.9384
wapo	-10.9386
▁fanya	-10.9387
wakati	-10.9394
siyo	-10.9394
▁Shahada	-10.9397
▁kienyeji	-10.9397
▁88.4	-10.94
▁Alikiba	-10.9403
▁utafutaji	-10.9409
▁Ndo	-10.9411
▁Ushindi	-10.9411
▁maa	-10.9416
lazwa	-10.9417
▁Nyumbani	-10.9418
▁taswira	-10.9422
▁Huko	-10.9423
▁HATA	-10.9426
57	-10.943
fana	-10.943
simu	-10.9436
dhalilisha	-10.9436
▁KUYATAZAMA	-10.9439
▁Gra	-10.9441
▁Jipya	-10.9443
▁Bernard	-10.945
▁Bidhaa	-10.945
▁mashahidi	-10.9452
nchi	-10.9454
▁III	-10.9456
▁Pepe	-10.9462
sambaa	-10.9467
▁Mark	-10.9467
salimia	-10.947
▁Pri	-10.9472
▁wanaotumia	-10.9472
▁Russia	-10.9473
▁unaonyesha	-10.9473
▁Jamani	-10.9476
kila	-10.9477
▁kurahisisha	-10.9478
ney	-10.9478
▁mvuto	-10.9482
Pa	-10.9482
▁JAKAYA	-10.9484
▁MAMLAKA	-10.9484
▁uokoaji	-10.9485
zuri	-10.9486
▁waliuawa	-10.9486
▁Boys	-10.9488
▁vilabu	-10.949
▁Weka	-10.949
▁mpendwa	-10.9494
▁ufuatiliaji	-10.9495
kariri	-10.9495
▁AWAMU	-10.9497
▁ZIWA	-10.95
mjua	-10.9504
▁Daima	-10.9504
▁kuagiza	-10.9505
▁As	-10.9505
▁simba	-10.9505
▁dua	-10.9506
▁alionekana	-10.9507
▁mlio	-10.9507
}	-10.9512
▁MSTAAFU	-10.9512
▁majirani	-10.9512
▁Utekelezaji	-10.9514
▁Ramadhan	-10.9515
▁Mwanga	-10.9515
▁haliku	-10.9517
▁utetezi	-10.9523
huri	-10.9524
▁Mako	-10.9527
▁alikiri	-10.9531
oka	-10.9538
pendi	-10.9541
tatua	-10.9543
if	-10.9544
Me	-10.9546
▁wastaafu	-10.9546
▁Jisajili	-10.9547
AU	-10.9547
tes	-10.9547
▁ameahidi	-10.9549
58	-10.9556
▁MWALIMU	-10.9557
ondoke	-10.956
▁Shughuli	-10.956
rusha	-10.9561
▁chadema	-10.9562
▁ATOA	-10.9562
▁uchochezi	-10.9562
▁Qu	-10.9564
▁nyeti	-10.9565
▁hisani	-10.9565
jadiliwa	-10.9567
ring	-10.957
▁Mwema	-10.957
▁Boko	-10.9575
pt	-10.9576
▁Mil	-10.9582
▁Tanesco	-10.9586
▁Mbele	-10.9589
nadi	-10.9591
▁kusikitisha	-10.9592
▁changu	-10.9594
toweka	-10.9597
UM	-10.96
▁MSANII	-10.96
Bara	-10.9601
????	-10.9601
▁kuipa	-10.9602
AA	-10.9603
dhu	-10.9603
tima	-10.9606
wanda	-10.9608
▁msitu	-10.9608
rugenzi	-10.9612
▁kumuua	-10.9613
nene	-10.9616
tie	-10.9616
muunga	-10.9617
ous	-10.962
nazo	-10.9621
angazia	-10.9629
▁UKURASA	-10.9629
FANYIKA	-10.9629
▁Frank	-10.9634
][	-10.9634
▁ugenini	-10.9638
▁sarafu	-10.964
poli	-10.9641
uk	-10.9647
▁Makatibu	-10.9647
▁Ivory	-10.9656
▁RE	-10.9659
▁Stella	-10.966
▁WAO	-10.9667
▁kupigania	-10.9668
▁SAUTI	-10.9671
mili	-10.9671
▁US	-10.9674
▁Malaika	-10.9674
▁Bill	-10.9674
▁kumuona	-10.9678
ary	-10.9678
▁DADA	-10.9678
▁aliwaambia	-10.9679
▁bega	-10.9682
eke	-10.9682
▁Tra	-10.9684
▁ufupi	-10.9685
har	-10.9688
▁wasaidizi	-10.9692
▁mdomo	-10.9692
pigiwa	-10.9693
eti	-10.9695
▁ningependa	-10.9697
ipata	-10.9699
GU	-10.97
ller	-10.9701
kusanyika	-10.9702
▁kutua	-10.9705
▁Baadaye	-10.9708
mbwe	-10.9709
tam	-10.9709
▁hayaja	-10.971
nunuliwa	-10.9712
▁zinaendelea	-10.9714
▁watangazaji	-10.9714
OO	-10.972
bongo	-10.9722
▁hauku	-10.9724
▁Yusuf	-10.9726
▁mahafali	-10.9728
ipenda	-10.9728
Watu	-10.9728
-20	-10.9729
▁mimea	-10.9729
▁walemavu	-10.9733
▁mfumuko	-10.974
▁upa	-10.9741
od	-10.9741
▁Unajua	-10.9743
▁jema	-10.9745
▁uuzaji	-10.9746
unganishwa	-10.9748
Ra	-10.9754
▁anaishi	-10.9759
▁yaliyotokea	-10.976
isi	-10.9761
53	-10.9763
▁kutunga	-10.9764
▁mwenzi	-10.9765
▁kutekwa	-10.9767
▁wimbi	-10.9767
elewi	-10.9769
▁ibara	-10.9769
▁raisi	-10.977
▁Kipekee	-10.977
▁sp	-10.977
tilia	-10.9772
▁Mwl	-10.9774
▁Heri	-10.9774
Baada	-10.9775
▁st	-10.978
▁Mwai	-10.9782
▁←	-10.9782
abudu	-10.9783
▁Wanaume	-10.9783
ITI	-10.9786
▁km	-10.9786
▁utepe	-10.9786
Nili	-10.9787
▁mabalozi	-10.9788
//	-10.9788
malizia	-10.9788
hai	-10.979
▁BARABARA	-10.9792
fungulia	-10.9794
kinga	-10.9795
somea	-10.9796
▁kamera	-10.9796
▁akiagana	-10.9796
siri	-10.9798
ono	-10.9803
hana	-10.9803
▁DA	-10.9807
▁Kariakoo	-10.9813
des	-10.9814
▁waaminifu	-10.9814
▁NECTA	-10.9815
▁duru	-10.9816
▁mwanawe	-10.9816
▁Kimarekani	-10.982
▁matengenezo	-10.9822
nc	-10.9823
zana	-10.9823
jitoa	-10.9826
hangaika	-10.9828
▁MAELEZO	-10.9833
Habari	-10.9835
▁apate	-10.9838
liko	-10.9838
▁liwe	-10.9838
amka	-10.984
▁Imam	-10.9844
muuliza	-10.9846
▁malaria	-10.9846
▁4:	-10.9847
▁wameuawa	-10.9847
▁ukiukwaji	-10.9849
▁mkazo	-10.9849
▁fujo	-10.985
▁imefanikiwa	-10.9851
sherehekea	-10.9851
blog	-10.9852
nusurika	-10.9854
▁udhamini	-10.9854
▁Andrew	-10.9855
ingie	-10.9856
▁vipya	-10.9862
▁51	-10.9863
▁upanuzi	-10.9865
▁Chapisha	-10.9872
▁Bariadi	-10.9873
ys	-10.9874
kamata	-10.9875
▁Ndi	-10.9878
mkuta	-10.9878
ron	-10.988
John	-10.9881
karibishwa	-10.9882
▁kahawa	-10.9882
zungumzwa	-10.9883
▁KOCHA	-10.9884
mpi	-10.9885
▁tumaini	-10.9887
▁Mbe	-10.9889
▁alifunga	-10.989
▁AFP	-10.989
baba	-10.9892
▁uboreshaji	-10.9893
▁inaonesha	-10.9895
▁Berlin	-10.9895
zui	-10.9901
lar	-10.9907
ness	-10.9908
tegemewa	-10.9908
▁3,000	-10.9914
▁Kabila	-10.9919
fariji	-10.9921
▁kibinafsi	-10.9921
ALI	-10.9922
▁at	-10.9923
▁ameu	-10.9926
dhuru	-10.9927
mwi	-10.9927
tozwa	-10.9928
▁Chato	-10.9929
▁ZAKE	-10.9933
fukuzwa	-10.9934
▁MBILI	-10.9937
▁Mwe	-10.9937
takavyo	-10.9938
66	-10.9945
▁alikamatwa	-10.9947
▁WENGI	-10.9947
ding	-10.9947
▁tunajua	-10.9954
▁yamesemwa	-10.9956
▁Bendera	-10.9958
ULI	-10.9958
▁aliendelea	-10.996
▁mwetu	-10.996
hamishwa	-10.996
▁Clinton	-10.9961
▁Chalinze	-10.9965
JWTZ	-10.9966
▁kuchelewa	-10.9967
▁kuachia	-10.9967
▁Af	-10.9967
▁Mor	-10.9968
▁itatoa	-10.9969
▁UZINDUZI	-10.997
▁Hazina	-10.997
ndiki	-10.9972
▁kuaga	-10.9977
▁wametoa	-10.9978
▁umeanza	-10.999
▁anatarajia	-10.9991
▁pambano	-10.9993
bel	-10.9994
▁Sta	-10.9997
▁Dada	-10.9999
▁Post	-11.0002
nwa	-11.0006
▁gavana	-11.0008
semekana	-11.0008
▁wanyonge	-11.0012
▁Muhongo	-11.0015
▁PPF	-11.0016
▁feki	-11.0018
hasibu	-11.0018
▁MTANZANIA	-11.0018
▁PE	-11.0019
shitakiwa	-11.002
siku	-11.002
▁Makubwa	-11.0023
▁kondoo	-11.0023
▁YENYE	-11.0026
mka	-11.0026
nna	-11.0029
▁Takatifu	-11.0031
▁2013.	-11.0032
▁kuch	-11.0034
▁yanaendelea	-11.0037
▁mko	-11.0049
▁staa	-11.005
▁KARIBU	-11.0059
▁sigara	-11.0059
▁utengenezaji	-11.006
▁Wambura	-11.0062
▁ameagiza	-11.0062
▁kumudu	-11.0063
▁JamiiForums	-11.0065
▁kumwambia	-11.0067
▁Kisheria	-11.0069
ane	-11.007
▁Maandalizi	-11.007
▁upendeleo	-11.0075
ood	-11.008
▁Ata	-11.008
▁Zu	-11.0098
▁Wokovu	-11.0099
69	-11.0099
▁Usafi	-11.0102
VE	-11.0103
ridhi	-11.0103
▁choo	-11.0104
ongozi	-11.0106
▁aliyoya	-11.0106
kwama	-11.0107
▁kuibua	-11.0107
▁vilivyopo	-11.0108
▁Makadirio	-11.0109
▁Ngoma	-11.0109
▁WALIMU	-11.0112
▁Mt	-11.0112
eneza	-11.0115
▁wanakabiliwa	-11.0115
▁Usafiri	-11.0116
▁rehema	-11.0117
▁Jay	-11.012
▁USALAMA	-11.0121
▁Mafundisho	-11.0123
▁KUFA	-11.0123
▁TTCL	-11.0126
▁raundi	-11.0126
kie	-11.013
▁vikubwa	-11.0131
umbwa	-11.0131
▁mastaa	-11.0132
▁mvutano	-11.0132
CHU	-11.0134
▁hariri	-11.0134
▁ILIYO	-11.0135
▁CAF	-11.0136
ND	-11.0136
▁hatuta	-11.0139
▁Barabarani	-11.0141
mara	-11.0144
▁ameyasema	-11.0145
▁show	-11.0146
▁Hongera	-11.0146
uko	-11.0147
▁utaalamu	-11.0147
▁MAONI	-11.0148
▁inapenda	-11.0149
▁Ezekiel	-11.0153
▁Ukubwa	-11.0161
ure	-11.0161
▁kisasi	-11.0165
▁aliweza	-11.0167
▁Wala	-11.0168
▁unaofanywa	-11.0169
bert	-11.0171
fuatana	-11.0181
▁wanapenda	-11.0182
songa	-11.0183
▁utotoni	-11.0184
▁said	-11.0186
▁Luka	-11.0186
▁NASI	-11.0187
▁Oman	-11.0193
▁Richmond	-11.0195
▁asante	-11.0195
▁kuwashukuru	-11.0196
▁Rasilimali	-11.0197
▁JUMAPILI	-11.02
▁Tafuta	-11.0203
▁Kiungo	-11.0204
▁Igunga	-11.0204
77	-11.0204
▁muonekano	-11.0205
▁tunaamini	-11.0206
▁mwanasheria	-11.0208
▁kuwahi	-11.0208
41	-11.021
itumia	-11.0214
▁mahiri	-11.0217
▁kamanda	-11.0218
▁Rangi	-11.0219
▁Putin	-11.0223
▁1000	-11.0226
▁upigaji	-11.0226
▁ubaya	-11.0236
,000,000	-11.0238
▁Mike	-11.024
ngeli	-11.0243
▁{	-11.0243
▁Operesheni	-11.0246
52	-11.0247
gundulika	-11.0248
▁machapisho	-11.0252
mpe	-11.0255
bana	-11.0258
▁Mbinu	-11.026
Wana	-11.026
é	-11.0265
▁tamaduni	-11.0265
▁Monduli	-11.0269
▁kikwazo	-11.0272
▁Anaye	-11.0277
▁Francisko	-11.0281
▁studio	-11.0281
▁You	-11.0281
▁Kampala	-11.0284
▁KUTISHA	-11.0288
▁Ugiriki	-11.0289
ridhia	-11.029
▁03	-11.0292
▁Read	-11.0293
▁sokoni	-11.0293
▁SHILINGI	-11.0296
▁Wakulima	-11.0296
ez	-11.0297
▁ujue	-11.0298
▁Ita	-11.0302
▁TANGA	-11.0304
▁mtoa	-11.0305
▁MAS	-11.0307
▁wakipata	-11.0308
sitisha	-11.0309
swi	-11.0317
▁EU	-11.0318
▁mzito	-11.0322
▁Mkono	-11.0323
▁kigumu	-11.0324
▁husababisha	-11.033
▁kuratibu	-11.0331
▁Bush	-11.0332
pati	-11.0334
▁Bin	-11.0336
▁KIKAO	-11.0338
bunge	-11.0338
▁kuhoji	-11.0342
▁Mwanamuziki	-11.0343
▁magereza	-11.0343
▁Vituo	-11.0346
haha	-11.0346
tch	-11.0351
FE	-11.0354
▁likiendelea	-11.0355
▁Ed	-11.036
▁hila	-11.036
▁Mp	-11.0362
mmy	-11.0364
umi	-11.0365
mbele	-11.0366
▁2013,	-11.0369
ex	-11.037
INA	-11.0371
▁haiwezekani	-11.0371
▁um	-11.0373
taweza	-11.0378
ric	-11.0378
▁wanatarajia	-11.0381
42	-11.0382
mwenye	-11.0382
▁wauguzi	-11.0383
▁MASHARIKI	-11.039
▁DE	-11.039
buri	-11.0391
oza	-11.0392
Sisi	-11.0392
▁Amiri	-11.0393
▁Cuba	-11.0393
▁waajiri	-11.0396
sikie	-11.0396
▁Tan	-11.0397
▁RAIA	-11.0399
guswa	-11.0401
hivyo	-11.0401
OS	-11.0401
▁wataweza	-11.0401
▁akiwasili	-11.0403
ek	-11.0408
▁kuwaambia	-11.0408
▁Jan	-11.041
▁Cameroon	-11.041
mil	-11.0411
MP	-11.0413
▁Miundombinu	-11.0416
▁Haraka	-11.0419
▁HATUA	-11.0421
▁kutawala	-11.0421
▁November	-11.0421
▁Hotel	-11.0422
▁UONGOZI	-11.0426
pri	-11.0429
▁maombolezo	-11.043
▁tazama	-11.0431
43	-11.0432
▁najua	-11.0436
▁Ber	-11.0439
▁kufikishwa	-11.0439
▁makocha	-11.0444
lewa	-11.0446
▁alikwenda	-11.0446
MBU	-11.0447
▁wanaona	-11.045
amesema	-11.0451
▁alicheza	-11.0452
▁IEBC	-11.0452
▁rai	-11.0454
▁injini	-11.0454
fisi	-11.0458
▁Mashabiki	-11.0459
▁Ndalichako	-11.0459
▁majaji	-11.046
▁lilitokea	-11.0461
▁Ameongeza	-11.0462
▁pendekezo	-11.0463
▁wanatarajiwa	-11.0464
▁TE	-11.0467
▁anam	-11.0467
rudishwa	-11.0468
▁Mitume	-11.047
▁ukame	-11.047
▁wataendelea	-11.0471
▁Ukanda	-11.0471
▁December	-11.0472
▁BI	-11.0474
▁Wafanyabiashara	-11.0475
lipia	-11.0478
▁Mbagala	-11.0479
▁ninge	-11.0481
▁1964	-11.0482
84	-11.0484
▁Damu	-11.0486
tangazia	-11.0487
▁darasani	-11.0487
68	-11.0488
▁Yuda	-11.0491
▁JWTZ	-11.0493
▁hatuku	-11.0493
▁MAADHIMISHO	-11.0494
▁ex	-11.0495
▁utangazaji	-11.0498
▁lilipo	-11.0501
sikitishwa	-11.0506
achi	-11.0508
uaji	-11.051
▁amedai	-11.051
▁vyeo	-11.0512
▁itawa	-11.0513
▁ARDHI	-11.0514
▁makabidhiano	-11.0514
Tazama	-11.0514
▁kitakuwa	-11.0514
▁Manara	-11.0514
▁kukutwa	-11.0514
▁KO	-11.0515
▁fe	-11.0517
bebe	-11.052
▁72	-11.0522
▁MPYAAA	-11.0524
gy	-11.0526
8.	-11.0526
▁Nahodha	-11.0528
china	-11.0529
▁chuoni	-11.0529
DP	-11.0529
▁Nyamagana	-11.053
▁wametakiwa	-11.053
▁ru	-11.0534
▁husaidia	-11.0534
▁JUMATANO	-11.0535
▁akichangia	-11.0537
▁Cor	-11.0537
▁wachangiaji	-11.0537
▁viunga	-11.0538
▁MAKALIO	-11.0538
▁Hapana	-11.054
ite	-11.0541
nayo	-11.0543
▁atawa	-11.0544
▁lote	-11.0546
▁MAREKANI	-11.0554
▁Mexico	-11.0558
▁`	-11.0559
:30	-11.056
zalishwa	-11.0561
kundu	-11.0562
▁AWA	-11.0563
▁masikitiko	-11.0563
▁kuwakamata	-11.0564
▁Kansela	-11.0565
▁endelea	-11.0568
▁wahanga	-11.0569
yafanya	-11.057
▁kuuzwa	-11.0574
meni	-11.0575
AF	-11.0576
jiwekea	-11.0577
▁KANISA	-11.0584
hakiki	-11.0586
nika	-11.0586
▁kukomesha	-11.0587
▁(19	-11.0587
▁sivyo	-11.0589
▁sinema	-11.059
▁jumapili	-11.059
abu	-11.059
▁RISASI	-11.0593
▁anatoa	-11.0597
▁kinaweza	-11.0599
▁Union	-11.0602
▁akimsikiliza	-11.0603
▁anapenda	-11.0605
taji	-11.061
▁JPM	-11.0611
Ji	-11.0615
▁Selemani	-11.0615
mishi	-11.0615
▁Malengo	-11.0617
tanga	-11.0618
tega	-11.062
▁akiongoza	-11.0621
▁anapata	-11.0623
▁kuripoti	-11.0625
▁kusisimua	-11.0627
ndani	-11.0632
▁National	-11.0633
▁=	-11.0634
ound	-11.0635
SP	-11.0639
▁Christopher	-11.0639
▁Fomu	-11.0644
koko	-11.0645
▁YouTube	-11.0645
▁KABISA	-11.0646
▁tulipo	-11.0647
▁mba	-11.0648
▁For	-11.0648
ist	-11.0649
▁ua	-11.065
rekebisha	-11.0651
▁afanya	-11.0651
▁mlo	-11.0653
▁jamhuri	-11.0661
▁Golden	-11.0661
▁visivyo	-11.0663
▁Raisi	-11.0664
ati	-11.0665
futwa	-11.0666
59	-11.0666
fuatwa	-11.0669
hitimisha	-11.0671
▁Kadi	-11.0675
▁kusali	-11.0677
▁mabango	-11.0683
▁AMBAO	-11.0684
▁huohuo	-11.0684
▁yesu	-11.0693
▁tunaona	-11.0693
▁ago	-11.0697
▁anazo	-11.0697
▁tufanye	-11.07
▁tupate	-11.0701
▁SURA	-11.0702
▁kukusaidia	-11.0703
▁mpangilio	-11.0704
▁Mlimani	-11.0709
▁kujiamini	-11.0712
kani	-11.0713
▁angani	-11.0714
▁tunapaswa	-11.0715
▁mtaani	-11.0718
▁foleni	-11.0722
▁wanai	-11.0722
hel	-11.0723
▁figo	-11.073
est	-11.0731
▁MAWASILIANO	-11.0732
▁Asilimia	-11.0733
hawa	-11.0735
mbua	-11.0737
tre	-11.074
▁Furaha	-11.0743
▁mbuzi	-11.0751
hiri	-11.0752
▁Maofisa	-11.0754
▁Neema	-11.0756
▁TOKA	-11.0761
50,000	-11.0761
▁Mahmoud	-11.0761
▁Mag	-11.0764
▁le	-11.0765
ridhishwa	-11.0766
▁SE	-11.0767
▁ukaribu	-11.0767
▁kipigo	-11.0768
▁kunyesha	-11.0772
▁itaanza	-11.0774
lazimu	-11.0776
▁En	-11.0779
▁SHA	-11.0785
▁SADC	-11.0785
ambo	-11.079
▁dis	-11.0793
sababishia	-11.0794
▁Vipengele	-11.0795
amsha	-11.0797
Wakati	-11.0797
puuza	-11.0797
▁muhula	-11.0797
lingani	-11.0799
OMBA	-11.0799
unge	-11.08
mtembelea	-11.0801
▁God	-11.0801
▁Tukufu	-11.0805
▁Nelson	-11.0806
Sehemu	-11.0812
▁imekuja	-11.0813
funika	-11.0814
zuiliwa	-11.0815
agizwa	-11.0815
chora	-11.0815
▁Nabii	-11.0816
TUHUMIWA	-11.0817
▁vipande	-11.0818
saa	-11.0818
▁VITA	-11.0822
wale	-11.0823
mweleza	-11.0825
juu	-11.0826
▁Argentina	-11.0826
simulia	-11.0828
paka	-11.0828
▁aidha	-11.0829
▁Miji	-11.083
▁Ajali	-11.083
ise	-11.0831
▁Nao	-11.0831
▁mahususi	-11.0834
▁inayotolewa	-11.0834
▁nyuki	-11.0834
▁KUKABILIANA	-11.0837
nywe	-11.0838
▁acha	-11.084
▁MALIASILI	-11.0841
▁mashambulio	-11.0841
▁unacho	-11.0842
tto	-11.0843
▁Jiunge	-11.0843
▁Old	-11.0845
▁majumbani	-11.0848
▁kiko	-11.0853
▁Jenista	-11.0857
▁>>	-11.0861
▁Meli	-11.0862
▁Ukiwa	-11.0863
▁ii	-11.0868
▁Misitu	-11.0875
▁aliko	-11.0876
▁kutupa	-11.0876
▁Hadithi	-11.0877
▁kivuko	-11.0877
▁mlinzi	-11.0878
▁Wazalendo	-11.088
▁Mbona	-11.088
▁unafanya	-11.0881
▁Mac	-11.0882
▁mfu	-11.0887
gambo	-11.089
▁usahihi	-11.0891
mala	-11.0891
letea	-11.0891
tuambia	-11.0894
▁Maarifa	-11.0895
idhinishwa	-11.0896
▁hatima	-11.0897
nusuru	-11.0897
mimi	-11.0901
▁KABLA	-11.0901
▁ushuhuda	-11.0903
▁MBALI	-11.0903
tafiti	-11.0909
ation	-11.0909
▁56	-11.091
FUNGA	-11.0915
▁wasimamizi	-11.0921
▁Naamini	-11.0923
Cha	-11.0923
▁sensa	-11.0929
▁zama	-11.093
tter	-11.0932
gen	-11.0932
▁mabilioni	-11.0933
▁kushirikisha	-11.0934
tume	-11.0938
▁jopo	-11.0938
▁woga	-11.0938
▁mp	-11.094
▁Wahariri	-11.094
▁umesha	-11.094
mwita	-11.0941
FAHAMU	-11.0944
▁kinachoendelea	-11.0947
▁bangi	-11.0948
mjibu	-11.0948
▁MAALUM	-11.0954
▁Magu	-11.0955
kifanya	-11.0956
▁kuwajibika	-11.0957
▁vitatu	-11.0961
▁z	-11.0963
▁kuimarika	-11.0963
qa	-11.0964
▁baya	-11.0965
SHIRIKI	-11.0965
▁KUMI	-11.0967
▁Waumini	-11.0967
▁kiufundi	-11.0968
▁babu	-11.0968
gumu	-11.0968
▁Huo	-11.097
▁MCHEZO	-11.0971
▁TUNA	-11.0974
▁nuru	-11.0974
nasema	-11.0977
▁tembo	-11.0977
pasa	-11.0979
▁zabuni	-11.098
▁hutumika	-11.098
▁Kuanzia	-11.0981
▁shingo	-11.0982
▁Sakata	-11.0982
zuru	-11.0983
▁USTAWI	-11.0984
▁Kwanini	-11.0988
▁miongozo	-11.0995
▁waliopata	-11.0998
▁Masi	-11.1
gongo	-11.1
▁MIEZI	-11.1
▁runinga	-11.1002
▁Jua	-11.1002
▁USA	-11.1003
▁uchi	-11.1004
▁ITV	-11.1005
▁Kasi	-11.1007
▁uku	-11.1007
art	-11.1009
sifia	-11.1011
▁hamsini	-11.1013
▁SIKILIZA	-11.1017
▁kusafisha	-11.1018
▁MBAYA	-11.1019
▁Tulia	-11.1019
▁pigo	-11.102
▁MAFANIKIO	-11.102
▁ulaji	-11.1025
▁MWANDISHI	-11.1028
ungavyo	-11.1032
yahoo	-11.1036
▁Jackson	-11.1036
umbi	-11.1037
▁jezi	-11.1038
▁Sahara	-11.1041
▁KISHA	-11.1042
ANGA	-11.1042
▁Kiasi	-11.1046
▁mikoani	-11.1048
▁utabiri	-11.105
▁ari	-11.1053
Mageuzi	-11.1055
▁aliyasema	-11.1058
OKO	-11.1058
2010	-11.1059
uru	-11.1062
ugua	-11.1068
▁KUPANDA	-11.1069
▁Najua	-11.1073
▁1,000	-11.1074
nyesha	-11.1075
Re	-11.1076
▁migodi	-11.1076
del	-11.1077
▁Chris	-11.1078
▁fahamu	-11.1079
▁Ndogo	-11.108
▁kukumbuka	-11.1081
▁mawakili	-11.1081
▁wasifu	-11.1082
▁East	-11.1082
76	-11.1082
▁Mbalimbali	-11.1082
▁mwekezaji	-11.1084
▁KUI	-11.1085
stan	-11.1086
barikiwa	-11.1087
▁kiba	-11.1088
dhari	-11.1088
▁Bakari	-11.1088
rai	-11.1089
ep	-11.1089
▁AMANI	-11.1093
SHU	-11.1097
▁hedhi	-11.1098
▁Mshauri	-11.1099
▁vumbi	-11.1103
▁vipaumbele	-11.1104
▁unafanyika	-11.1104
▁Pichani	-11.1105
katwa	-11.1108
▁Guinea	-11.1112
zikwa	-11.1116
ONE	-11.1118
▁nenda	-11.1118
▁maridhiano	-11.1119
▁MFANYABIASHARA	-11.1121
▁Par	-11.1121
▁KIUNGO	-11.1125
ishukuru	-11.1128
▁halina	-11.1128
▁jarida	-11.113
▁dimba	-11.1132
▁alikutana	-11.1135
over	-11.1138
▁kulima	-11.1141
▁mtukufu	-11.1142
▁maazimio	-11.1145
(1)	-11.1146
▁makombora	-11.1147
ED	-11.1148
▁mafao	-11.1151
▁Mshikamano	-11.1153
likuwepo	-11.1153
▁Ukuaji	-11.1153
▁mpiga	-11.1157
▁Ex	-11.1165
▁Pekee	-11.1166
▁marekani	-11.1172
▁White	-11.1175
▁kukwepa	-11.1176
tal	-11.1176
▁1999	-11.118
▁Juventus	-11.1183
TOKEA	-11.1186
▁Alipo	-11.1189
▁ameji	-11.1195
▁Kilwa	-11.1196
▁mitazamo	-11.1196
ET	-11.1197
▁uthibitisho	-11.12
▁Risasi	-11.1202
▁Moi	-11.1204
▁Ureno	-11.1205
▁biblia	-11.1207
▁majini	-11.1207
▁kana	-11.1207
▁Kaunti	-11.1209
▁kuiga	-11.121
▁tunawa	-11.121
▁kulalamika	-11.121
▁UREFU	-11.1211
▁wasiokuwa	-11.1211
▁internet	-11.1213
▁wanyamapori	-11.1215
▁shauku	-11.1215
zika	-11.1216
▁Mse	-11.1217
▁wanamuziki	-11.1217
▁ilitolewa	-11.1217
▁yakiwemo	-11.1219
▁viji	-11.122
▁Mau	-11.1222
my	-11.1225
<	-11.1226
▁kuepusha	-11.1228
!”	-11.1228
▁CAG	-11.1228
ling	-11.1229
isa	-11.123
▁rambirambi	-11.123
ste	-11.1231
▁Plugin	-11.1232
▁KUA	-11.1233
▁Tizeba	-11.1239
kuza	-11.124
▁ilitoa	-11.1241
HARI	-11.1241
heshimiwa	-11.1243
▁Wanasheria	-11.1244
▁uwakilishi	-11.1246
▁Hafla	-11.1251
▁ameanza	-11.1252
▁ilifanyika	-11.1256
▁hajui	-11.1257
▁Great	-11.126
▁USIKU	-11.1264
sambazwa	-11.1267
▁utashi	-11.1268
▁Godfrey	-11.1271
funguka	-11.1272
▁TEHAMA	-11.1273
▁kutoweka	-11.1276
▁aliahidi	-11.1277
▁HILO	-11.1278
yaona	-11.1279
▁afanye	-11.128
▁matiti	-11.1281
jawahi	-11.1282
kuambia	-11.1282
▁nyoka	-11.1287
kipiga	-11.1291
▁Macron	-11.1294
▁Sanga	-11.1295
labelled	-11.1296
zinga	-11.1298
Sasa	-11.1298
▁Sumbawanga	-11.1302
▁WASANII	-11.1304
▁UEFA	-11.1308
liki	-11.1308
▁hawataki	-11.1308
▁ALIYE	-11.131
▁Meru	-11.1311
▁+255	-11.1311
raka	-11.1312
▁LU	-11.1314
▁HIFADHI	-11.1316
▁ovyo	-11.1316
▁maboresho	-11.1317
▁uhalisia	-11.1319
▁MAZINGIRA	-11.1321
bila	-11.1323
NYI	-11.1324
mishwa	-11.1328
-1	-11.133
▁Hewa	-11.1332
IL	-11.1333
▁1994	-11.1334
▁atafanya	-11.1335
semi	-11.1335
▁aliou	-11.1335
Dkt	-11.1336
▁magaidi	-11.1339
▁Mkewe	-11.134
tungwa	-11.134
▁UNESCO	-11.134
▁Msimamo	-11.1342
▁mahabusu	-11.1342
▁msh	-11.1344
▁mku	-11.1345
faulu	-11.1346
▁kukiri	-11.1347
▁SEKONDARI	-11.1348
fuzu	-11.1348
▁hewani	-11.1349
▁HADI	-11.1349
▁Gambo	-11.1351
We	-11.1351
▁Maandamano	-11.1351
▁Banda	-11.1353
gara	-11.1353
▁58	-11.1354
▁Kurasa	-11.1357
▁Iwapo	-11.1358
▁Kuweka	-11.1358
enye	-11.1359
▁Nyalandu	-11.1359
alika	-11.1359
▁amekutana	-11.136
▁kuvuta	-11.1361
cy	-11.1364
▁tati	-11.1365
mina	-11.1366
▁Makosa	-11.1369
▁Sambamba	-11.1371
▁wakristo	-11.1371
▁ninayo	-11.1371
▁waliohusika	-11.1373
▁Nda	-11.1373
▁umwagiliaji	-11.1374
▁chi	-11.1376
▁MS	-11.1376
▁mda	-11.1381
▁maono	-11.1383
▁kukamata	-11.1383
ainishwa	-11.1383
▁Day	-11.1386
NC	-11.1386
▁Masha	-11.1387
xi	-11.139
ogope	-11.1391
▁tunge	-11.1391
IT	-11.1392
▁Msigwa	-11.1392
▁matano	-11.1395
shabiki	-11.1396
▁ameweka	-11.1398
▁imepata	-11.1401
▁nitumie	-11.1405
▁imeamua	-11.1407
▁AUAWA	-11.1409
▁benchi	-11.141
ctor	-11.141
▁VIWANDA	-11.1411
▁HIZI	-11.1414
tv	-11.1414
NGWA	-11.1417
maana	-11.1418
▁Tz	-11.1419
▁kupumzika	-11.142
ler	-11.142
▁kutumikia	-11.1426
▁mapa	-11.1428
▁Air	-11.1431
HABA	-11.1431
▁wamei	-11.1435
▁riziki	-11.1436
rick	-11.1438
De	-11.1438
shughulika	-11.1439
anzi	-11.1441
▁Kadhalika	-11.1449
shambuliwa	-11.1453
▁baiskeli	-11.1453
▁THE	-11.1459
EC	-11.146
▁Dalili	-11.1464
▁Pengine	-11.1468
rip	-11.1472
▁aliyefariki	-11.1472
rus	-11.1473
Kushoto	-11.1474
saga	-11.1477
KIWA	-11.1477
age	-11.148
▁Idd	-11.1483
rin	-11.1484
tar	-11.1487
▁mshauri	-11.1489
chezea	-11.149
▁Viwango	-11.1496
▁Feb	-11.1499
▁Hasa	-11.1499
had	-11.1499
▁hayaku	-11.15
fya	-11.1501
▁MAKONDA	-11.1502
▁Green	-11.1504
▁UME	-11.1505
▁mkaa	-11.1507
▁kikiwa	-11.1509
sadiki	-11.1513
▁Mbarak	-11.1514
▁yu	-11.1515
▁vipo	-11.1517
▁Kalemani	-11.1518
Hakuna	-11.1521
mbali	-11.1522
▁Inter	-11.1524
pdf	-11.1525
▁Mad	-11.1525
▁alfajiri	-11.1527
▁KIASI	-11.1527
▁takatifu	-11.1527
▁Airline	-11.1527
▁Yangu	-11.1528
▁BAJETI	-11.1529
UNGA	-11.1531
▁Mkuranga	-11.1531
▁subira	-11.1533
▁maliasili	-11.1534
uona	-11.1535
▁Ukonga	-11.1535
MC	-11.1535
▁wameshindwa	-11.1539
▁Kifo	-11.1539
▁anayeweza	-11.1541
▁KITABU	-11.1541
▁nyinginezo	-11.1541
▁Umuhimu	-11.1545
▁alichoki	-11.1546
▁Barani	-11.1549
▁ataendelea	-11.1549
▁Ag	-11.155
kasi	-11.1552
▁Kuwait	-11.1552
▁Zimamoto	-11.1554
`	-11.1556
▁ofa	-11.1557
mekwisha	-11.1558
▁kumuunga	-11.1563
▁Muhtasari	-11.1564
▁Yoweri	-11.1564
tunga	-11.1566
▁kalenda	-11.1567
▁imeongezeka	-11.157
▁marefu	-11.1573
NZA	-11.1576
▁VIFAA	-11.1576
▁Movie	-11.1576
vumilia	-11.1577
▁wamefariki	-11.1578
▁vyovyote	-11.158
▁wachimbaji	-11.158
▁imei	-11.1581
choma	-11.1581
MOI	-11.1581
▁akieleza	-11.1582
0,000/=	-11.1582
▁misa	-11.1582
elimisha	-11.1583
arifu	-11.1585
2]	-11.1585
▁MAANA	-11.1586
UMBA	-11.1586
▁utumwa	-11.1588
▁app	-11.1588
and	-11.159
▁Sukari	-11.1593
▁MRISHO	-11.1597
pole	-11.1598
▁pembejeo	-11.1599
▁Free	-11.1603
jivunia	-11.1604
▁kuwalinda	-11.1604
▁Faida	-11.1605
▁RATIBA	-11.1605
▁msongamano	-11.1605
▁Standard	-11.1606
▁uma	-11.1608
▁Matendo	-11.1609
imarishwa	-11.1611
▁akionyesha	-11.1614
▁Hao	-11.1616
▁YANGU	-11.1616
▁Kinacho	-11.1617
▁Kita	-11.1618
▁Mushi	-11.1619
▁Va	-11.162
▁uhitaji	-11.1624
ongezwa	-11.1624
▁mazito	-11.1624
▁Aya	-11.1626
▁kiini	-11.1627
MBE	-11.1633
▁misuli	-11.1637
simamishwa	-11.1638
▁Tunisia	-11.1639
▁mapokezi	-11.1644
▁kuenea	-11.1647
kara	-11.1648
pandisha	-11.1651
▁kusikilizwa	-11.1652
▁she	-11.1652
▁Kulevya	-11.1654
▁Lugola	-11.1654
angusha	-11.1655
▁Nobel	-11.1655
▁WE	-11.1658
▁ZanziNews	-11.1658
ola	-11.1659
▁MAARUFU	-11.1662
HARA	-11.1662
▁kulinganisha	-11.1666
▁ZOEZI	-11.1666
MATOKEO	-11.1668
yapata	-11.1668
▁Beach	-11.1671
eleke	-11.1672
▁nahodha	-11.1672
▁Enzi	-11.1674
ea	-11.1675
▁Korosho	-11.1676
▁halija	-11.1677
mesema	-11.1678
▁ATEMBELEA	-11.1679
▁inayodaiwa	-11.1682
▁kuvuka	-11.1683
▁TB	-11.1683
▁1990	-11.1683
tusaidia	-11.1684
▁Majeruhi	-11.1685
▁Uswisi	-11.1688
▁Vijiji	-11.169
▁akiteta	-11.1692
▁tozo	-11.1693
▁linasema	-11.1695
▁ICC	-11.1696
▁ghorofa	-11.1696
▁kusajili	-11.1697
▁kuhakiki	-11.1699
▁binaadamu	-11.17
Bo	-11.17
ingizia	-11.1702
men	-11.1703
adhimishwa	-11.1706
▁uvamizi	-11.1707
ons	-11.1707
▁vinywaji	-11.1708
▁inazidi	-11.1712
mad	-11.1712
▁kushambuliwa	-11.1712
▁tetesi	-11.1712
▁Voices	-11.1714
▁NY	-11.1715
twi	-11.1716
▁pauni	-11.1719
▁MUHIMU	-11.172
PENDA	-11.172
▁sema	-11.1721
▁Saratani	-11.1722
▁64	-11.1725
▁Agnes	-11.1725
▁Rodriguez	-11.1726
Sh	-11.1729
▁Mtaka	-11.173
▁Bre	-11.1731
▁Mauzo	-11.1731
▁twitter	-11.1733
JUA	-11.1734
▁Matatizo	-11.1736
UNI	-11.1737
▁Kha	-11.1737
▁UWT	-11.1739
▁utume	-11.174
▁kumbuka	-11.1741
achilia	-11.1742
▁Maga	-11.1744
▁kuziba	-11.1744
▁zinazowakabili	-11.1745
wakaribisha	-11.1746
▁Nzega	-11.1753
▁£	-11.1754
▁Quran	-11.176
tumbuiza	-11.1763
▁kumsajili	-11.1764
kanda	-11.1765
anya	-11.1766
pande	-11.1767
kataza	-11.1775
cheka	-11.1779
▁KUTO	-11.1779
▁2010.	-11.1781
▁Halima	-11.1781
▁kunaweza	-11.1783
▁Ndipo	-11.1785
masi	-11.1786
▁Ikungi	-11.1789
swahili	-11.179
▁hovyo	-11.1791
PR	-11.1792
▁Wahamiaji	-11.1793
tumiki	-11.1797
shughulikiwa	-11.1797
udhi	-11.1806
▁news	-11.1808
▁ujangili	-11.1813
▁Kutumia	-11.1818
▁Gani	-11.1819
▁kisiwani	-11.182
nadhani	-11.1821
aliye	-11.1825
▁homa	-11.1826
▁Thi	-11.1826
▁NO	-11.1828
AND	-11.1829
shuhudiwa	-11.183
▁kuruka	-11.1831
▁Othman	-11.1831
▁kufafanua	-11.1831
▁kugawa	-11.1833
▁Mtandaoni	-11.1834
ghu	-11.1835
fikie	-11.1837
▁amethibitisha	-11.1838
▁mitaji	-11.1838
kuomba	-11.1841
▁Patrick	-11.1841
▁NGONO	-11.1844
▁MADAKTARI	-11.1845
▁wanadai	-11.1851
▁WANGU	-11.1853
▁upotevu	-11.1853
sulu	-11.1856
▁JUNI	-11.186
▁ladha	-11.1861
▁Vikuu	-11.1862
dan	-11.1863
chama	-11.1863
▁upi	-11.1863
▁Cristiano	-11.1865
▁CDM	-11.1869
ori	-11.1869
▁Angola	-11.1872
changiwa	-11.1872
▁staili	-11.1878
▁uji	-11.1879
▁wo	-11.1879
▁SWALI	-11.188
▁59	-11.188
▁watawa	-11.188
paswi	-11.1887
▁kupitishwa	-11.1888
ncy	-11.1888
▁program	-11.189
▁Kawaida	-11.1892
ism	-11.1892
lingana	-11.1895
pesa	-11.1899
▁mheshimiwa	-11.1899
cia	-11.1901
▁Gor	-11.1902
▁AS	-11.1906
▁Windows	-11.1908
▁chumvi	-11.1908
▁harufu	-11.1908
▁Pep	-11.1909
▁marais	-11.1916
ren	-11.1917
▁niseme	-11.1917
bani	-11.1922
▁urembo	-11.1922
▁Pole	-11.1925
SOMA	-11.1928
ema	-11.193
ign	-11.1932
iii	-11.1935
▁uvunjifu	-11.1936
▁wakidai	-11.1938
▁kamba	-11.1938
▁MAKUBWA	-11.1942
▁kuwaomba	-11.1943
▁Shirikiana	-11.1944
Ho	-11.1944
EP	-11.1946
▁Ubunifu	-11.1948
▁Kanali	-11.1949
takuja	-11.195
▁mwafaka	-11.1952
▁Prince	-11.1953
▁SIASA	-11.1955
▁Senegal	-11.1959
▁ubinafsi	-11.1961
▁Akaunti	-11.1963
▁Asasi	-11.1968
▁MITATU	-11.1969
▁kuhamisha	-11.197
KABIDHI	-11.1971
▁ukomo	-11.1971
ston	-11.1971
▁wezi	-11.1972
PC	-11.1972
TM	-11.1973
▁Yakobo	-11.1976
▁kumwaga	-11.1977
ore	-11.1978
▁hauwezi	-11.1979
▁1980	-11.1979
▁Samsung	-11.1985
jana	-11.1986
▁Tisa	-11.1988
▁x	-11.1992
HAMI	-11.1993
▁Msimamizi	-11.1993
faidika	-11.1995
▁Msuya	-11.1997
▁Ofisini	-11.1998
▁Kuto	-11.2003
ruma	-11.2004
▁tunda	-11.2004
▁mwito	-11.2004
lali	-11.2005
▁mtizamo	-11.2005
▁RU	-11.2007
▁anaonekana	-11.2008
▁Kikundi	-11.2008
▁kutokomeza	-11.2008
mwomba	-11.2009
napokuwa	-11.201
▁MT	-11.2013
nger	-11.2015
mbili	-11.2018
▁MAG	-11.2019
▁mshirika	-11.202
▁twa	-11.2021
tukufu	-11.2021
towa	-11.2021
ratibiwa	-11.2023
:10	-11.2026
siti	-11.2026
paa	-11.2027
▁uwekaji	-11.2027
▁hatma	-11.2028
▁Usa	-11.2029
▁aliyokuwa	-11.2031
▁anaandika	-11.2031
DAI	-11.2037
▁NCCR	-11.2038
▁MISS	-11.2038
▁afrika	-11.2039
oneshwa	-11.2039
▁NYIMBO	-11.2044
▁akiweka	-11.2046
▁inayoongozwa	-11.2048
▁57	-11.2051
▁Nyuma	-11.2051
▁akiangalia	-11.2053
▁KULIKO	-11.2053
car	-11.2058
chunguzi	-11.2062
▁MOTO	-11.2064
▁kileleni	-11.2065
100	-11.2065
▁mpana	-11.2075
▁Indonesia	-11.2077
itisha	-11.2079
▁kujikita	-11.2083
▁makadirio	-11.2083
ress	-11.2089
angali	-11.209
bb	-11.2095
▁waliweza	-11.2095
▁Kijazi	-11.2098
▁wakam	-11.2098
▁Isaya	-11.21
▁bwawa	-11.21
▁kuonana	-11.2102
▁nyadhifa	-11.2102
▁Ray	-11.2106
:12	-11.2107
▁KUSOMA	-11.211
▁idhini	-11.2111
eza	-11.2112
safirishwa	-11.2113
keni	-11.2114
fuga	-11.2117
▁ataku	-11.2121
▁mitandaoni	-11.2121
▁KUENDELEA	-11.2123
▁anatumia	-11.2125
▁kielimu	-11.2125
▁sta	-11.2125
▁hakukuwa	-11.2128
▁Pan	-11.213
vunjika	-11.2131
ito	-11.2131
▁inayofuata	-11.2132
adhibu	-11.2133
ONA	-11.2133
▁ngumi	-11.2136
65	-11.2138
fan	-11.2138
uku	-11.2138
▁nyenzo	-11.2139
tai	-11.2139
▁maumbile	-11.2143
ngoja	-11.2143
shinikiza	-11.2146
mwaga	-11.2151
▁Mpelekee	-11.2151
▁nembo	-11.2152
▁walezi	-11.2152
▁MAKA	-11.2153
lijua	-11.2156
▁Tottenham	-11.216
.00	-11.216
mekuwa	-11.2161
▁wamejeruhiwa	-11.2161
▁falsafa	-11.2162
▁pembezoni	-11.2164
▁aliyewahi	-11.2164
▁Mbio	-11.2164
▁YALIYO	-11.2166
▁ULINZI	-11.2166
▁waume	-11.2168
▁Bia	-11.2168
kemea	-11.2169
▁EAC	-11.2171
▁Mauaji	-11.2172
▁mwaliko	-11.2176
▁MITI	-11.218
▁Kange	-11.2185
▁Sy	-11.2186
▁Sophia	-11.2193
▁uk	-11.2194
▁uwongo	-11.2195
▁amemteua	-11.2196
▁AI	-11.2199
▁kudaiwa	-11.2199
▁kuhubiri	-11.22
▁akizungumzia	-11.22
▁kujipanga	-11.2202
▁Jumuia	-11.2203
▁All	-11.2205
▁Gharama	-11.2205
▁Makumbusho	-11.2207
chafua	-11.2209
red	-11.2209
▁Mati	-11.2213
▁YATANGAZWA	-11.2213
zipata	-11.2213
▁1998	-11.2217
▁hongera	-11.2218
▁mitume	-11.2218
▁inakuja	-11.2219
▁promosheni	-11.222
▁unasema	-11.222
▁pepo	-11.2221
▁Nye	-11.2221
biashara	-11.2222
▁uliotolewa	-11.2223
gawanyika	-11.2223
hala	-11.2224
RS	-11.2224
Mw	-11.2225
nzani	-11.223
pika	-11.2231
▁hamna	-11.2232
ING	-11.2234
▁68	-11.2236
▁Cape	-11.2237
▁mitindo	-11.2239
▁mashujaa	-11.2241
pandishwa	-11.2243
▁Ushuhuda	-11.2243
▁NYA	-11.2245
kumbukwa	-11.2249
▁Milan	-11.225
▁mwaminifu	-11.2251
▁akizindua	-11.2254
▁huta	-11.2259
PL	-11.2261
burg	-11.2262
bin	-11.2266
jeruhi	-11.2269
▁Mdhibiti	-11.227
KATI	-11.2275
Siku	-11.2279
▁Christian	-11.2279
iv	-11.228
▁Mala	-11.2284
▁umefanyika	-11.2285
▁medali	-11.2285
OMBE	-11.2288
tukana	-11.2288
▁KIKE	-11.2289
Shabaab	-11.2289
mber	-11.229
GI	-11.2294
8,	-11.2297
dor	-11.2304
▁Chang	-11.2304
▁hio	-11.2306
ambukizwa	-11.231
▁dira	-11.2311
livyo	-11.2312
▁walitoa	-11.2316
▁wanatoa	-11.2317
▁SAA	-11.2317
jifungua	-11.2319
▁Mathayo	-11.232
chagu	-11.2321
gusia	-11.2321
▁Mwita	-11.2322
mes	-11.2324
▁Adamu	-11.2324
▁utani	-11.2326
▁akidai	-11.233
▁Jack	-11.2331
▁bofya	-11.2332
roni	-11.2332
▁motomoto	-11.2333
▁sidhani	-11.2334
▁Magari	-11.2334
TOLEWA	-11.2336
lege	-11.2337
▁Dubai	-11.234
▁wachanga	-11.234
▁kuficha	-11.2342
▁asisitiza	-11.2343
▁MICHUZI	-11.2344
▁vs	-11.2345
▁BLOGU	-11.2345
▁alifafanua	-11.2347
▁kiutendaji	-11.235
▁Irene	-11.235
▁mashauri	-11.2352
▁1.5	-11.2352
▁Van	-11.2355
▁hakikisha	-11.2356
▁tosha	-11.2358
▁IN	-11.2362
ries	-11.2362
▁yaliyofanywa	-11.2363
▁wanaowa	-11.2364
kaidi	-11.2365
▁DO	-11.2367
▁ufungaji	-11.2367
▁Mtaalamu	-11.2368
PONGEZA	-11.2369
▁watafiti	-11.2369
waona	-11.237
▁zimehifadhiwa	-11.237
▁kukicha	-11.2371
▁CM	-11.2371
▁Pre	-11.2372
▁miongo	-11.2373
▁Ukristo	-11.2375
▁99	-11.2379
▁com	-11.2381
▁ZAO	-11.2384
▁wahariri	-11.2387
Hatu	-11.2388
tahiniwa	-11.2388
shusha	-11.2391
▁KALI	-11.2391
▁soma	-11.2392
top	-11.2393
▁kikapu	-11.2393
▁Sema	-11.2394
:15	-11.2396
▁Upande	-11.2397
He	-11.2398
▁mengineyo	-11.2399
▁UFUNDI	-11.2399
▁kunako	-11.24
▁kwe	-11.24
andikisha	-11.2402
▁Ala	-11.2402
zingatiwa	-11.2405
▁Nde	-11.2409
▁tele	-11.241
▁Faustine	-11.2412
ire	-11.2414
▁JIJI	-11.2415
▁GE	-11.2417
▁Mak	-11.2424
tahadharisha	-11.2427
huru	-11.2428
UKU	-11.2429
▁Reuters	-11.2431
haribi	-11.2434
▁utasaidia	-11.2434
▁KILIMANJARO	-11.2435
▁yo	-11.2436
▁wanasheria	-11.2438
▁hato	-11.244
▁Uratibu	-11.2442
▁Msikiti	-11.2444
▁Uli	-11.2444
▁Norway	-11.2452
▁mbuga	-11.2452
▁inaitwa	-11.2454
wekewa	-11.2455
fari	-11.2456
▁kuwashirikisha	-11.2457
▁Ipo	-11.2457
▁inafaa	-11.2458
▁Swala	-11.246
▁kupisha	-11.2461
ity	-11.2462
▁Butiama	-11.2463
ONDO	-11.2463
▁zinapatikana	-11.2466
zani	-11.2468
mungu	-11.2469
▁MADINI	-11.2471
feli	-11.2473
dhamini	-11.2473
endi	-11.2474
▁kupona	-11.2474
▁laini	-11.2475
97	-11.2476
SC	-11.2477
▁stadi	-11.2478
▁Mch	-11.2479
shangilia	-11.2481
▁MKAKATI	-11.2486
:14	-11.2489
:16	-11.249
82	-11.249
▁mabenki	-11.2491
saidiwa	-11.2491
▁kijani	-11.2497
▁hatarini	-11.2497
▁mbao	-11.2499
▁MAOMBI	-11.25
▁mito	-11.2501
▁Ahmad	-11.2506
▁kuhojiwa	-11.2508
▁kujieleza	-11.2508
▁Maswa	-11.2509
▁akiwamo	-11.2509
▁Ukawa	-11.2513
▁Sc	-11.2515
▁Ahsante	-11.2516
▁PIKIPIKI	-11.2516
yaani	-11.2517
▁800	-11.2519
ral	-11.252
▁mchumba	-11.2521
▁WIVU	-11.2523
blogspot	-11.2525
▁HI	-11.2527
▁Ten	-11.253
▁inayoweza	-11.253
▁Mari	-11.2531
▁Maktaba	-11.2531
▁kuwatumikia	-11.2533
jiita	-11.2539
▁Kiu	-11.2539
angukia	-11.2543
▁MAT	-11.2543
zama	-11.2546
Alisema	-11.2546
▁kisingizio	-11.2546
:13	-11.2547
jasiri	-11.2548
ray	-11.2548
▁MP	-11.2549
OTE	-11.2551
▁alipewa	-11.2552
▁Handeni	-11.2553
▁imeshindwa	-11.2557
olo	-11.2558
▁linaendelea	-11.2559
▁Kaya	-11.2559
▁fleva	-11.2559
▁are	-11.2562
kuna	-11.2563
Fa	-11.2565
▁Sikukuu	-11.2565
▁85	-11.2565
▁anadaiwa	-11.2565
▁diwani	-11.2566
ENDE	-11.2568
▁kurudia	-11.2569
73	-11.2569
▁MAREHEMU	-11.2572
▁Maziwa	-11.2575
janja	-11.2578
▁Rufiji	-11.2579
▁Tumaini	-11.2588
tafutwa	-11.2589
NJA	-11.2591
jiunge	-11.2593
▁kirahisi	-11.2596
▁JIMBO	-11.2597
▁Misa	-11.2598
tuna	-11.2599
▁Ndu	-11.26
▁Mrema	-11.2601
▁kipande	-11.2603
▁Malaria	-11.2604
▁MANISPAA	-11.2607
nachotaka	-11.2607
shanga	-11.2609
▁kielektroniki	-11.2611
▁yamefanyika	-11.2612
▁my	-11.2613
▁KITU	-11.2616
▁Cl	-11.2617
▁wasiojulikana	-11.2619
Ya	-11.2622
▁hasi	-11.2624
▁kumchagua	-11.2626
,2017	-11.2628
▁Mume	-11.2632
gue	-11.2633
vel	-11.2634
▁1992	-11.2637
▁Televisheni	-11.2637
UNDP	-11.2638
▁Democratic	-11.264
▁kipi	-11.264
▁kuajiri	-11.2642
▁Gesi	-11.2642
▁ziweze	-11.2643
▁waombaji	-11.2644
▁Kida	-11.2645
▁zipi	-11.2646
▁akikata	-11.2646
▁mhusika	-11.2647
▁alikuja	-11.2649
hamishiwa	-11.2649
mpata	-11.2653
▁mwendelezo	-11.2655
jumu	-11.2655
sso	-11.2657
pimwa	-11.2657
▁lipi	-11.2659
dhibitiwa	-11.2659
tte	-11.266
▁Wapalestina	-11.2661
▁ukiangalia	-11.2661
▁Jannet	-11.2661
PF	-11.2662
▁masikio	-11.2663
▁MKUBWA	-11.2663
van	-11.2664
▁Fred	-11.2665
▁wakitumia	-11.2668
▁MEI	-11.2669
▁wasikilizaji	-11.2669
▁Ayoub	-11.267
aya	-11.267
▁PAPO	-11.2671
mteua	-11.2675
▁zanzibar	-11.2676
La	-11.2678
▁Halafu	-11.2679
▁Atletico	-11.2681
▁inatu	-11.2684
haki	-11.2684
▁Ndanda	-11.2685
▁(5)	-11.2688
kiona	-11.2689
▁ahsante	-11.2694
tasaidia	-11.2695
hii	-11.2696
tive	-11.2697
▁Party	-11.2697
▁Chapisho	-11.2698
Kulia	-11.2699
sion	-11.2699
▁kuibwa	-11.27
ikiwa	-11.2703
▁kidunia	-11.2705
▁mayai	-11.2708
▁WAME	-11.271
▁JINSIA	-11.2711
▁3-0	-11.2712
▁amini	-11.2712
▁kuvunjika	-11.2712
▁Jifunze	-11.2713
▁waliokufa	-11.2715
▁Kwako	-11.2718
▁Sijui	-11.2722
▁Miti	-11.2722
▁kielelezo	-11.2725
▁Pen	-11.2725
▁Makubaliano	-11.2727
▁kukimbilia	-11.2727
▁Grace	-11.2728
▁Col	-11.2729
/10	-11.2732
▁HUKO	-11.2733
▁66	-11.2735
▁miujiza	-11.2736
▁kumpigia	-11.2736
▁Pembe	-11.2737
▁Komba	-11.2737
▁Jangwani	-11.2737
▁Wageni	-11.2742
▁nyeusi	-11.2742
▁inadaiwa	-11.2742
▁Mpanda	-11.2743
bomoa	-11.2743
▁chupa	-11.2745
kwepa	-11.2749
pangi	-11.2751
▁Image	-11.2753
Mar	-11.2754
▁Bonde	-11.2756
▁pengo	-11.2757
▁KISASA	-11.2758
83	-11.2759
waka	-11.2764
Pia	-11.2765
▁TM	-11.2766
▁Tembelea	-11.2766
▁umbo	-11.2767
ASA	-11.2767
vin	-11.2769
▁mtambo	-11.277
sainiwa	-11.277
▁MALI	-11.2771
▁ndiko	-11.2777
OGO	-11.2778
▁tumbaku	-11.2778
▁Kibinadamu	-11.278
▁mana	-11.2782
pingana	-11.2783
▁bonde	-11.2783
▁hakimu	-11.2785
▁inategemea	-11.2787
▁Her	-11.2788
▁FILAMU	-11.2789
▁walifika	-11.2789
fufua	-11.279
▁manabii	-11.2791
kristo	-11.2792
▁hajawahi	-11.2794
▁AZALIWA	-11.2795
tions	-11.2796
▁starehe	-11.2796
video	-11.2797
▁Samwel	-11.2801
ruhusiwi	-11.2802
▁iliyoundwa	-11.2805
▁Mwanaume	-11.2805
▁Milele	-11.2811
▁TO	-11.2812
ngamano	-11.2812
▁iwa	-11.2812
▁wanacho	-11.2812
▁shujaa	-11.2813
afrika	-11.2814
wezeshwa	-11.2815
▁jumamosi	-11.2815
LIWA	-11.2815
▁inakabiliwa	-11.2817
▁per	-11.2817
88	-11.2817
▁wadudu	-11.2818
▁saruji	-11.2822
▁Sama	-11.2822
andama	-11.2825
▁YAO	-11.2831
▁Music	-11.2832
hamisha	-11.2832
▁bosi	-11.2837
▁Mghamba	-11.2837
KWE	-11.2838
▁atapata	-11.284
▁HATI	-11.2842
▁wanau	-11.2844
jitambulisha	-11.2844
fuatiwa	-11.2844
onana	-11.2845
tendeka	-11.2845
▁Wanahabari	-11.2846
▁kutafsiriwa	-11.2847
▁UM	-11.2847
▁Lina	-11.2851
safisha	-11.2851
ORG	-11.2857
BIA	-11.2857
▁Kifungu	-11.2857
▁time	-11.2858
▁Mabo	-11.2859
▁Joshua	-11.2859
▁AMKA	-11.286
[1]	-11.2867
▁alini	-11.2869
metokea	-11.2869
RY	-11.2871
▁MIFUGO	-11.2873
▁TAKUKURU	-11.2873
▁inamaanisha	-11.2874
▁tutaendelea	-11.288
ration	-11.2881
▁MIFUKO	-11.2882
ford	-11.2884
▁Kat	-11.2884
▁jumba	-11.2884
▁uasi	-11.2885
▁Mawazo	-11.2886
▁afariki	-11.2891
▁ameendelea	-11.2891
▁REA	-11.2895
▁Simbachawene	-11.2895
changiane	-11.2895
▁nadharia	-11.2896
▁sekunde	-11.2897
wapenda	-11.2898
▁Previous	-11.29
▁Uhispania	-11.29
▁unaotarajiwa	-11.2901
shughuli	-11.2901
sije	-11.2908
▁aliweka	-11.2908
▁67	-11.2909
▁Kibo	-11.2912
▁Zainab	-11.2918
▁jukwaani	-11.292
▁CC	-11.2922
▁japokuwa	-11.2922
▁utambuzi	-11.2922
▁kilichokuwa	-11.2927
▁upeo	-11.2929
▁kuifunga	-11.2929
▁kiusalama	-11.2931
▁Kijaji	-11.2931
▁Addis	-11.2933
TEMBELEA	-11.2937
▁kuugua	-11.2938
7-	-11.2939
wenye	-11.294
cheze	-11.2941
▁imezindua	-11.2942
low	-11.2943
▁aliyem	-11.2943
▁ameibuka	-11.2944
▁kufutwa	-11.2944
▁WAKI	-11.2945
▁alishinda	-11.2946
▁tete	-11.2946
ig	-11.2946
▁stori	-11.2947
▁Sinza	-11.2948
kano	-11.2949
▁Anga	-11.2949
▁2016/17	-11.2953
nto	-11.2955
▁Vanessa	-11.2955
▁Huru	-11.2958
▁SAMIA	-11.296
▁hujuma	-11.2961
▁kikomo	-11.2964
▁Villa	-11.2965
▁KKKT	-11.2966
▁wazalendo	-11.2967
▁gereza	-11.2967
▁kukuta	-11.2969
baada	-11.2972
▁Nika	-11.2975
▁TIBA	-11.2976
nn	-11.2976
ive	-11.2981
▁Madola	-11.2983
OT	-11.2983
naomba	-11.2987
▁DI	-11.2989
▁aitwaye	-11.2991
ACP	-11.2993
▁JUA	-11.2995
fani	-11.2995
▁man	-11.2999
old	-11.3
▁jaribu	-11.3
CHUKULIWA	-11.3
▁mdahalo	-11.3
▁Wanyamapori	-11.3003
eta	-11.3003
▁yalifanyika	-11.3003
emba	-11.3003
tikisa	-11.3008
▁kiafrika	-11.3009
▁Madai	-11.301
▁kutiwa	-11.3011
MIS	-11.3011
▁wapendwa	-11.3011
▁wachungaji	-11.3012
▁inasemekana	-11.3013
▁chu	-11.3013
fupi	-11.3016
▁Game	-11.3018
lindwa	-11.3021
▁Mapa	-11.3022
IP	-11.3023
▁1)	-11.3024
▁tupu	-11.3025
▁mh	-11.303
▁3-1	-11.3032
▁MASUALA	-11.3037
▁kuwaondoa	-11.3039
▁potofu	-11.3043
▁madaraja	-11.3043
▁KIPINDI	-11.3046
▁akiendelea	-11.305
▁Kamisheni	-11.305
pumbavu	-11.3051
vunjwa	-11.3051
▁Nyi	-11.3051
agi	-11.3054
▁mako	-11.3055
▁HARAKA	-11.3056
▁SH	-11.3057
/-	-11.306
vuja	-11.3062
▁Far	-11.3063
▁Angel	-11.3064
▁hupenda	-11.3064
▁Kawe	-11.3065
▁Matumaini	-11.3067
▁Korogwe	-11.3068
kondo	-11.307
▁2)	-11.307
▁JUMAMOSI	-11.3071
ambapo	-11.3071
▁Mkumbo	-11.3071
▁Wapenzi	-11.3072
▁It	-11.3075
▁KINA	-11.3075
▁Africans	-11.3077
▁Dayosisi	-11.3077
tembelewa	-11.3078
▁Com	-11.308
▁maj	-11.3086
dikteta	-11.3089
▁Huwezi	-11.3091
­	-11.3091
lengwa	-11.3092
▁Kusimamia	-11.3094
▁MOYO	-11.3094
▁wameweza	-11.3095
▁Kiume	-11.3095
▁Malkia	-11.3095
▁Muonekano	-11.3096
▁Nk	-11.3096
▁WILAYANI	-11.3097
400	-11.3097
tegemee	-11.3097
fer	-11.3101
YU	-11.3107
NYE	-11.3107
#	-11.3108
:17	-11.3108
▁kidiplomasia	-11.3109
kala	-11.3113
▁mrengo	-11.3116
▁vilikuwa	-11.312
:11	-11.312
▁Made	-11.312
waita	-11.3121
▁kishindo	-11.3121
▁imeweka	-11.3123
dini	-11.3131
▁ubadhirifu	-11.3132
▁kuharakisha	-11.3134
▁uangalizi	-11.3134
qua	-11.3137
▁utumiaji	-11.3139
▁mwimbaji	-11.3141
▁akiingia	-11.3142
▁Kara	-11.3144
▁fungu	-11.3144
▁or	-11.3145
▁alifika	-11.3145
▁hataki	-11.3145
▁kuhimiza	-11.3147
▁Live	-11.3149
▁Haku	-11.315
▁gu	-11.3153
jaliwa	-11.3154
▁Luhaga	-11.3155
THI	-11.3155
lili	-11.3161
▁pre	-11.3163
▁amewahi	-11.3167
▁Mwaki	-11.3168
▁keki	-11.317
▁kujadiliana	-11.3174
▁JUMA	-11.3175
▁Jong	-11.3176
▁adha	-11.3177
▁Mlo	-11.3177
▁kuzama	-11.3179
▁Malinzi	-11.3179
▁Alvaro	-11.318
▁tumboni	-11.3181
▁kikatili	-11.3183
bora	-11.3184
TUME	-11.3184
cent	-11.3186
▁Ngara	-11.3187
▁1977	-11.3188
faidi	-11.3189
▁mabinti	-11.3189
shindikana	-11.319
miwa	-11.3191
▁Abdulwakil	-11.3192
▁ufukwe	-11.3192
▁2015/2016	-11.3193
EMBE	-11.3196
▁utaweza	-11.3197
zuiwa	-11.3198
▁Kudhibiti	-11.3198
NECTA	-11.3203
rekodi	-11.3203
▁wakaazi	-11.3206
▁jimboni	-11.3207
▁kuzunguka	-11.3207
▁kueneza	-11.3208
▁Sara	-11.3208
umwa	-11.3208
▁akipiga	-11.321
hesabu	-11.321
Taifa	-11.321
dada	-11.3211
▁Mbezi	-11.3211
▁Toa	-11.3215
likua	-11.3217
▁viko	-11.3217
▁My	-11.3217
ADI	-11.3221
▁zisi	-11.3222
▁ANGALIA	-11.3223
tumike	-11.3224
Ko	-11.3224
▁ukoo	-11.3224
▁taabu	-11.3224
▁BEI	-11.3224
imarika	-11.3235
▁SportPesa	-11.3236
▁seli	-11.3237
tunukiwa	-11.3238
▁Mur	-11.3241
▁caption	-11.3242
▁MNA	-11.3246
▁Acha	-11.325
▁Hayati	-11.3251
▁NDO	-11.3254
▁KUANZA	-11.3255
▁wavuvi	-11.3256
sahihi	-11.3256
▁dume	-11.3257
▁kuchimba	-11.326
▁WHO	-11.326
▁MFUKO	-11.3261
▁WI	-11.3261
▁kuhitimisha	-11.3262
post	-11.3262
▁ubakaji	-11.3263
▁Ak	-11.3263
talii	-11.3265
less	-11.3266
▁kutowa	-11.3267
ef	-11.3267
ius	-11.3267
AZI	-11.3267
▁jeneza	-11.3268
endele	-11.3271
upata	-11.3273
jari	-11.3275
▁Molel	-11.3275
▁kuigwa	-11.3276
AMEZALIWA	-11.3277
▁Idris	-11.328
▁kusamehe	-11.328
ky	-11.3282
▁maktaba	-11.3287
very	-11.3289
▁Sabasaba	-11.329
rdi	-11.3291
▁nyie	-11.3291
▁kumalizia	-11.3292
hiyo	-11.3296
▁Email	-11.3298
tegeme	-11.3298
▁MK	-11.3301
▁tunazo	-11.3302
▁Jokate	-11.3303
▁Republican	-11.3305
▁SISI	-11.3305
▁inatumia	-11.3308
75	-11.3309
2)	-11.331
▁fo	-11.3312
▁kusambaa	-11.3312
WATAKA	-11.3313
▁Fer	-11.3313
▁kup	-11.3314
PICHANI	-11.3314
▁NATO	-11.3317
▁Miguna	-11.3319
▁kuzima	-11.3319
▁Muheza	-11.3319
kwani	-11.332
▁Safi	-11.3321
▁kuvumilia	-11.3321
▁~	-11.3322
▁watazamaji	-11.3323
▁alisha	-11.3323
▁MARUDIO	-11.3324
TIC	-11.3326
▁mteule	-11.3326
kaji	-11.3326
▁Huyo	-11.3327
vuna	-11.3329
kashifu	-11.333
▁droo	-11.3331
▁hufanyika	-11.3332
teketeza	-11.3335
fungiwa	-11.3336
▁Khan	-11.3337
▁Nyasa	-11.3339
ndiko	-11.334
▁100,000	-11.3341
▁udiwani	-11.3342
▁visima	-11.3343
▁Zamani	-11.3344
▁Bur	-11.3347
▁kaimu	-11.3349
▁Ababa	-11.3353
nasi	-11.3356
binafsi	-11.3358
MT	-11.3368
afuturisha	-11.3371
▁kutajwa	-11.3371
▁Liga	-11.3372
▁walikamatwa	-11.3373
▁Michuano	-11.3373
▁walengwa	-11.3373
▁Wagombea	-11.3373
mfahamu	-11.3374
TAN	-11.3374
▁vitakavyo	-11.3374
reje	-11.3374
▁anaona	-11.3375
tenganisha	-11.3377
▁Mteja	-11.3377
amp	-11.3379
▁Krismasi	-11.338
ndia	-11.338
▁alipokutana	-11.3381
fadha	-11.3381
▁aliingia	-11.3383
hasa	-11.3384
▁mganga	-11.3385
▁zinaonesha	-11.3386
▁Assad	-11.3388
▁CHE	-11.3388
furika	-11.339
NIA	-11.339
▁yatokanayo	-11.339
▁ALHAMISI	-11.3392
sawa	-11.3394
kopesha	-11.3396
▁kuendana	-11.3396
▁ekari	-11.3397
▁washtakiwa	-11.3397
wala	-11.3397
idhinisha	-11.3398
▁Shaka	-11.3405
lete	-11.3405
▁Karatu	-11.3406
▁KAULI	-11.3407
▁kujiondoa	-11.3408
▁pingamizi	-11.3408
▁misimamo	-11.341
qui	-11.3412
pindu	-11.3412
▁malighafi	-11.3413
nukuliwa	-11.3414
▁Kaka	-11.3415
▁Warriors	-11.3417
▁500,000	-11.3417
▁zinge	-11.3419
▁marudiano	-11.342
erry	-11.342
▁this	-11.342
....’	-11.3423
lay	-11.3424
▁Amos	-11.3424
▁mkusanyiko	-11.3427
batizwa	-11.3431
2008	-11.3432
chumi	-11.3433
▁kuhifadhia	-11.3437
wakutanisha	-11.3437
▁Black	-11.3438
▁kuhutubia	-11.3439
▁kutokuwepo	-11.3439
▁Kil	-11.3439
▁UMEME	-11.3439
▁TP	-11.344
lelewa	-11.3441
via	-11.3444
▁fanpop	-11.3446
▁Centre	-11.3448
▁ataka	-11.3449
▁Lebanon	-11.345
Hapa	-11.3454
▁taslimu	-11.3454
▁Bus	-11.3454
▁Sensa	-11.3454
nuka	-11.3455
damu	-11.3455
▁hutolewa	-11.3458
▁kinara	-11.3459
▁Tunaweza	-11.3459
pichani	-11.346
▁Bofya	-11.3461
▁asali	-11.3461
▁KUIBA	-11.3466
▁Afisi	-11.3466
Taarifa	-11.3467
▁VYAMA	-11.3467
ndoa	-11.3471
▁mnada	-11.3471
96	-11.3471
▁WANAUME	-11.3474
bahatika	-11.3474
dhaminiwa	-11.3478
▁Bao	-11.3478
▁wenzi	-11.3478
hujumu	-11.3478
▁Queen	-11.3479
▁Mbao	-11.3479
▁78	-11.3481
▁Ismail	-11.3482
▁Shar	-11.3484
▁Ikumbukwe	-11.3486
▁Sabato	-11.3486
▁kandanda	-11.3487
/2017	-11.3488
poteze	-11.3491
▁Huenda	-11.3495
▁mchujo	-11.3497
▁kiumbe	-11.3498
▁imefikia	-11.3499
Leo	-11.3501
juzi	-11.3502
lk	-11.3505
▁kimarekani	-11.3506
▁yataendelea	-11.3507
mwagi	-11.3508
▁waliamua	-11.351
▁ukamilifu	-11.351
gua	-11.3514
▁JINA	-11.3515
▁kofia	-11.3517
kandamiza	-11.3518
▁Japo	-11.3528
▁DVD	-11.3531
▁Shu	-11.3532
sikitika	-11.3534
▁Mc	-11.3534
haribiwa	-11.3538
▁inalenga	-11.3538
▁medani	-11.3538
▁250	-11.3538
tin	-11.3539
lalamikiwa	-11.3539
▁kufukuzwa	-11.3546
▁TANU	-11.3546
▁mpakani	-11.3547
▁Visiwani	-11.3549
mbwa	-11.355
▁angekuwa	-11.3551
▁yanayofanyika	-11.3552
▁Kisarawe	-11.3557
▁Pierre	-11.3557
▁Mavunde	-11.3562
▁Yussuf	-11.3562
▁kushawishi	-11.3562
▁kiwe	-11.3565
▁Ireland	-11.3566
▁Hatari	-11.3567
▁warembo	-11.357
navyoweza	-11.3571
▁Mbinguni	-11.3572
▁hatarishi	-11.3573
▁Apple	-11.3576
lipi	-11.3576
▁Ufunuo	-11.3576
▁Mill	-11.3578
Mwana	-11.3579
▁Arsene	-11.3583
▁CHAKULA	-11.3583
nyimwa	-11.3584
▁kutathmini	-11.3585
tengenezea	-11.3587
▁kuachiwa	-11.3588
▁Alexander	-11.3588
tuhumu	-11.3589
▁nyoyo	-11.3593
▁rika	-11.3595
▁mshtakiwa	-11.3596
▁Mus	-11.3603
▁kujikuta	-11.3604
MNH	-11.3604
▁nyeupe	-11.3605
▁sawasawa	-11.361
▁JAJI	-11.3613
▁Money	-11.3614
▁Pensheni	-11.3615
▁hawapo	-11.3621
valia	-11.3622
▁aende	-11.3622
▁kutwa	-11.3622
▁NANE	-11.3623
▁paka	-11.3623
wasihi	-11.3624
▁ilipata	-11.3626
▁Ngowi	-11.3626
▁71	-11.3627
gogo	-11.3629
▁wanashindwa	-11.3629
chungu	-11.3634
▁YALE	-11.3634
gar	-11.3635
MAOMBI	-11.3635
jili	-11.3636
▁NYUMA	-11.3636
▁kuvuruga	-11.3636
▁kiingereza	-11.3638
vya	-11.3638
▁nauli	-11.3639
form	-11.3641
out	-11.3642
▁tunafanya	-11.3643
▁Gereza	-11.3646
tupia	-11.3646
▁Story	-11.365
▁Mufindi	-11.365
nyonga	-11.365
tishwa	-11.3652
kumbatia	-11.3652
pokewa	-11.3654
michezo	-11.3655
▁THAMANI	-11.3655
▁upana	-11.3655
▁maajabu	-11.3659
INGIA	-11.3662
katisha	-11.3663
▁AP	-11.3666
▁majuzi	-11.3668
▁Thamani	-11.3668
▁lu	-11.3669
▁hupata	-11.3669
▁kisaikolojia	-11.3669
sis	-11.3671
▁mavuno	-11.3672
FF	-11.3675
juma	-11.3675
▁mizizi	-11.3677
▁Jamal	-11.3679
51	-11.3679
▁zinazoweza	-11.3681
Ro	-11.3684
▁vidole	-11.3684
▁62	-11.3685
▁amemtaka	-11.3685
▁zinazofaa	-11.369
▁63	-11.3693
▁Mdogo	-11.3693
▁kimekuwa	-11.3694
▁Ah	-11.3697
▁5,000	-11.3699
▁Ukombozi	-11.3701
▁kud	-11.3702
▁WIMBO	-11.3706
▁yanayoweza	-11.3707
wakilishwa	-11.3707
▁HILI	-11.3709
▁Pale	-11.3712
▁umesema	-11.3713
▁kurusha	-11.3718
▁Jitihada	-11.3718
▁mifupa	-11.372
▁kuchoma	-11.3721
▁Kumbe	-11.3724
wasiliane	-11.3727
▁KURA	-11.3728
▁itafanya	-11.3729
▁limetoa	-11.3729
▁Leonard	-11.373
▁kushambulia	-11.3731
val	-11.3732
bet	-11.3734
▁kiarabu	-11.3735
▁(8)	-11.3736
▁kavu	-11.3741
ndugu	-11.3743
▁one	-11.3744
ondosha	-11.3745
▁Uteuzi	-11.3747
kwambia	-11.3749
wahakikishia	-11.375
▁kumvutia	-11.3754
▁mraba	-11.3754
▁Isa	-11.3755
▁TAHAR	-11.3755
▁watafanya	-11.3757
▁Naam	-11.3758
▁Same	-11.3759
................	-11.376
hatarisha	-11.376
tanzania	-11.3761
▁Saint	-11.3762
▁700	-11.377
dhihiri	-11.3771
▁KUIBUA	-11.3771
▁SEPETU	-11.3771
py	-11.3772
▁msongo	-11.3774
▁limetokea	-11.3776
▁Chali	-11.3777
▁mabo	-11.3779
ondolea	-11.378
▁KINGINE	-11.3781
▁kuingizwa	-11.3782
▁Wanajeshi	-11.3782
ZEC	-11.3782
▁aliomba	-11.3782
▁Makini	-11.3785
mudu	-11.3786
▁makusanyo	-11.3786
▁ULAYA	-11.3788
▁USI	-11.379
▁kufikiwa	-11.3791
▁balaa	-11.3795
umbu	-11.3801
▁Usafirishaji	-11.3801
▁MABINGWA	-11.3803
▁Iliyo	-11.3804
WEKA	-11.3805
▁Poland	-11.3805
▁kutupwa	-11.3805
pongezwa	-11.3806
▁kuwaletea	-11.381
▁alishindwa	-11.381
▁MAARIFA	-11.381
ponya	-11.3811
▁kinavyoonekana	-11.3813
▁vifungu	-11.3814
toza	-11.3815
▁daladala	-11.3815
▁uchawi	-11.3815
samba	-11.382
▁mseto	-11.382
▁pata	-11.3821
▁WASABABISHA	-11.3821
▁unaye	-11.3822
▁NDIVYO	-11.3823
rity	-11.3823
itoa	-11.3824
▁Akasema	-11.383
-4	-11.3832
Ina	-11.3832
linganisha	-11.3834
wape	-11.3835
▁propaganda	-11.3835
▁Akili	-11.3836
shwi	-11.3836
rge	-11.3836
▁SABABU	-11.3836
▁ukizingatia	-11.3837
▁WEI	-11.3837
▁kumkamata	-11.3837
▁mwanae	-11.3837
▁Msichana	-11.384
tema	-11.384
▁kukopa	-11.3843
▁imeweza	-11.3843
jumuika	-11.3847
▁Prisons	-11.3847
IDI	-11.3848
▁Chake	-11.385
▁Road	-11.3853
▁Coca	-11.3853
▁Pop	-11.3855
https	-11.3855
▁akawaambia	-11.3855
tengua	-11.3858
▁kushindana	-11.3858
▁talaka	-11.3859
▁kiakili	-11.3862
▁Hisani	-11.3863
FIKA	-11.3865
▁mandhari	-11.3869
▁Ecke	-11.387
▁kuthamini	-11.3871
▁kivuli	-11.3874
▁kufufua	-11.3876
▁SEBULENI	-11.3877
▁Heshima	-11.3877
▁amehukumiwa	-11.3884
▁kumtafuta	-11.3891
▁Sumaye	-11.3891
▁utii	-11.3894
▁kitongoji	-11.3894
▁imejipanga	-11.3895
AMZIKA	-11.3896
▁Kam	-11.3897
▁makaa	-11.3898
RIS	-11.3901
64	-11.3901
▁KUTUNZA	-11.3911
▁msako	-11.3911
kusaidia	-11.3912
▁tunaendelea	-11.3912
▁MKIA	-11.3913
ponda	-11.3915
▁nitakuwa	-11.3917
▁Eid	-11.3918
▁tattoo	-11.3919
▁mbaroni	-11.3919
lieleza	-11.3921
▁STARS	-11.3921
▁hitilafu	-11.3921
▁AJERUHI	-11.3922
here	-11.3924
▁ikiendelea	-11.3925
ghe	-11.3928
▁Bikira	-11.3929
▁USAJILI	-11.393
▁kumkaribisha	-11.393
kaza	-11.3931
▁kuhitimu	-11.3932
▁Nusu	-11.3933
▁wamefanikiwa	-11.3933
▁kubainisha	-11.3936
▁Xi	-11.3941
▁aliyoitoa	-11.3943
zitaja	-11.3948
▁alikufa	-11.395
▁Shumila	-11.3951
▁61	-11.3952
mpo	-11.3954
▁AUA	-11.3954
rate	-11.3955
▁Eckernforde	-11.3956
▁kumradhi	-11.3958
▁chembe	-11.3962
▁Salva	-11.3965
watakia	-11.3966
haya	-11.3968
▁AGREY	-11.3968
▁XIAO	-11.3968
kusogezea	-11.3971
▁BASI	-11.3971
▁kujituma	-11.3971
▁Majaji	-11.3971
▁Tito	-11.3972
▁And	-11.3973
▁BIBLIA	-11.3976
▁vitendea	-11.3978
▁Hindi	-11.3979
nny	-11.398
▁HOFU	-11.3981
▁kutii	-11.3982
▁Play	-11.3983
▁HUO	-11.3985
▁Kitendo	-11.3986
▁DINI	-11.3988
▁JAMAA	-11.3988
▁Thelathini	-11.3988
▁umebaini	-11.3989
▁kumuomba	-11.399
▁Gaddafi	-11.3991
▁SHI	-11.3991
▁kuabudu	-11.3995
▁waliouawa	-11.3996
▁Fund	-11.3997
MIA	-11.3999
komaa	-11.4002
▁kuiwezesha	-11.4004
ELI	-11.4005
pha	-11.4007
▁NDIYO	-11.4008
▁KAGERA	-11.4013
IKO	-11.4013
▁boti	-11.4014
▁kuhatarisha	-11.4014
▁Boniface	-11.4015
▁Mchango	-11.4016
shtaki	-11.4016
▁Machapisho	-11.4018
lya	-11.4022
▁Utambulisho	-11.4028
▁mishipa	-11.4028
▁SONGWE	-11.403
play	-11.4031
laumiwa	-11.4035
▁ukoloni	-11.4039
pot	-11.404
▁kuogopa	-11.4044
▁BILIONI	-11.4045
▁Raha	-11.4047
▁kitalii	-11.4047
tupatia	-11.4047
▁Saudia	-11.4049
ungua	-11.405
▁Utaratibu	-11.4051
▁ILA	-11.4055
▁jasho	-11.4055
▁69	-11.4057
▁ukarimu	-11.4058
▁By	-11.4058
▁MOROGORO	-11.406
▁waziwazi	-11.4063
!"	-11.4064
▁utayari	-11.4065
▁RUFAA	-11.4066
▁penalti	-11.4066
▁walicho	-11.4068
pen	-11.4068
rian	-11.407
▁Sand	-11.4071
somesha	-11.4072
▁umetolewa	-11.4072
duma	-11.4072
▁Mahali	-11.4074
onyeshe	-11.4077
▁bodaboda	-11.4083
▁msalaba	-11.4086
mishe	-11.4086
▁TCRA	-11.4086
▁Marathon	-11.4086
▁KATA	-11.4088
▁kurekodi	-11.4088
mchukua	-11.4089
▁kuhisi	-11.4089
nju	-11.4089
▁peponi	-11.409
EE	-11.4091
▁Kilombero	-11.4096
▁SMZ	-11.4098
▁Nami	-11.4098
Ili	-11.4099
▁NDUGU	-11.4101
era	-11.4101
▁kuwapeleka	-11.4102
kao	-11.4103
kwenye	-11.4106
▁makada	-11.4106
▁Mwam	-11.4107
▁Kimsingi	-11.4108
▁akitangaza	-11.411
chimba	-11.4111
cus	-11.4111
karabati	-11.4114
▁jaji	-11.4115
▁ameandika	-11.4115
▁KLABU	-11.4116
▁vinaweza	-11.4119
▁kuwafundisha	-11.4122
nasa	-11.4123
▁Dira	-11.4123
▁BASATA	-11.4124
▁Ahadi	-11.4128
▁ujanja	-11.413
▁kusimamisha	-11.4136
▁wakitaka	-11.4138
▁kuwalipa	-11.4138
▁ubia	-11.414
▁EPA	-11.414
▁zinazohusu	-11.414
Se	-11.4141
▁Trans	-11.4143
▁Hisa	-11.4144
▁Han	-11.4144
▁0755	-11.4145
▁waliofariki	-11.4145
▁Gha	-11.4146
achane	-11.4149
▁unaofanyika	-11.415
kundi	-11.4151
tukuza	-11.4151
▁Stand	-11.4154
FO	-11.4154
▁mwenge	-11.4156
▁HE	-11.4157
▁UTUMISHI	-11.4159
▁Yosefu	-11.4159
tazamiwa	-11.4159
▁MANENO	-11.4161
▁Uendeshaji	-11.4161
liza	-11.4162
okozi	-11.4162
▁kupendekeza	-11.4165
▁alizungumza	-11.4167
▁Ubora	-11.4168
▁Kumekuwa	-11.417
▁doria	-11.417
▁vazi	-11.417
▁yakinifu	-11.4171
▁ZETU	-11.4171
▁000	-11.4172
▁unapata	-11.4173
shie	-11.4173
▁Dan	-11.4173
▁wamepoteza	-11.4174
▁anatu	-11.4176
CHANGIA	-11.4179
EM	-11.4181
▁JULAI	-11.4182
mbwi	-11.4182
▁Kisasa	-11.4183
▁sioni	-11.4186
▁Gwajima	-11.4187
▁HESHIMA	-11.4187
nyonya	-11.419
▁Yaliyo	-11.4192
▁haito	-11.4194
▁	-11.4195
85	-11.4197
chambua	-11.4197
▁Kawambwa	-11.4197
▁akitaka	-11.4198
▁Mate	-11.4199
▁utatuzi	-11.4199
▁Can	-11.4201
▁kujiridhisha	-11.4203
ero	-11.4204
▁kuwapongeza	-11.4205
▁VIP	-11.4207
▁BINADAMU	-11.4207
▁Yahya	-11.4212
▁imefanyika	-11.4213
Fi	-11.4214
jipatia	-11.4215
▁Liberia	-11.4217
▁Tar	-11.422
ugh	-11.4221
▁mkandarasi	-11.4222
▁Ndugulile	-11.4222
▁Mwenza	-11.4223
▁Henry	-11.4225
vuruga	-11.4225
▁umahiri	-11.4225
▁weusi	-11.4229
▁arobaini	-11.423
takua	-11.4231
▁Msama	-11.4231
▁lililotokea	-11.4232
▁KULI	-11.4232
▁alizi	-11.4237
▁Nilikuwa	-11.4238
julikani	-11.4238
▁alikua	-11.424
endelezwa	-11.4242
▁HIV	-11.4243
▁Saidi	-11.4244
yah	-11.4244
▁alijiunga	-11.4246
▁shahidi	-11.4247
▁kugonga	-11.4248
br	-11.4248
▁KINONDONI	-11.425
▁Mapendekezo	-11.425
▁Alieleza	-11.4251
▁kujikinga	-11.4251
▁kushangilia	-11.4253
taifa	-11.4254
▁Forum	-11.4254
jiona	-11.4255
▁zito	-11.4255
ship	-11.4256
AGA	-11.4257
▁kwahiyo	-11.4258
▁Oysterbay	-11.4258
▁Oct	-11.4259
▁Mariam	-11.4259
▁kioo	-11.426
uf	-11.4261
huku	-11.4262
▁sijawahi	-11.4265
tazame	-11.4265
▁USHIRIKIANO	-11.4266
▁huanza	-11.4266
92	-11.4266
ahirishwa	-11.4268
cess	-11.4269
▁SAYANSI	-11.4269
▁Lionel	-11.4271
▁riadha	-11.4273
▁Pangani	-11.4273
▁Beki	-11.4274
▁akiwahutubia	-11.4274
▁kuhesabu	-11.4279
▁Poleni	-11.4279
▁Mon	-11.4279
▁JU	-11.4281
▁dha	-11.4282
med	-11.4284
▁NANI	-11.4289
▁Rahisi	-11.4289
TUMIA	-11.4289
▁wabunifu	-11.4294
▁dansi	-11.4295
tupwa	-11.4295
ruki	-11.4296
kijua	-11.4296
▁makaazi	-11.4298
▁kuyafanya	-11.43
▁kujiweka	-11.4301
▁kansa	-11.4306
▁uhasama	-11.4307
▁Maafa	-11.4307
▁ameshinda	-11.431
▁Kaba	-11.4312
LY	-11.4313
omboleza	-11.4314
▁Gabon	-11.4315
▁Magazetini	-11.4316
▁Times	-11.4316
74	-11.4317
babu	-11.4317
▁nafaka	-11.4317
▁<	-11.4319
▁KUNA	-11.4325
mchagua	-11.4325
▁ameshindwa	-11.4328
ndwe	-11.4328
ian	-11.433
▁KUPATWA	-11.4332
▁Fatma	-11.4332
▁amezungumza	-11.4333
tofautisha	-11.4333
▁Pamba	-11.4333
▁Mti	-11.4333
▁Haule	-11.4336
Islam	-11.4337
▁wakisikiliza	-11.4339
▁ulioko	-11.4344
▁Kap	-11.4344
lisema	-11.4349
kwanza	-11.435
Bwana	-11.4352
▁kiburi	-11.4354
▁kurithi	-11.4355
gala	-11.4358
angaliwa	-11.4358
▁MTENDAJI	-11.4358
▁Zahanati	-11.4363
gere	-11.4365
▁iitwayo	-11.4369
Co	-11.4373
▁ASILI	-11.4376
itishwa	-11.4376
▁akimpongeza	-11.4381
▁Toleo	-11.4383
▁noti	-11.4384
▁kuungwa	-11.4386
▁Mazoezi	-11.4387
Be	-11.4388
dhaniwa	-11.4391
siasa	-11.4394
▁86	-11.4394
patikani	-11.4394
▁majukwaa	-11.4394
ijua	-11.4395
▁Uwezeshaji	-11.4397
▁Port	-11.4398
▁haukuwa	-11.4399
▁Malaysia	-11.44
▁waombolezaji	-11.44
▁kuchambua	-11.44
▁Moscow	-11.4402
▁mwigizaji	-11.4405
▁wenyeviti	-11.4405
ters	-11.4412
bonyeza	-11.4412
▁Mabasi	-11.4414
▁Mollel	-11.4415
▁tar	-11.4416
shea	-11.4419
TAWA	-11.4419
onekani	-11.4419
▁amekiri	-11.4421
▁Kilicho	-11.4421
▁kibaya	-11.4422
▁kuitisha	-11.4422
▁mistari	-11.4423
▁Maelfu	-11.4426
▁2022	-11.4426
lip	-11.4429
▁Mkristo	-11.4431
▁tunapenda	-11.4433
▁Magomeni	-11.4433
▁Dakika	-11.4433
▁mad	-11.4438
kera	-11.4438
▁NENO	-11.4439
FARIKI	-11.4439
---	-11.444
▁kujiandikisha	-11.4441
▁Makanisa	-11.4442
lazimishwa	-11.4445
▁akifurahia	-11.4445
led	-11.4446
▁Serena	-11.4446
▁Wang	-11.4448
▁Kebwe	-11.445
ibia	-11.4451
▁Polepole	-11.4454
▁Champions	-11.4457
▁Mfanyabiashara	-11.4457
▁tuendelee	-11.4459
▁kubahatisha	-11.4459
▁Aga	-11.446
▁akishiriki	-11.446
mat	-11.4466
▁ikitokea	-11.4466
▁KUFUATIA	-11.4467
▁Kibaki	-11.447
▁Mwadui	-11.4473
▁KILICHOPO	-11.4473
-0	-11.4473
punguzwa	-11.4474
badilishwa	-11.4475
▁DAMU	-11.4477
▁Kesho	-11.4481
jiamini	-11.4482
▁Daily	-11.4483
▁Ger	-11.4486
▁Kiislam	-11.4487
cker	-11.4489
▁wakiwamo	-11.4493
wikipedia	-11.4494
filisi	-11.4495
▁95	-11.4495
DewjiBlogNews	-11.4496
▁Botswana	-11.4496
▁MAPINDUZI	-11.4496
▁UNICEF	-11.4497
▁1996	-11.4504
▁kupimwa	-11.4506
▁Dogo	-11.4506
▁KULEVYA	-11.4507
CHEZWA	-11.4507
▁Unapaswa	-11.4508
▁ANC	-11.4511
▁IT	-11.4511
▁kuwachukulia	-11.4514
▁Bunda	-11.4517
▁ugawaji	-11.4517
81	-11.4518
back	-11.4519
▁KIBA	-11.4519
▁Brussels	-11.452
▁hayupo	-11.452
▁niweze	-11.4521
▁kwingineko	-11.4524
▁upandaji	-11.4525
▁NYUMBANI	-11.4526
▁Uzima	-11.4527
▁ameongoza	-11.4527
▁Jordan	-11.4528
mtu	-11.4533
taarifu	-11.4533
▁KUJIPIG	-11.4534
▁Ver	-11.4535
▁vitongoji	-11.4535
▁wepesi	-11.4535
▁daftari	-11.4538
▁AINA	-11.4539
MWANZO	-11.4541
▁Aziz	-11.4542
▁Marais	-11.4543
▁Lumumba	-11.4543
▁wanapokuwa	-11.4546
▁ukiendelea	-11.4546
zingira	-11.4547
chunguzwa	-11.4548
▁Kifaransa	-11.4549
▁Biteko	-11.4549
▁yanayohusiana	-11.4549
67	-11.4551
▁MSHINDI	-11.4551
▁zilizoko	-11.4553
▁Muumba	-11.4553
hofia	-11.4555
▁lenyewe	-11.4559
dadisi	-11.4559
▁20,000	-11.4561
▁MTAZAMO	-11.4562
▁wakisubiri	-11.4563
ibiwa	-11.4564
▁JUKWAA	-11.4567
▁chipukizi	-11.4567
table	-11.457
▁MOSHI	-11.4573
▁Masoud	-11.4575
▁mika	-11.4575
▁TENDO	-11.4578
adhiri	-11.4585
▁Abdalla	-11.4587
rehemu	-11.4588
▁kufundishia	-11.4588
gwe	-11.4588
▁kujitenga	-11.459
najua	-11.459
▁kujiajiri	-11.459
ddy	-11.4591
ram	-11.4592
▁Wamarekani	-11.4594
▁NBC	-11.4595
▁jangwa	-11.4597
▁Kompyuta	-11.4599
▁Sawa	-11.46
▁matu	-11.4602
▁amelazwa	-11.4603
nyanyasa	-11.4606
▁Ok	-11.4606
▁Asubuhi	-11.4607
▁Amaan	-11.4607
▁wanaonekana	-11.4609
▁Tim	-11.461
89	-11.461
▁sanamu	-11.4616
▁Nov	-11.4616
JKCI	-11.4618
zingatie	-11.4618
▁Malunde	-11.4623
▁zinapo	-11.4624
uwezo	-11.4626
▁Hamas	-11.4627
▁kambini	-11.4629
▁kujadiliwa	-11.463
chuma	-11.463
▁JUMANNE	-11.4631
▁lisi	-11.4632
▁Nae	-11.4635
Yohana	-11.4639
▁ukumbini	-11.464
▁shoo	-11.4641
Una	-11.4642
▁Development	-11.4644
63	-11.4645
▁msemo	-11.4647
▁Ulimwenguni	-11.4648
62	-11.4657
ungi	-11.4657
for	-11.4659
▁euro	-11.466
NY	-11.4661
▁Ludewa	-11.4665
▁mar	-11.4666
mshauri	-11.4668
▁Masomo	-11.4668
▁WAPYA	-11.467
▁Mb	-11.4671
▁kisima	-11.4676
▁kibenki	-11.4676
▁shukurani	-11.4678
tupilia	-11.4679
▁Il	-11.468
▁mwanangu	-11.468
▁KWENDA	-11.4681
▁kugharamia	-11.4682
:18	-11.4682
zusha	-11.4683
▁utaendelea	-11.4687
▁waalimu	-11.4688
lema	-11.4692
95	-11.4692
▁WAZAZI	-11.4692
–	-11.4692
▁agano	-11.4692
ute	-11.4694
▁Kiti	-11.4696
▁kuharibika	-11.4699
igiza	-11.4701
winda	-11.4701
▁Dowans	-11.4708
▁mashuleni	-11.4708
▁Beijing	-11.4708
▁77	-11.4709
▁kuzinduliwa	-11.4712
▁Seneta	-11.4713
lus	-11.4713
▁kukarabati	-11.4716
▁Christ	-11.4717
▁kuvamia	-11.4719
bal	-11.4725
chukuwa	-11.4726
kalia	-11.4726
▁Gold	-11.4728
ichezea	-11.4728
▁mipya	-11.4728
▁WAFANYA	-11.4728
▁kuvuna	-11.4732
Com	-11.4734
▁Okwi	-11.4734
ov	-11.4734
▁Kujiunga	-11.4736
▁Deo	-11.4737
▁Mahakamani	-11.4739
▁Jecha	-11.4741
wakilishi	-11.4742
▁Win	-11.4743
UGU	-11.4743
▁UCHUMI	-11.4745
llen	-11.4746
▁‘’	-11.4746
dhamiria	-11.4747
kunywa	-11.4747
▁uendelezaji	-11.4748
bari	-11.4749
:6	-11.475
▁Usomaji	-11.4751
▁ikizingatiwa	-11.4751
rr	-11.4752
▁yanahitaji	-11.4754
TOKA	-11.4755
shirikishwa	-11.4756
▁unaonekana	-11.4756
nataka	-11.4758
hati	-11.476
▁vinara	-11.4766
▁Simulizi	-11.4766
▁laana	-11.4768
▁Kufanikiwa	-11.477
▁Posted	-11.4771
▁Elias	-11.4775
▁UINGEREZA	-11.4775
:9	-11.4778
▁Johnson	-11.478
▁masilahi	-11.4786
▁Somo	-11.4789
▁panya	-11.4792
▁tata	-11.4792
▁Hans	-11.4796
ward	-11.48
dro	-11.4802
▁Nzuri	-11.4803
▁ualimu	-11.4805
▁1961	-11.4806
▁Ee	-11.481
▁matembezi	-11.4813
▁inasaidia	-11.4815
▁:)	-11.4816
AMINI	-11.4816
▁shimo	-11.4816
▁Jerusalem	-11.4818
▁Uokoaji	-11.4818
jibiwa	-11.4821
▁Utoaji	-11.4821
▁thelathini	-11.4823
▁NHC	-11.4826
▁tumeona	-11.4826
▁kuwahamasisha	-11.4828
heri	-11.4828
thibitika	-11.4828
Mkuu	-11.483
▁Don	-11.4832
▁haijawahi	-11.4833
CB	-11.4838
▁kuthibitishwa	-11.4838
▁MVUA	-11.4838
kwi	-11.4841
▁MAZISHI	-11.4842
▁futari	-11.4843
yajua	-11.4845
▁Albert	-11.4845
Tuli	-11.4846
▁muweze	-11.4847
▁Ernest	-11.4848
▁tuone	-11.4849
▁Red	-11.4849
▁Madhara	-11.485
▁ofisa	-11.4851
▁with	-11.4851
▁uvumi	-11.4854
▁kikombe	-11.4855
fululizo	-11.4855
▁(9)	-11.4855
▁virutubisho	-11.4856
▁Waisraeli	-11.4856
tibiwa	-11.4856
▁isiwe	-11.4856
▁Kike	-11.4857
▁kitita	-11.4857
yuni	-11.4858
▁Sele	-11.4862
▁mwizi	-11.4862
▁Alipokuwa	-11.4863
susi	-11.4864
▁mwe	-11.4866
Sera	-11.4867
▁Shukuru	-11.487
▁Ele	-11.487
ONGE	-11.4871
▁Chande	-11.4872
▁hakutaka	-11.4872
▁ilianzishwa	-11.4874
mkabili	-11.4874
▁ilifanya	-11.4875
▁muigizaji	-11.4878
▁Akijibu	-11.4878
▁waimbaji	-11.4879
▁aendelee	-11.4886
kosekana	-11.4889
▁mapitio	-11.4889
JKT	-11.4889
/2018	-11.4891
▁Makamo	-11.4892
PEWA	-11.4893
▁Vo	-11.4897
halisi	-11.4898
▁Macho	-11.4899
▁73	-11.49
▁Sal	-11.49
▁iliyoanzishwa	-11.4905
sindikiza	-11.4906
rry	-11.4906
yn	-11.4906
▁penati	-11.491
▁Kabisa	-11.491
▁UTEKELEZAJI	-11.4913
▁AC	-11.4913
▁utaanza	-11.4914
▁SOKA	-11.4915
kithiri	-11.4915
▁muendelezo	-11.4916
▁kivutio	-11.4916
▁unabii	-11.4916
kuwemo	-11.4918
▁1997	-11.4919
▁udaku	-11.4919
salimu	-11.492
chungaji	-11.4921
▁kinyama	-11.4922
▁kikabila	-11.4922
▁machafu	-11.4922
swali	-11.4924
ANO	-11.4924
▁MITANDAO	-11.4924
Basi	-11.4924
▁hazita	-11.4927
▁Amin	-11.4928
ENE	-11.4929
▁amepokea	-11.4932
▁Complex	-11.4935
jenzi	-11.4939
▁kupakua	-11.4945
▁kuajiriwa	-11.4945
▁Karimjee	-11.4946
azimia	-11.4946
KAMERA	-11.4947
carousel	-11.4949
adam	-11.4949
SHINDA	-11.495
▁Loliondo	-11.4951
▁PLATNUMZ	-11.4954
▁Kuku	-11.4956
▁hujui	-11.4957
▁UKWELI	-11.4957
▁ujazo	-11.4957
▁GARI	-11.496
▁kitanda	-11.4962
▁kivinjari	-11.4962
▁MBOWE	-11.4962
▁ALIYEKUWA	-11.4963
ENI	-11.4963
imani	-11.4965
▁MASHINDANO	-11.4965
▁Mikocheni	-11.4965
▁imeeleza	-11.4966
â	-11.4968
▁Vitambulisho	-11.4968
▁vuguvugu	-11.4968
▁akaenda	-11.4972
▁iliyotokea	-11.4975
▁Godbless	-11.4976
▁kubakia	-11.4976
▁tz	-11.4977
▁waliohitimu	-11.498
▁ghali	-11.4983
▁uanzishwaji	-11.4984
MS	-11.4986
▁vitanda	-11.4987
▁TBL	-11.4988
▁moshi	-11.499
▁Mathias	-11.499
▁unatokana	-11.4993
can	-11.4997
78	-11.4998
▁Tathmini	-11.5001
▁simulizi	-11.5003
ENDA	-11.5004
▁kushusha	-11.5004
pige	-11.5005
▁Song	-11.5006
▁raslimali	-11.5006
▁CD	-11.5007
▁Kwetu	-11.5007
undi	-11.5008
▁kumpokea	-11.501
▁Jinai	-11.5012
▁Fulani	-11.5018
-19	-11.5019
rey	-11.5024
:19	-11.5025
▁KUZI	-11.5028
▁DARAJA	-11.5029
mpatia	-11.503
▁un	-11.503
dhoofisha	-11.5031
▁Top	-11.5033
laza	-11.5033
▁uzushi	-11.5034
Po	-11.5034
▁Mpiga	-11.5036
dar	-11.5036
rati	-11.5036
ahirisha	-11.5039
&#8230;	-11.504
▁aliona	-11.504
▁mezani	-11.5041
▁UGONJWA	-11.5042
pona	-11.5044
▁Malipo	-11.5046
▁Nyama	-11.5047
▁lori	-11.5052
▁Waraka	-11.5052
▁50,000	-11.5055
▁Shukrani	-11.5056
▁amepewa	-11.5057
▁itakavyo	-11.5057
wapili	-11.5058
▁op	-11.5059
▁(6)	-11.5061
dari	-11.5066
▁MITEGO	-11.5067
▁kuridhisha	-11.507
▁INJILI	-11.5073
▁IPTL	-11.5076
onja	-11.5077
▁inatambua	-11.508
takacho	-11.5083
▁itafanyika	-11.5084
pamoja	-11.5085
▁inaanza	-11.5087
shindwe	-11.5089
pakana	-11.5091
▁MFUMO	-11.5092
▁ameitaka	-11.5094
,500	-11.5094
▁angeweza	-11.5098
kome	-11.5098
▁Antonio	-11.5098
▁KASSIM	-11.5098
▁VETA	-11.5098
▁mizuri	-11.5098
▁Maulid	-11.5099
kamilifu	-11.5101
▁Kasulu	-11.5102
pitwa	-11.5106
▁Guardiola	-11.5109
▁alikataa	-11.5112
punguzia	-11.5113
▁Mis	-11.5114
▁Dortmund	-11.5117
▁lilivyo	-11.5118
▁mkasa	-11.512
▁malazi	-11.5121
stahiki	-11.5121
▁nilio	-11.5122
fyatua	-11.5125
orodheshwa	-11.5126
▁mafupi	-11.5126
kono	-11.5128
▁vikiwemo	-11.5128
▁sayari	-11.5128
funzi	-11.513
▁wenzako	-11.5132
UZU	-11.5133
▁vimekuwa	-11.5134
▁Power	-11.5134
2009	-11.5136
▁Pogba	-11.5137
▁gumu	-11.5137
▁kuwaelimisha	-11.5137
▁wanatoka	-11.5138
▁weka	-11.5138
▁Ivan	-11.5139
▁Leicester	-11.514
able	-11.5145
▁mahsusi	-11.5145
▁wanafamilia	-11.5145
▁Nasi	-11.5146
▁TENA	-11.5148
Te	-11.5149
▁Kangi	-11.515
▁Kigali	-11.5151
DRC	-11.5151
▁Dua	-11.5156
▁kipindupindu	-11.5156
▁fasihi	-11.5157
▁Jean	-11.5158
▁alivyokuwa	-11.5158
wahusu	-11.5161
▁Louis	-11.5162
▁hayawezi	-11.5162
▁aliyepo	-11.5163
▁machi	-11.5164
▁kuisha	-11.5164
▁<3	-11.5166
▁alichukua	-11.5167
▁Alliance	-11.517
andalia	-11.5172
▁Mikataba	-11.5173
▁SEMINA	-11.5173
▁Skuli	-11.5173
mpigia	-11.5177
▁Lady	-11.5177
cky	-11.518
ombo	-11.5181
▁mie	-11.5181
▁pema	-11.5183
▁Kada	-11.5184
▁Kirumba	-11.5184
▁kuandamana	-11.5185
▁Waislam	-11.5185
▁Babati	-11.5185
▁haitoshi	-11.519
▁TATIZO	-11.519
▁club	-11.519
▁yanafanyika	-11.5192
▁KUKAMILISHA	-11.5193
▁kidole	-11.5193
▁Brown	-11.5196
▁kujiingiza	-11.5198
▁2025	-11.5202
▁Telegram	-11.5204
▁yameanza	-11.5204
COM	-11.5207
▁Mongella	-11.521
zza	-11.5211
▁ijumaa	-11.5213
ves	-11.5213
MALIZA	-11.5215
▁ataweza	-11.5222
▁KAMBI	-11.5222
▁Val	-11.5223
▁mosi	-11.5223
zea	-11.5228
RUDI	-11.523
▁alithibitisha	-11.5231
likuja	-11.5233
end	-11.5235
▁Nyanda	-11.5236
▁Sanchez	-11.5237
sipokuwa	-11.5238
▁mipira	-11.5238
▁mwangu	-11.5245
▁Kimei	-11.5248
▁fahari	-11.5248
toroka	-11.5249
▁kutibiwa	-11.5251
▁RAHA	-11.5251
▁FURSA	-11.5252
▁Nd	-11.5253
▁kuiweka	-11.5254
▁waliopoteza	-11.5255
▁kuchapishwa	-11.5256
rejeshwa	-11.5258
▁Tshs	-11.5258
achie	-11.5258
▁Bel	-11.526
▁dhiki	-11.5264
AMBA	-11.5265
VER	-11.5267
funua	-11.5268
▁Gen	-11.5274
▁Wawili	-11.5275
▁anuani	-11.5277
▁wanaohitaji	-11.5278
▁Kisiwa	-11.5278
▁BoT	-11.5279
tofauti	-11.5279
▁Kip	-11.528
▁Siyo	-11.5282
▁kusajiliwa	-11.5283
▁WEWE	-11.5284
▁hakuweza	-11.5286
stawi	-11.5288
biri	-11.5289
SON	-11.5289
pigie	-11.529
▁vika	-11.529
▁njano	-11.5292
tunuku	-11.5292
utumia	-11.5294
▁safarini	-11.5297
waongoza	-11.5298
▁kulazwa	-11.5299
▁Ajabu	-11.53
▁Matamshi	-11.5303
▁Wanadamu	-11.5304
ongoze	-11.5306
▁JO	-11.5306
takwenda	-11.5307
▁kuitaka	-11.5309
jifanya	-11.5315
kuwezesha	-11.5315
▁ilikua	-11.5317
▁Inapatikana	-11.532
▁ULI	-11.5322
bashiri	-11.5323
gonjwa	-11.5323
MG	-11.5327
▁Mhadhiri	-11.5333
▁100%	-11.5335
▁walionekana	-11.5338
▁kuitangaza	-11.534
▁Tumia	-11.5343
▁wazalishaji	-11.5344
▁mapana	-11.5344
▁haitakuwa	-11.5345
▁MAY	-11.535
▁Thinkers	-11.5351
▁anasa	-11.5352
▁Pato	-11.5353
sal	-11.5353
86	-11.5353
▁dosari	-11.5355
▁ilhali	-11.5357
▁Kujifunza	-11.5358
▁76	-11.5361
▁Maganga	-11.5362
▁uchafuzi	-11.5364
NYO	-11.5371
▁Hip	-11.5371
▁mabaki	-11.5372
▁Mahia	-11.5373
▁Mrembo	-11.5374
▁Majukumu	-11.5376
teketea	-11.5377
▁Mtumishi	-11.5379
lipuka	-11.5379
▁Yohane	-11.538
▁ASKARI	-11.5383
▁Cairo	-11.5383
▁ulipaji	-11.5383
▁Uko	-11.5383
▁Dia	-11.5385
▁michoro	-11.5386
▁Kikapu	-11.5389
Dr	-11.539
▁Ridhiwani	-11.5394
▁Mifumo	-11.5394
▁mgao	-11.5394
▁Internet	-11.5395
▁kujikwamua	-11.5395
72	-11.5401
vumi	-11.5403
▁kuchomwa	-11.5404
UDOM	-11.5405
▁Mwanasiasa	-11.541
▁Denmark	-11.5414
▁analo	-11.5414
peperusha	-11.5416
▁ukali	-11.5417
▁Tanzanite	-11.5417
▁Mwangi	-11.542
▁fika	-11.5421
mruhusu	-11.5422
press	-11.5424
▁Library	-11.5426
▁Washindi	-11.5428
potosha	-11.5431
kisoma	-11.5431
▁haipo	-11.5431
:20	-11.5432
row	-11.5432
HAPA	-11.5433
TAFUTA	-11.5435
▁mkojo	-11.5435
▁Wanyama	-11.5437
▁Muigizaji	-11.5437
pya	-11.5437
▁wanasayansi	-11.544
▁all	-11.5442
▁TASAF	-11.5443
iweka	-11.5443
mbie	-11.5445
tty	-11.5447
▁ROHO	-11.5449
▁amefunga	-11.5454
amuliwa	-11.5454
▁mswada	-11.5455
mkumbuka	-11.5455
vuru	-11.5455
nyonyesha	-11.5457
▁kujulikana	-11.5457
nunu	-11.5457
▁wazawa	-11.5458
4,000	-11.5459
mpokea	-11.5461
milia	-11.5462
▁WANACHAMA	-11.5463
washauri	-11.5464
▁more	-11.5467
waletea	-11.5468
▁WAKAZI	-11.5469
fananisha	-11.547
▁kufua	-11.547
▁wanaohusika	-11.5471
zembe	-11.5471
tiliwa	-11.5473
▁harambee	-11.5475
▁kujitambulisha	-11.5475
▁Mage	-11.5475
▁akifunga	-11.5475
▁amefanikiwa	-11.5477
▁kujivunia	-11.5478
▁inaeleza	-11.548
▁read	-11.5483
CSEE	-11.5483
▁Wadhamini	-11.5486
bri	-11.5486
milioni	-11.5488
▁Chenge	-11.549
▁Embed	-11.5492
▁Mavazi	-11.5492
▁CHU	-11.5494
▁hutumiwa	-11.5494
moni	-11.5494
▁kuzikwa	-11.5496
▁Blue	-11.5496
undu	-11.5496
▁kutafsiri	-11.5497
▁Studio	-11.5498
▁HASSAN	-11.5501
▁Ukosefu	-11.5501
▁kinywaji	-11.5501
▁can	-11.5502
▁unafiki	-11.5502
▁Virusi	-11.5502
▁Kulikuwa	-11.5502
▁nimepata	-11.5502
▁utamu	-11.5503
▁anayetaka	-11.5503
▁WABUNGE	-11.5504
juwa	-11.5504
▁Bure	-11.5506
▁MOHAMED	-11.5507
▁udhalilishaji	-11.5509
▁tulizo	-11.5511
▁kitovu	-11.5512
▁Kichina	-11.5515
sindikizwa	-11.5518
▁zinazohusika	-11.5521
▁plastiki	-11.5521
ev	-11.5523
▁yanayofanywa	-11.5524
▁Mbatia	-11.5525
patikane	-11.5527
▁aliuawa	-11.5527
71	-11.5529
fra	-11.553
▁aliyezaliwa	-11.5531
▁Mwimbaji	-11.5533
▁Sengerema	-11.5536
▁MSIMU	-11.5536
▁Bal	-11.5536
▁Kiinjili	-11.5538
▁Mstahiki	-11.5539
▁zilipo	-11.554
▁TANGU	-11.5543
▁Busega	-11.5544
▁Kiserikali	-11.5548
▁uliye	-11.5548
tathmini	-11.5551
▁yanayotokana	-11.5552
▁mkate	-11.5552
▁hafifu	-11.5553
▁Bas	-11.5554
▁Kali	-11.5556
▁miungu	-11.5556
cra	-11.556
▁ZINAZO	-11.5562
▁kulazimisha	-11.5563
▁TAMKO	-11.5565
epusha	-11.5569
oe	-11.557
▁mlezi	-11.5571
▁kuhitaji	-11.5571
mkabidhi	-11.5571
chelewesha	-11.5574
let	-11.5575
▁kadhia	-11.5576
▁Muh	-11.5577
▁Kuongeza	-11.5578
▁walikutana	-11.5579
mic	-11.5579
▁YATANGAZA	-11.5579
▁mch	-11.558
▁kusafirishwa	-11.558
kizi	-11.5581
shiki	-11.5583
▁IE	-11.5584
▁Uncategori	-11.5585
▁pumzi	-11.5586
▁North	-11.5589
lation	-11.559
▁Sospeter	-11.5591
dhalimu	-11.5592
▁usaidizi	-11.5594
▁Costa	-11.5595
▁Wazi	-11.5595
cer	-11.5595
▁Anaweza	-11.5596
▁YEHOVA	-11.5597
1)	-11.5597
ville	-11.56
▁Josephat	-11.5601
▁akitumia	-11.5602
▁Trafford	-11.5603
chekesha	-11.5603
▁Ommy	-11.5604
dom	-11.5605
ü	-11.5606
▁UTAFITI	-11.5606
▁kupika	-11.561
▁sitaki	-11.5612
▁mafundi	-11.5614
▁Sonko	-11.5614
▁kimbari	-11.5614
▁Bomba	-11.5616
▁yanayotokea	-11.5616
▁Maua	-11.5617
▁pete	-11.5617
sumbu	-11.5617
▁Ndiye	-11.5621
▁mwanya	-11.5622
▁Omary	-11.5623
▁uti	-11.5623
▁Tur	-11.5624
Dk	-11.5626
▁Mabula	-11.5626
▁alibainisha	-11.5627
hisa	-11.5629
▁Coastal	-11.5629
▁fadhila	-11.5629
dumisha	-11.5633
lock	-11.5634
▁isiyokuwa	-11.564
dhihirika	-11.5641
▁Kivu	-11.5642
▁KESHO	-11.5644
▁Ackson	-11.5647
Kazi	-11.5648
▁Social	-11.5652
▁uone	-11.5656
▁mshiriki	-11.5658
▁Doto	-11.5659
LIKUWA	-11.566
ill	-11.5663
KUTANA	-11.5663
▁MUME	-11.5664
chuku	-11.5664
▁Wakizungumza	-11.5667
▁unyenyekevu	-11.5667
▁kuelekeza	-11.5668
patie	-11.567
▁mwamba	-11.567
▁wanane	-11.5671
▁anakabiliwa	-11.5672
chezesha	-11.5674
▁Akiba	-11.5675
Aunt	-11.5676
▁majonzi	-11.5676
DD	-11.5677
wiki	-11.5677
▁SPIKA	-11.5679
▁Adhabu	-11.5679
▁ukimya	-11.5681
▁udini	-11.5681
▁mnao	-11.5683
▁vivyo	-11.5683
▁2018/19	-11.5685
▁ufanyike	-11.5688
kiwemo	-11.5689
gre	-11.5689
▁anadai	-11.5691
▁Center	-11.5691
sikilizwa	-11.5692
wahimiza	-11.5693
tano	-11.5693
▁SHIRIKISHO	-11.5694
▁wanaopenda	-11.5695
▁SMS	-11.5699
▁penzi	-11.57
▁kutishia	-11.5701
▁inayoongoza	-11.5701
▁SAFARI	-11.5703
▁Vietnam	-11.5703
▁Masasi	-11.5704
▁Ilemela	-11.5706
▁1984	-11.5706
▁Isaac	-11.5707
▁askofu	-11.5708
zanzibar	-11.5708
pwe	-11.5711
▁Edwin	-11.5712
▁mwitu	-11.5712
▁zimeanza	-11.5716
▁kuchezea	-11.5718
media	-11.5719
kamili	-11.5719
ajabu	-11.572
▁Wapiga	-11.5721
▁Juhudi	-11.5721
▁Nor	-11.5722
▁kukubalika	-11.5723
▁JUNE	-11.5724
▁uume	-11.5725
FUATA	-11.5726
▁anapokuwa	-11.5727
ULU	-11.5729
▁kupigiwa	-11.5731
▁Ametoa	-11.5735
▁UCHAMBUZI	-11.5735
▁masha	-11.5737
▁Muundo	-11.5737
endayo	-11.5738
▁1500	-11.5741
rehe	-11.5743
▁kikanda	-11.5746
dokeza	-11.5746
▁Getty	-11.5747
▁style	-11.5748
tokee	-11.5749
▁game	-11.5751
▁Ulimboka	-11.5753
▁viwandani	-11.5756
bebwa	-11.5757
▁South	-11.5759
SHAJI	-11.5759
tage	-11.5761
▁Gerald	-11.5765
▁MIRADI	-11.5765
▁Mbwa	-11.5766
▁kuhusishwa	-11.5767
▁inachukua	-11.5767
▁mbu	-11.5768
00/=	-11.5768
▁kusukuma	-11.5769
iwakilisha	-11.5769
▁Rai	-11.577
▁Lucas	-11.5771
▁kupandisha	-11.5774
	-11.5774
▁hitaji	-11.5775
▁mgawo	-11.5777
▁HAWANA	-11.5777
▁wamepewa	-11.5778
juwe	-11.5779
▁Maamuzi	-11.578
▁Luteni	-11.5783
▁iliyowekwa	-11.5787
▁Vu	-11.5788
▁inaongoza	-11.5789
▁zilianza	-11.579
bala	-11.5791
funza	-11.5791
▁Vikosi	-11.5792
▁kuporomoka	-11.5794
guru	-11.5794
tinga	-11.5798
▁wamekamatwa	-11.58
▁MKAPA	-11.5801
▁Forodha	-11.5801
.04.2018	-11.5804
▁Kafulila	-11.5804
▁Kuingia	-11.5808
▁Aboud	-11.581
muua	-11.5813
▁Janja	-11.5814
▁Nassor	-11.5814
mwacha	-11.5814
LEA	-11.5817
▁karama	-11.5818
▁Dimpoz	-11.5818
Mtu	-11.5819
▁Parokia	-11.5821
▁Mwokozi	-11.5822
▁alijibu	-11.5824
tahakikisha	-11.5825
▁MSD	-11.5825
▁wauzaji	-11.5826
kongo	-11.5829
▁Waarabu	-11.583
geukia	-11.583
jitokeze	-11.5831
SAIDIA	-11.5832
▁Felix	-11.5833
▁Fiesta	-11.5833
▁Kwenda	-11.5833
▁Muleba	-11.5833
▁alitembelea	-11.5834
▁IV	-11.5836
▁fundisho	-11.5837
▁akilini	-11.5842
▁ulioandaliwa	-11.5843
▁mtume	-11.5843
▁ten	-11.5844
itaja	-11.5844
▁Anwani	-11.5846
▁Misaada	-11.5846
▁kuteua	-11.5847
gawanywa	-11.5848
▁ninavyo	-11.5849
▁MAENEO	-11.5854
bagua	-11.5855
IF	-11.5859
horo	-11.586
subiriwa	-11.5861
▁wahisani	-11.5861
▁Fanya	-11.5862
▁kujiepusha	-11.5863
tawanya	-11.5863
▁maaskofu	-11.5865
pindua	-11.5866
nachokifanya	-11.587
▁live	-11.5872
▁Uwoya	-11.5872
▁Meck	-11.5873
▁Onyesha	-11.5874
waasa	-11.5875
▁Msimbazi	-11.5875
gunduliwa	-11.5875
▁aliyopewa	-11.5877
firi	-11.588
▁dharau	-11.5881
▁gumzo	-11.5881
▁Zawadi	-11.5885
bili	-11.5885
ufanya	-11.5886
▁Dis	-11.5888
▁Doha	-11.5889
▁83	-11.589
dhulumu	-11.589
Diamond	-11.5895
isaidia	-11.5895
▁kutoroka	-11.5897
-10	-11.5899
▁Upelelezi	-11.5899
▁GAZETI	-11.59
▁MEDIA	-11.59
▁Lya	-11.59
▁tuangalie	-11.59
hapa	-11.5903
▁akitoka	-11.5903
▁hekta	-11.5904
▁***	-11.5904
▁zinazohusiana	-11.5907
▁kulifanya	-11.5908
tufanya	-11.5908
▁nyote	-11.5909
vunji	-11.591
▁kudhani	-11.591
anzilishi	-11.5911
▁NGO	-11.5911
▁KASI	-11.5911
▁kisu	-11.5913
▁kinidhamu	-11.5915
▁VICHWA	-11.5918
▁Ngonyani	-11.5918
▁Kondo	-11.5918
▁kuvunjwa	-11.5918
▁kulea	-11.5919
▁Ningependa	-11.5921
▁wameendelea	-11.5921
▁amewasili	-11.5923
▁CHRIS	-11.5924
▁alipozungumza	-11.5925
▁pazia	-11.5927
orodhesha	-11.5927
▁AZUNGUMZA	-11.5927
▁TAMASHA	-11.5927
▁malumbano	-11.5927
▁nguruwe	-11.5927
▁Kayombo	-11.5927
▁zimetolewa	-11.5927
Ame	-11.5927
uch	-11.593
suku	-11.593
▁Ufugaji	-11.5933
pre	-11.5934
tambulishwa	-11.5934
▁Ruaha	-11.5936
▁Kai	-11.5936
▁walipotembelea	-11.5939
▁Taratibu	-11.5939
CD	-11.5939
▁makatibu	-11.594
▁MJI	-11.5941
▁BILAL	-11.5942
▁KUONGEA	-11.5942
▁zinaeleza	-11.5943
umizwa	-11.5944
▁umekamilika	-11.5945
▁msomi	-11.5947
▁parokia	-11.5948
bre	-11.5949
▁kupendeza	-11.595
▁kuigiza	-11.5953
▁kuidhinisha	-11.5954
bichi	-11.5955
▁iendelee	-11.5957
▁kliniki	-11.596
▁akionesha	-11.5961
WATA	-11.5961
▁pango	-11.5962
▁dhuluma	-11.5966
piti	-11.5968
▁Data	-11.5971
▁Big	-11.5972
▁Mwangosi	-11.5972
▁UJIO	-11.5974
300	-11.5975
▁Kiraia	-11.5975
▁tra	-11.5975
▁Cas	-11.5979
▁88	-11.5981
▁Mgodi	-11.5981
▁kukemea	-11.5982
79	-11.5986
▁wanamichezo	-11.5987
fanyakazi	-11.5987
▁ameomba	-11.599
▁kimaadili	-11.599
OL	-11.599
KILE	-11.5991
▁kupeana	-11.5991
jificha	-11.5993
▁amana	-11.5996
▁Kuandaa	-11.5999
kubaliani	-11.5999
▁anastahili	-11.6002
▁chungu	-11.6002
▁Ruangwa	-11.6003
▁tabaka	-11.6005
takapokuwa	-11.6006
▁kukatwa	-11.6006
▁itakayofanyika	-11.6006
TISHA	-11.6008
▁Mvua	-11.6009
▁mahasimu	-11.6012
▁Michuzi	-11.6012
tambui	-11.6015
▁Wataalam	-11.6015
▁Camp	-11.6016
tapeli	-11.6017
▁Wajibu	-11.602
▁Namibia	-11.6021
kadiria	-11.6024
redi	-11.6025
▁mwandamizi	-11.603
▁Hop	-11.6033
mwambie	-11.6038
kimbiza	-11.6038
▁NGAZI	-11.6039
TPA	-11.6041
get	-11.6041
▁lililopita	-11.6042
▁usiwe	-11.6043
▁^	-11.605
▁vielelezo	-11.6051
▁Chad	-11.6053
▁Mnara	-11.6057
stra	-11.6057
▁MDOGO	-11.6061
▁kutofautiana	-11.6064
▁yatafanyika	-11.6064
▁Mbilinyi	-11.6065
▁kulaani	-11.6066
▁website	-11.607
▁akibadilishana	-11.607
ATE	-11.607
▁kumpatia	-11.6072
▁KIBAO	-11.6073
▁Mbegu	-11.6075
▁Wanasiasa	-11.6077
-5	-11.6077
▁ste	-11.6079
▁kumpeleka	-11.6079
▁waangalizi	-11.6082
graph	-11.6083
▁nyu	-11.6083
▁Kuishi	-11.6085
▁Yusuph	-11.6085
▁vitengo	-11.6085
▁kuruhusiwa	-11.6086
TWA	-11.6086
▁shangwe	-11.6086
▁Nja	-11.609
▁ch	-11.6091
▁Alifafanua	-11.6091
▁Alisisitiza	-11.6093
▁Wafuasi	-11.6094
▁kuhudhuriwa	-11.6095
shikwa	-11.6095
tional	-11.6095
▁Medi	-11.6096
▁Uzalishaji	-11.6097
▁itabidi	-11.6098
▁Max	-11.6098
▁shirikishi	-11.6104
▁ametembelea	-11.6107
Hivi	-11.6108
▁kabambe	-11.611
lishawahi	-11.611
▁kituoni	-11.6111
lishwa	-11.6113
▁uumbaji	-11.6113
▁Matiang	-11.612
changie	-11.6123
▁nitaku	-11.6124
▁Kor	-11.6125
DPP	-11.6125
▁imetokea	-11.6129
▁akinamama	-11.6129
rch	-11.6134
▁Rich	-11.6136
lilia	-11.6137
▁Kilutheri	-11.6137
vamiwa	-11.6138
▁Mashaka	-11.6139
Usi	-11.614
KITANDA	-11.6141
▁Ndivyo	-11.6145
mfuata	-11.6146
▁Steve	-11.6149
▁NEY	-11.615
SIA	-11.6152
▁piga	-11.6153
▁kuongozwa	-11.6154
▁what	-11.6155
ambi	-11.6155
▁Kiir	-11.6156
▁anayefanya	-11.6159
▁Tembo	-11.616
kataliwa	-11.616
▁anaitwa	-11.6161
:8	-11.6161
▁Tusi	-11.6162
▁flash	-11.6162
▁Rufani	-11.6163
▁Happiness	-11.6165
▁Japhet	-11.6165
▁mtumwa	-11.6167
tabibu	-11.617
▁Ibrahimu	-11.6171
▁Endelevu	-11.6171
▁RASIMU	-11.6171
▁kimesema	-11.6172
/2	-11.6175
▁mianya	-11.6175
▁Sugu	-11.6175
mefika	-11.6176
rama	-11.6179
▁URAIS	-11.6179
bobea	-11.6181
▁Leaders	-11.6181
chini	-11.6183
vuliwa	-11.6183
penzi	-11.6185
▁kinaendelea	-11.6186
▁UBALOZI	-11.6187
▁Tabata	-11.6187
▁mwanzilishi	-11.6187
zoeleka	-11.619
fanyie	-11.619
▁VIKUU	-11.6193
▁Msangi	-11.6193
▁Jangwa	-11.6194
▁Mul	-11.6195
▁kuiongoza	-11.6199
chague	-11.62
▁Darfur	-11.6203
TLS	-11.6205
gon	-11.6205
▁WATOA	-11.6206
Biashara	-11.6208
▁uliopangwa	-11.6208
▁Sek	-11.621
injili	-11.6212
▁viashiria	-11.6212
▁vikiwa	-11.6212
▁Sol	-11.6213
▁Jane	-11.6216
▁buti	-11.6216
▁kenya	-11.6218
▁midogo	-11.622
▁nimeamua	-11.6222
▁High	-11.6223
▁msisitizo	-11.6224
▁tarafa	-11.6224
▁kinachoitwa	-11.6226
▁SOKO	-11.6228
▁Justin	-11.6228
mekua	-11.6229
CAG	-11.6229
▁Uchina	-11.623
▁Program	-11.6232
▁Mbaya	-11.6232
▁Visiwa	-11.6232
▁TUKIO	-11.6233
▁2015/16	-11.6233
▁MAPYA	-11.6233
▁kubadilishwa	-11.6234
▁Zilizo	-11.6235
msifu	-11.6236
▁Sport	-11.6237
▁KUTOKANA	-11.6238
▁Amir	-11.6239
▁Citizen	-11.6243
▁kughushi	-11.6243
▁Jumbe	-11.6245
▁hekalu	-11.6246
▁manane	-11.6251
▁hakutakuwa	-11.6252
▁MUZIKI	-11.6252
▁ulevi	-11.6255
▁Ghasia	-11.6256
▁mja	-11.6256
kri	-11.6256
▁ukabila	-11.6257
▁mbwembwe	-11.6258
▁Luis	-11.626
▁shaba	-11.6263
=&	-11.6265
▁kuwasilishwa	-11.6265
palestina	-11.6266
▁Mgogoro	-11.6268
fatilia	-11.6269
▁Medard	-11.6271
▁WATEMBELEA	-11.6274
nachofanya	-11.6274
▁JENGO	-11.6275
▁ndie	-11.6276
▁Hatima	-11.6277
▁Abdullah	-11.6278
▁Mimba	-11.6278
Ndugu	-11.628
▁SIRI	-11.628
▁Hillary	-11.628
▁tunasema	-11.6283
▁MASHAHIDI	-11.6283
▁wanakijiji	-11.6283
▁Lyon	-11.6284
▁Sultan	-11.6284
mtafuta	-11.6286
▁ATA	-11.6286
▁KIONGOZI	-11.6287
sisimua	-11.6287
▁alihoji	-11.6289
▁Kiroho	-11.629
▁Ter	-11.629
▁Tupo	-11.6292
▁Rudi	-11.6292
▁anaeleza	-11.6294
▁Chukua	-11.6294
▁kulazimishwa	-11.6302
para	-11.6302
▁Kalonzo	-11.6302
▁wafalme	-11.6302
▁MISA	-11.6303
sca	-11.6304
▁MUHIMBILI	-11.6305
▁Mer	-11.6306
▁WAZEE	-11.6309
▁usaili	-11.6309
▁MAKALA	-11.6309
98	-11.6309
▁mchele	-11.6314
▁Mzunguko	-11.6315
▁hutegemea	-11.6318
Magufuli	-11.6321
mwezesha	-11.6321
▁Salah	-11.6322
someka	-11.6324
▁mgawanyiko	-11.6324
▁maili	-11.6324
▁KUTOKEA	-11.6329
▁74	-11.6329
▁Wakorintho	-11.6331
▁ubinadamu	-11.6331
stro	-11.6337
▁Tunashukuru	-11.6338
▁machoni	-11.6339
asili	-11.6339
▁IJUMAA	-11.6343
▁mate	-11.6343
▁Madam	-11.6344
▁Mbozi	-11.6345
▁Tunapo	-11.6345
shwaji	-11.6349
▁ghafi	-11.6349
zwi	-11.6351
▁SO	-11.6352
wapatia	-11.6353
▁Wangu	-11.6353
▁wanaotoa	-11.6355
▁imeingia	-11.6355
5%	-11.6355
▁unaanza	-11.6356
toshi	-11.6358
▁mnayo	-11.6358
▁Inayo	-11.636
sapoti	-11.6362
▁AGPAHI	-11.6362
▁Mjadala	-11.6362
lipoanza	-11.6363
▁kuichezea	-11.6364
Pesa	-11.6365
mila	-11.6365
work	-11.6366
▁motisha	-11.6366
▁kupamba	-11.6368
▁presha	-11.6369
▁sanduku	-11.6372
▁Vyakula	-11.6373
▁Pete	-11.6378
▁hatiani	-11.6381
jadiliana	-11.6382
far	-11.6383
Fikra	-11.6383
▁alielezea	-11.6383
▁kuwashawishi	-11.6383
2690	-11.6383
▁Joho	-11.6384
$	-11.6387
▁miche	-11.6389
▁AKABIDHI	-11.639
▁Microsoft	-11.6391
▁MAGARI	-11.6391
▁aje	-11.6393
▁mwenzako	-11.6396
▁Mv	-11.6398
▁AZAM	-11.6398
▁mabweni	-11.64
chukuliwe	-11.6402
muita	-11.6403
die	-11.6403
moon	-11.6403
▁Falme	-11.6403
▁Msalaba	-11.6403
▁Jumia	-11.6404
▁Bro	-11.6406
73248	-11.6407
mkamata	-11.6408
▁Sarah	-11.6411
▁anakuja	-11.6413
▁kuitumikia	-11.6415
TANESCO	-11.6416
▁Miezi	-11.6416
▁30,000	-11.642
busu	-11.6422
▁ameweza	-11.6424
▁kutusaidia	-11.6425
lipe	-11.6425
▁muongozo	-11.6428
Bu	-11.6429
▁itachukua	-11.643
▁0713	-11.6433
▁Pat	-11.6433
▁Kilolo	-11.6435
▁Athari	-11.6438
▁waliopewa	-11.6439
▁Mbulu	-11.644
▁MIL	-11.644
bepari	-11.6445
▁Nataka	-11.6446
▁akisikiliza	-11.6447
ICC	-11.6449
94	-11.6449
▁Mchakato	-11.6451
▁Mwamba	-11.6452
zungukwa	-11.6452
▁Lishe	-11.6452
‘	-11.6454
▁SERA	-11.6456
▁aliyepata	-11.6457
▁walishindwa	-11.6458
MILIKI	-11.646
▁midomo	-11.646
UVCCM	-11.6464
▁MKATABA	-11.6467
▁Ngeleja	-11.6467
▁nianze	-11.6467
▁shwari	-11.6467
▁Maabara	-11.647
▁mnara	-11.6471
▁kupatwa	-11.6473
▁AFRICA	-11.6473
▁imeandikwa	-11.6475
▁2013/2014	-11.648
▁kushtukiza	-11.6486
▁Mkufunzi	-11.6486
▁Town	-11.6487
▁andiko	-11.6488
▁akiomba	-11.6488
ishauri	-11.6488
▁mweusi	-11.649
mpeleka	-11.649
▁Good	-11.6491
▁milipuko	-11.6492
dilifu	-11.6493
tosheleza	-11.6494
ving	-11.6496
▁star	-11.6496
▁Eric	-11.6497
sifanye	-11.6498
andikishwa	-11.6498
▁Vitendo	-11.6499
Lu	-11.65
cle	-11.6501
▁shutuma	-11.6502
6,000	-11.6502
▁Martha	-11.6502
▁mapigo	-11.6505
ben	-11.6507
▁Itakuwa	-11.6507
▁ifuatayo	-11.6512
▁Mato	-11.6512
▁nilizo	-11.6513
anayeshughulikia	-11.6513
KATA	-11.6513
▁Hol	-11.6514
hir	-11.6515
▁kukumbwa	-11.6516
▁ujira	-11.6517
▁Mwendesha	-11.6518
▁AGOSTI	-11.6518
▁Samweli	-11.6519
▁PENZI	-11.652
Tanga	-11.652
▁Mfawidhi	-11.6521
▁nyepesi	-11.6521
▁Ufuatiliaji	-11.6521
▁ajiuzulu	-11.6522
(7)	-11.6525
▁kutamka	-11.6526
fy	-11.6527
tazamwa	-11.6529
tajiri	-11.6529
▁Usikubali	-11.6531
▁92	-11.6531
▁Link	-11.6532
thu	-11.6534
▁kuiona	-11.6535
rafiki	-11.6536
▁vituko	-11.6538
▁kuuaga	-11.6539
▁Website	-11.654
▁Sep	-11.6541
part	-11.6541
▁kurejeshwa	-11.6544
Kenya	-11.6544
▁unatumia	-11.6544
▁Colombia	-11.6547
▁koo	-11.655
dal	-11.6553
danganyi	-11.6554
▁MC	-11.6555
▁aliongoza	-11.6556
Mathayo	-11.6557
▁Alitoa	-11.656
▁fukwe	-11.6562
▁uanze	-11.6562
▁School	-11.6563
▁PC	-11.6574
▁kushikilia	-11.6575
▁zinapaswa	-11.6575
▁MTWARA	-11.6576
▁uenezi	-11.6576
▁form	-11.6578
Dar	-11.6578
▁Juzi	-11.6579
▁amekamatwa	-11.6582
▁upuuzi	-11.6582
▁General	-11.6583
▁alivyosema	-11.6583
rundi	-11.6585
▁Mufti	-11.6586
▁kitisho	-11.6588
▁kifalme	-11.6595
▁Tarafa	-11.6595
miss	-11.6596
Hivyo	-11.6598
▁alasiri	-11.6598
▁Kyela	-11.6602
hamishia	-11.6604
▁ndoo	-11.6604
▁Mifuko	-11.6607
▁&#8216;	-11.6608
stic	-11.6609
-7	-11.661
▁amezindua	-11.661
▁(+	-11.661
▁Shooting	-11.6612
▁WAKURUGENZI	-11.6613
▁ametumia	-11.6613
▁Shindano	-11.6615
Wazee	-11.6618
▁Mazishi	-11.6618
▁majuma	-11.6618
▁sindano	-11.6621
Unaweza	-11.6623
tuliza	-11.6624
view	-11.6625
▁MIPANGO	-11.6628
▁Neymar	-11.6628
▁malimbikizo	-11.6628
TANO	-11.6628
aaaa	-11.663
▁Kibiti	-11.6632
▁uchangiaji	-11.6634
Kutokana	-11.6636
▁Wilson	-11.6638
▁Mnangagwa	-11.664
▁Huwa	-11.6642
▁UMUHIMU	-11.6644
▁KUELEKEA	-11.6646
pandwa	-11.6647
▁Mjema	-11.6647
▁alifanikiwa	-11.6647
▁channel	-11.6648
▁MOI	-11.6648
▁kunusuru	-11.665
▁imewekwa	-11.6651
ikabili	-11.6651
▁husema	-11.6657
800	-11.6661
▁ishu	-11.6663
▁Pius	-11.6663
▁wanaodaiwa	-11.6669
AG	-11.6669
▁Taswira	-11.667
▁that	-11.6671
Huyu	-11.6671
▁sabuni	-11.6672
▁Zijue	-11.6675
▁Fidia	-11.6676
gram	-11.6688
▁Mazembe	-11.6688
▁Netanyahu	-11.6689
▁anayeishi	-11.669
limwa	-11.669
▁Athumani	-11.669
▁kuishia	-11.6691
▁Rooney	-11.6693
pingwa	-11.6693
Zanzibar	-11.6693
▁not	-11.6694
▁ardhini	-11.6694
▁kingono	-11.6699
▁bar	-11.67
pic	-11.6701
▁Geneva	-11.6702
▁waadilifu	-11.6703
▁BADO	-11.6703
mwana	-11.6704
▁Scholarships	-11.6707
▁aliondoka	-11.6709
▁ufa	-11.6711
▁Hakimiliki	-11.6712
▁Nuru	-11.6712
eneo	-11.6712
▁risala	-11.6712
jijini	-11.6713
▁akimuapisha	-11.6715
▁Vuai	-11.6715
▁USHAURI	-11.6716
kutane	-11.6717
test	-11.6717
sikitisha	-11.6719
▁mjane	-11.6722
▁FOR	-11.6722
▁Sunday	-11.6723
▁wakifurahia	-11.6723
ASWA	-11.6724
light	-11.6725
egemea	-11.6725
▁UNITED	-11.6725
▁kuwakilisha	-11.6727
▁Mashujaa	-11.6728
▁(7)	-11.673
wajibisha	-11.6731
▁BAHATI	-11.6732
hudhu	-11.6735
▁WordPress	-11.6735
▁Stadi	-11.6736
▁tabu	-11.6738
▁ghala	-11.6739
IR	-11.674
mshirikisha	-11.6741
▁Ser	-11.6743
iwezesha	-11.6746
qu	-11.6746
▁Amana	-11.6746
▁98	-11.6746
▁ASILIMIA	-11.6748
▁utupu	-11.6749
▁imetenga	-11.6749
shindi	-11.6753
▁unalenga	-11.6756
▁usemi	-11.6756
wafikia	-11.6756
▁Abubakar	-11.6758
UL	-11.676
▁Bashir	-11.676
:7	-11.676
▁Mpa	-11.676
▁wanakwenda	-11.6761
▁Flora	-11.6761
anywa	-11.6763
▁Thailand	-11.6765
▁Ghuba	-11.6765
▁maongezi	-11.6765
zitaka	-11.6767
MTONGOZA	-11.6768
EAC	-11.6774
▁linahitaji	-11.6775
▁kugusa	-11.6776
▁walijeruhiwa	-11.6778
▁bandarini	-11.6779
▁kushauri	-11.6781
▁RIWAYA	-11.6781
▁Ukerewe	-11.6781
washirikisha	-11.6783
ondoe	-11.6784
kopa	-11.6786
Audio	-11.6788
▁kuumia	-11.6788
undo	-11.6788
▁Mwanjelwa	-11.6791
▁instagram	-11.6791
▁ninapo	-11.6792
RIKA	-11.6792
ingiwa	-11.6793
▁WAKIWA	-11.6794
▁utangulizi	-11.6795
▁ufanye	-11.6797
▁jumuia	-11.6797
▁kupikia	-11.6801
ndwa	-11.6802
▁if	-11.6802
EST	-11.6806
chinja	-11.6809
▁farasi	-11.6811
▁misimu	-11.6811
▁Unataka	-11.6813
takiwi	-11.6814
▁mpunga	-11.6817
▁Lake	-11.682
▁NDIYE	-11.6821
▁alipoulizwa	-11.6821
▁kumekuwepo	-11.6821
▁atoe	-11.6822
▁Ujuzi	-11.6822
bishwa	-11.6823
▁KUBORESHA	-11.6827
▁kusaidiana	-11.6829
▁Wil	-11.6832
▁1960	-11.6833
▁kuihariri	-11.6833
ORD	-11.6833
▁ujana	-11.6837
LIP	-11.6838
simami	-11.6841
▁ukitaka	-11.6842
▁Wenyeviti	-11.6844
Mheshimiwa	-11.6844
▁Zaburi	-11.6845
tekeleze	-11.6847
▁tunapata	-11.6849
:21	-11.685
▁Hofu	-11.6851
babe	-11.6852
roma	-11.6853
▁Kessy	-11.6854
▁maelewano	-11.6854
▁masafa	-11.6854
▁WCB	-11.6855
To	-11.6856
▁mlolongo	-11.6857
▁kuwakumbusha	-11.6857
waua	-11.6861
▁kutuliza	-11.6863
▁kulazimika	-11.6865
mhusu	-11.6866
msikia	-11.6867
▁Nkurunziza	-11.6867
▁1993	-11.6869
▁imekwisha	-11.687
▁akaanza	-11.6871
MAELEZO	-11.6872
▁BARAKA	-11.6873
▁Best	-11.6873
▁vinne	-11.6877
▁trafiki	-11.6878
▁mche	-11.6879
▁Zantel	-11.688
▁ESRF	-11.6881
▁kuambiwa	-11.6883
▁SEO	-11.6885
▁Lawrence	-11.6887
▁wakiingia	-11.6889
▁kupitwa	-11.6889
▁walau	-11.6892
▁then	-11.6893
▁Kardinali	-11.6894
▁kulipiza	-11.6897
▁TAR	-11.6897
farijika	-11.6898
Ru	-11.6901
▁alimwambia	-11.6902
▁kutofanya	-11.6902
▁Zo	-11.6903
▁Gairo	-11.6904
▁wanaoweza	-11.6906
kosolewa	-11.6907
▁kujiendeleza	-11.6909
▁suti	-11.6909
▁Myanmar	-11.691
▁Kisumu	-11.691
telekezwa	-11.6914
tolewe	-11.6916
▁Chamwino	-11.6917
▁kubana	-11.6917
chunga	-11.6918
Salaam	-11.6918
▁kuachwa	-11.6919
▁Ayubu	-11.692
▁Shaaban	-11.692
▁kumwona	-11.6921
▁kutilia	-11.6922
▁kukabili	-11.6922
▁kupokelewa	-11.6923
▁Cheti	-11.6923
gome	-11.6925
▁mwamuzi	-11.6926
Nita	-11.6926
▁Bohari	-11.6928
▁kaa	-11.6928
▁Juliana	-11.693
adhibiwa	-11.6931
▁Heroes	-11.6934
▁Vichwa	-11.6934
▁lililoandaliwa	-11.6937
▁asinge	-11.6938
▁kuzua	-11.6938
emu	-11.6939
▁Imeandikwa	-11.6939
▁uwezeshaji	-11.6939
▁Frederick	-11.694
▁KAMILI	-11.6941
▁nyasi	-11.6941
quot	-11.6941
furu	-11.6942
▁Ada	-11.6945
▁ujambazi	-11.6945
tarehe	-11.6945
▁Mustafa	-11.6947
▁Japani	-11.6948
▁huleta	-11.6949
vuli	-11.6949
▁homoni	-11.6951
▁Umri	-11.6951
▁Pra	-11.6953
▁uenyekiti	-11.6954
▁Poli	-11.6957
basi	-11.6958
▁mwenu	-11.6959
▁Abi	-11.6959
▁chumbani	-11.6959
singekuwa	-11.696
▁JIWE	-11.6961
sifiwa	-11.6961
▁inakwenda	-11.6962
▁linge	-11.6963
▁Piga	-11.6966
changanyikiwa	-11.6967
▁petroli	-11.6967
tafsiriwa	-11.697
▁hawako	-11.6977
HALI	-11.6979
▁Kurugenzi	-11.6982
UDSM	-11.6985
▁walifanikiwa	-11.6989
▁KUTU	-11.6989
▁Kidini	-11.6989
▁hakija	-11.6989
▁Mfanyakazi	-11.699
▁mgawanyo	-11.6991
▁kufuatana	-11.6993
▁FAMILIA	-11.6994
▁king	-11.6999
▁Moro	-11.6999
▁POLE	-11.7
▁zimesha	-11.7001
▁wakishiriki	-11.7002
fisadi	-11.7003
▁mabwawa	-11.7004
▁Kamera	-11.7004
:23	-11.7004
▁Omari	-11.7005
ziba	-11.7005
▁point	-11.7007
▁Ambao	-11.7008
▁mpate	-11.7008
salimiana	-11.701
▁MPEKUZI	-11.7011
jishindia	-11.7012
▁Mbinga	-11.7014
▁Sch	-11.7016
PITA	-11.7021
▁Kishapu	-11.7021
▁2,000	-11.7025
▁Khamenei	-11.7028
▁Seleman	-11.7029
▁pic	-11.7033
endeleo	-11.7039
▁waliyonayo	-11.7039
japo	-11.704
▁kuijenga	-11.7042
▁zilizowekwa	-11.7045
▁unatoa	-11.7045
▁PESA	-11.7045
kuona	-11.7046
▁yanayotolewa	-11.7046
EU	-11.7047
▁Chuma	-11.7047
▁Kinyerezi	-11.7048
▁Mchana	-11.7051
▁kumuaga	-11.7054
waacha	-11.7054
heshimika	-11.7058
▁Kiko	-11.7059
▁PSG	-11.706
▁zinatarajiwa	-11.706
▁Sorry	-11.7062
mwabudu	-11.7063
▁unategemea	-11.7064
mtuma	-11.7064
▁kuyakabili	-11.7064
▁Bob	-11.7065
chele	-11.7065
▁Rostam	-11.7065
▁kuchezwa	-11.7065
▁Fc	-11.7066
saidi	-11.7067
▁usiri	-11.7068
▁herufi	-11.7068
▁APOKEA	-11.707
ffe	-11.707
▁VITUO	-11.7074
▁kutambuliwa	-11.7075
ult	-11.7077
▁Vikao	-11.7077
pel	-11.7078
naswa	-11.7078
ambulia	-11.708
▁NYAMA	-11.7081
▁LANGU	-11.7082
▁ikifanya	-11.7086
▁majumba	-11.7086
▁kufufuka	-11.7087
▁Yona	-11.7087
julia	-11.7088
▁Staa	-11.7089
▁Tv	-11.709
▁Tunduma	-11.709
bro	-11.7091
▁dau	-11.7091
NIT	-11.7092
▁wanadaiwa	-11.7092
▁haliwezi	-11.7093
▁200,000	-11.7093
▁kupeleleza	-11.7095
kutoka	-11.7097
▁wakoloni	-11.7098
▁Taaluma	-11.7099
▁PhD	-11.7099
▁mabonde	-11.71
▁wakishangilia	-11.7101
▁Acacia	-11.7102
▁ulioanza	-11.7104
▁kuogelea	-11.7106
▁NOVEMBA	-11.7109
▁sintofahamu	-11.7109
tizama	-11.711
▁Fire	-11.711
TY	-11.711
▁jumatatu	-11.7112
▁Ufunguzi	-11.7112
▁akilakiwa	-11.7112
▁batili	-11.7113
▁anatoka	-11.7114
▁Mpenzi	-11.7115
▁ghadhabu	-11.7116
▁Robo	-11.7116
amrisha	-11.7116
▁kuchanganya	-11.7119
▁Watch	-11.7119
▁zinazopatikana	-11.712
▁waandaaji	-11.7122
▁Moon	-11.7123
▁Homa	-11.7123
▁(10)	-11.7127
endea	-11.7128
▁ameteuliwa	-11.7128
tayari	-11.7129
kimbizwa	-11.713
▁Kombo	-11.713
▁too	-11.7131
ahidiwa	-11.7133
kutakia	-11.7135
ear	-11.7137
▁Inaweza	-11.7137
▁mabanda	-11.7138
MW	-11.7139
▁skuli	-11.714
▁like	-11.714
anyi	-11.7144
app	-11.7144
rahisi	-11.7144
▁kugeuka	-11.7146
▁dr	-11.7146
▁ulazima	-11.7146
▁Nyang	-11.7149
▁Mogadishu	-11.715
▁Kondoa	-11.7151
▁imechukua	-11.7154
raha	-11.7155
komunisti	-11.7157
▁inaruhusu	-11.7158
▁Chile	-11.7159
ndika	-11.7159
vuma	-11.7159
▁pake	-11.7159
▁Samaki	-11.716
▁iliyochezwa	-11.7161
liweka	-11.7163
Baba	-11.7163
wataja	-11.7168
ENZI	-11.7169
▁Ol	-11.717
athbert	-11.7171
▁(18)	-11.7171
▁mmojawapo	-11.7172
▁Kuingiza	-11.7174
-942570	-11.7174
▁yanapo	-11.7174
timuliwa	-11.7175
▁Makka	-11.7175
tukuka	-11.7175
▁kimkakati	-11.7177
▁vijavyo	-11.7177
▁Kivuko	-11.7177
▁mahesabu	-11.7177
cation	-11.7179
▁walioteuliwa	-11.7181
▁inahitajika	-11.7184
▁utovu	-11.7184
ONGOZA	-11.7184
lishe	-11.7186
▁waliingia	-11.7188
hehe	-11.7193
▁mihangaiko	-11.7194
Jo	-11.7195
▁tenda	-11.7198
Â	-11.7198
▁utandawazi	-11.7198
▁mtupu	-11.7201
▁risiti	-11.7201
shirika	-11.7204
▁Joel	-11.7205
▁nitawa	-11.7206
ARD	-11.7207
▁Mashtaka	-11.7208
toshe	-11.7208
girl	-11.7209
▁penye	-11.721
shinde	-11.7214
▁inayoitwa	-11.7216
▁agenda	-11.7218
▁mkwe	-11.7219
▁KIKOSI	-11.7222
▁itaweza	-11.7224
▁Erdogan	-11.7225
▁akielekea	-11.7225
▁minane	-11.7225
▁hichi	-11.7227
nganishi	-11.7228
ITWA	-11.7229
▁van	-11.723
▁Ramo	-11.7231
Mkurugenzi	-11.7231
muonyesha	-11.7231
▁umeendelea	-11.7233
fuati	-11.7233
▁Agizo	-11.7236
▁Service	-11.7239
▁html	-11.7245
▁UNDP	-11.7246
▁Kuanza	-11.7249
/1	-11.725
▁Ashatu	-11.7251
▁Genk	-11.7252
▁tutaweza	-11.7256
zindu	-11.7258
▁94	-11.726
phone	-11.726
▁kuufanya	-11.726
▁mrithi	-11.7261
▁SALA	-11.7263
VPL	-11.7264
▁kushinikiza	-11.7264
iongoza	-11.7265
▁dili	-11.7265
itikia	-11.7266
Vijana	-11.7266
JNIA	-11.7268
▁TANAPA	-11.7268
▁Rajab	-11.7268
TPDC	-11.7269
UNESCO	-11.7269
▁Halisi	-11.727
▁mabomba	-11.7271
▁Drama	-11.7273
▁Brigedia	-11.7273
MM	-11.7274
▁Kongwa	-11.7275
tendewa	-11.7276
▁Abdi	-11.7277
II	-11.7278
▁kubonyeza	-11.728
▁KONGAMANO	-11.728
ally	-11.7281
▁Conte	-11.7281
:22	-11.7282
▁kujisikia	-11.7286
▁UNHCR	-11.7287
▁Ungependa	-11.7287
▁2030	-11.7288
himili	-11.729
HIRI	-11.7292
▁Aug	-11.7293
▁yakiendelea	-11.7293
▁Mwang	-11.7293
▁mwanaharakati	-11.7294
▁malisho	-11.73
▁Jerry	-11.73
longo	-11.7301
vita	-11.7301
itaji	-11.7307
▁Mnyeti	-11.7308
▁Mzazi	-11.7309
ndio	-11.7309
▁shambani	-11.7312
shitaki	-11.7312
▁Ualimu	-11.7315
▁vichekesho	-11.7315
▁Nyaka	-11.7318
▁uadui	-11.7318
▁inaelekea	-11.7319
▁Amazon	-11.7319
▁ameelezea	-11.732
8,000	-11.732
▁Human	-11.7321
pangia	-11.7321
▁wakiimba	-11.7322
▁Kikanda	-11.7324
▁IMF	-11.7328
▁4-0	-11.7332
▁imepiga	-11.7334
▁Njema	-11.7334
▁kufungiwa	-11.7336
▁mahubiri	-11.7337
▁linapo	-11.7338
▁kufanyakazi	-11.7338
laghai	-11.7339
▁Mshitu	-11.734
▁PROF	-11.7341
▁mataji	-11.7342
▁RAHISI	-11.7343
▁kumuombea	-11.7343
▁inayofanywa	-11.7343
▁kufurahisha	-11.7344
▁utakatifu	-11.7345
▁amebainisha	-11.7346
fichwa	-11.7346
▁Warsha	-11.7347
▁WATAKIWA	-11.735
▁Freemasons	-11.7353
africa	-11.7354
gubikwa	-11.7357
▁debe	-11.736
▁kujikimu	-11.736
▁walijitokeza	-11.7363
▁Rio	-11.7363
▁87	-11.7363
Bofya	-11.7363
▁16.02.2017	-11.7364
▁imesababisha	-11.7364
▁ikisema	-11.7364
▁Kigogo	-11.7365
▁Harakati	-11.7366
▁PWANI	-11.7367
▁Alfred	-11.7374
▁MwanaHALISI	-11.7374
▁zinakuwa	-11.7375
kaguliwa	-11.7379
▁walipokutana	-11.7381
▁Harmonize	-11.7383
▁Nakala	-11.7384
▁umetoa	-11.7387
▁OF	-11.7392
▁yasiyokuwa	-11.7393
▁kumkabidhi	-11.7394
▁CITY	-11.7395
▁Mubarak	-11.7395
chumba	-11.7396
▁linatarajiwa	-11.7396
▁Kisiwani	-11.7399
▁WALIOPATA	-11.74
▁MITAA	-11.74
▁timamu	-11.7402
PATIKANA	-11.7405
Tamisemi	-11.7405
▁Twiga	-11.7406
▁Aslay	-11.7406
▁ASANTENI	-11.7406
▁mab	-11.7409
▁MATANGAZO	-11.7409
▁Tamisemi	-11.741
▁kumjua	-11.7412
▁shamra	-11.7413
chen	-11.7414
▁Njo	-11.7416
▁mtego	-11.7416
She	-11.7419
NBS	-11.7421
▁KIJIJI	-11.7423
▁elekezi	-11.7423
Nchi	-11.7423
▁update	-11.7423
▁Kilele	-11.7424
▁Los	-11.7424
▁mtiririko	-11.7427
▁kuandikwa	-11.7428
timize	-11.7429
CHUKUA	-11.743
▁Hekima	-11.743
▁yanakuwa	-11.7431
▁91	-11.7433
▁Channel	-11.7434
▁Mtama	-11.7435
▁kikristo	-11.7436
/2016	-11.7436
▁Jaribu	-11.7437
▁kuhusisha	-11.7439
▁nyuso	-11.7439
▁upotoshaji	-11.7441
hudumiwa	-11.7441
▁Ruge	-11.7443
▁mala	-11.7444
▁kufuru	-11.7445
▁Zake	-11.745
▁RFI	-11.7452
non	-11.7453
▁kuepukana	-11.7454
▁Mita	-11.7456
▁UFALME	-11.7458
▁bweni	-11.7459
▁aliyonayo	-11.746
▁yanaonekana	-11.7461
▁onyesho	-11.7462
▁Barnaba	-11.7462
tanguliza	-11.7462
▁Takriban	-11.7463
▁ubishi	-11.7464
▁Nenda	-11.7466
▁kitandani	-11.7469
▁walishiriki	-11.747
▁Treni	-11.7471
▁Qa	-11.7472
rahisisha	-11.7472
▁kuzuka	-11.7473
▁uliochezwa	-11.7474
pindi	-11.7475
salaam	-11.7475
▁kusimamishwa	-11.7476
▁Ronald	-11.7479
▁Misungwi	-11.748
▁makutano	-11.748
takuwepo	-11.748
▁yaliyofikiwa	-11.748
▁79	-11.748
▁kuridhika	-11.7482
▁Wolper	-11.7483
kha	-11.7485
▁Tendo	-11.7486
▁wakishuhudia	-11.7488
▁kushauriana	-11.7488
▁Kimara	-11.7489
▁Bulembo	-11.749
▁ukiukaji	-11.749
▁PS	-11.749
pelelezi	-11.7491
▁Wajasiriamali	-11.7494
▁theluthi	-11.7494
▁GONGA	-11.7494
yataja	-11.7494
▁mliyo	-11.7495
shtua	-11.7496
hudi	-11.7496
▁Uchambuzi	-11.7497
▁wanajamii	-11.7498
-12	-11.75
▁kumpenda	-11.7501
pokee	-11.7502
▁96	-11.7505
telekeza	-11.7505
▁Ulega	-11.7508
mejaa	-11.7511
▁Mwananyamala	-11.7511
hakuna	-11.7511
pongeze	-11.7512
▁kumbu	-11.7512
▁Mwanzoni	-11.7512
▁toba	-11.7515
▁chimbuko	-11.7515
▁Ushahidi	-11.7515
▁wateule	-11.7515
▁mnavyo	-11.7516
▁iOS	-11.7516
REA	-11.7517
PANGA	-11.7518
gombe	-11.7518
▁kupuuza	-11.7519
▁Rungwe	-11.7519
▁zilizopigwa	-11.752
jembe	-11.7521
▁mapacha	-11.7523
sitishwa	-11.7526
▁mchache	-11.7526
▁uendelee	-11.7528
▁Plan	-11.7528
▁Vincent	-11.7529
▁mziki	-11.753
jazwa	-11.7532
▁inayohusu	-11.7533
▁Hasunga	-11.7533
▁EPL	-11.7534
▁kumsimamisha	-11.7535
▁kijacho	-11.7536
ADHIMISH	-11.7537
▁MAANDALIZI	-11.754
giri	-11.7541
magharibi	-11.7543
▁utakuta	-11.7544
▁Bundesliga	-11.7547
▁mpambano	-11.7547
▁Oscar	-11.7547
TMA	-11.7547
▁muumini	-11.755
▁Kamusi	-11.7551
▁Mtera	-11.7551
▁1.2	-11.7552
▁KUONGEZA	-11.756
▁JULIUS	-11.7561
▁Singapore	-11.7561
▁janja	-11.7563
▁vilio	-11.7563
▁Upanga	-11.7564
▁Mambosasa	-11.7566
▁Mawe	-11.7566
FIKIA	-11.7569
▁chagua	-11.757
Mama	-11.7572
▁Guterres	-11.7572
▁Uhai	-11.7572
▁DSM	-11.7575
▁pasipoti	-11.7576
▁Majimaji	-11.7576
maarufu	-11.7577
hudu	-11.7578
▁Niger	-11.7578
▁Band	-11.7579
▁CHANGAMOTO	-11.7579
AJIRI	-11.7579
▁kuchoka	-11.7581
TANZANIA	-11.7582
▁Marekebisho	-11.7582
▁Pol	-11.7583
▁NAMBA	-11.7584
▁kiangazi	-11.7588
▁Toyota	-11.759
▁matofali	-11.7593
▁uchache	-11.7593
▁Ocean	-11.7594
▁Kiwanja	-11.7597
▁Cal	-11.7597
▁Gambia	-11.7601
▁muongo	-11.7601
▁JUMLA	-11.7604
▁uende	-11.7605
▁fikiria	-11.7606
muamini	-11.7611
SHUKURU	-11.7611
▁haziwezi	-11.7611
IGP	-11.7611
ahiri	-11.7612
▁kid	-11.7615
▁Jun	-11.7615
61	-11.7618
▁Takukuru	-11.762
▁Yasin	-11.762
▁MAONYESHO	-11.7622
▁Kya	-11.7622
▁shemeji	-11.7623
albino	-11.7629
▁msisimko	-11.7632
▁limeanza	-11.7636
▁imeonekana	-11.7638
▁Hashim	-11.7638
ming	-11.7638
▁Ago	-11.764
menyana	-11.7642
▁Eritrea	-11.7643
▁Ken	-11.7644
▁VIWANJA	-11.7647
▁Ambayo	-11.7647
▁muwe	-11.7649
[...]
