<unk>	0
<s>	0
</s>	0
▁	-2.91888
S	-3.34464
>	-3.35635
"	-3.36278
▁ya	-3.63413
▁na	-3.66659
.	-3.73326
,	-3.75747
]	-4.02857
/	-4.0304
Y	-4.05333
IN	-4.05663
▁<<	-4.05768
ST	-4.06012
▁wa	-4.09734
:	-4.34898
▁kwa	-4.47988
[	-4.67154
▁a	-4.68112
p	-4.70583
}	-4.73455
▁{	-4.73681
text	-4.74853
ful	-4.75012
▁you	-4.75013
▁hel	-4.75053
▁are	-4.75075
stant	-4.75082
assi	-4.75128
▁[	-4.77756
a	-4.95127
▁ni	-5.04322
▁za	-5.04369
n	-5.27288
▁katika	-5.40551
t	-5.57042
;	-5.67355
quo	-5.67588
▁la	-5.76306
▁kuwa	-5.91909
▁zaidi	-5.94622
▁cha	-5.95355
\	-5.97168
▁ili	-5.98862
.\	-6.01191
▁-	-6.03853
▁vya	-6.11135
▁kama	-6.13975
.:	-6.16805
▁au	-6.2507
▁kwenye	-6.26732
&	-6.44076
▁T	-6.45158
▁&	-6.45946
▁kazi	-6.46863
o	-6.47563
▁ku	-6.47709
▁sentensi	-6.48208
▁kutoka	-6.49823
▁M	-6.56057
▁ambayo	-6.62405
▁ina	-6.6254
▁wakati	-6.63805
wa	-6.66651
▁data	-6.68549
za	-6.69822
▁vile	-6.72806
e	-6.7468
▁inaweza	-6.75616
engeneza	-6.79749
▁Kwa	-6.81129
▁kutumia	-6.83336
▁amba	-6.86542
?	-6.89227
▁muhimu	-6.90183
▁kufanya	-6.9251
▁hali	-6.92892
▁yake	-6.94007
▁watu	-6.95685
▁Ele	-6.9575
▁juu	-6.96707
kila	-6.96728
▁pia	-6.97696
▁U	-6.98501
)	-6.99165
▁njia	-7.00296
▁programu	-7.00901
▁kuhusu	-7.00981
▁hii	-7.03797
▁moja	-7.05647
▁mara	-7.08139
▁(	-7.08686
▁Ku	-7.09449
▁wateja	-7.11142
▁pamoja	-7.12203
▁hadi	-7.12646
▁bora	-7.12962
▁hu	-7.13449
▁kutoa	-7.16584
▁mtu	-7.16759
▁Andika	-7.18982
▁kwamba	-7.19102
▁kati	-7.19519
▁Ni	-7.20529
i	-7.20682
▁nyingi	-7.21533
▁sana	-7.21847
▁tofauti	-7.2189
▁=	-7.22811
▁u	-7.23942
▁Je	-7.25249
▁2.	-7.26227
▁ifuatayo	-7.26584
▁maneno	-7.26623
▁kawaida	-7.27083
▁1.	-7.27485
▁bidhaa	-7.27493
▁huduma	-7.27889
▁siku	-7.28594
▁kupunguza	-7.2961
▁kubwa	-7.30279
▁Unda	-7.30519
▁yenye	-7.30839
▁gani	-7.31013
▁A	-7.31045
▁3.	-7.3124
▁aina	-7.33914
▁mpya	-7.3662
s	-7.36829
▁hayo	-7.38529
▁kuunda	-7.3898
▁wake	-7.39414
▁orodha	-7.39804
▁AI	-7.40542
▁hewa	-7.41057
▁nishati	-7.41208
▁maisha	-7.4138
▁kujifunza	-7.41441
▁kupata	-7.4198
▁nini	-7.42532
▁mbili	-7.42819
▁yako	-7.44683
-	-7.45952
na	-7.47485
▁muda	-7.47567
▁afya	-7.49099
▁Zaidi	-7.49909
▁K	-7.51553
▁jinsi	-7.51598
▁ikiwa	-7.51929
▁nambari	-7.53041
▁1	-7.53164
(	-7.5329
▁nguvu	-7.53423
napaswa	-7.55107
▁uwezo	-7.57499
▁ali	-7.57789
▁una	-7.5787
!	-7.58429
▁kompyuta	-7.5886
▁biashara	-7.59718
▁kutumika	-7.59744
▁B	-7.60135
▁teknolojia	-7.60613
▁mazingira	-7.60981
▁haraka	-7.6145
▁lakini	-7.61542
▁4.	-7.61566
▁hadithi	-7.62331
▁kuu	-7.62787
▁kina	-7.63443
▁maji	-7.64222
▁kuzingatia	-7.64675
▁matumizi	-7.6521
▁hatua	-7.66341
▁kusaidia	-7.66534
▁joto	-7.66546
▁|	-7.6723
▁m	-7.67964
▁chini	-7.68499
▁yao	-7.69459
▁5.	-7.69599
▁unaweza	-7.70117
▁athari	-7.71424
▁hivyo	-7.71588
▁kuboresha	-7.72378
_	-7.72599
▁lugha	-7.73745
▁matokeo	-7.73995
▁mfumo	-7.76398
▁muundo	-7.76566
&#39;	-7.76972
▁alikuwa	-7.77527
▁uliyopewa	-7.77584
▁ndani	-7.77616
▁H	-7.77992
▁vipengele	-7.7821
▁maandishi	-7.78257
▁mabadiliko	-7.78429
▁Toa	-7.78452
▁2	-7.79664
▁chakula	-7.80346
weza	-7.80607
▁tu	-7.81203
▁5	-7.81703
▁3	-7.8182
▁kuongeza	-7.82041
▁mfano	-7.82257
▁neno	-7.82517
▁upya	-7.83305
▁hiyo	-7.83316
▁mtandaoni	-7.83548
▁fulani	-7.84184
▁kusababisha	-7.8467
▁kitu	-7.84864
▁C	-7.85956
▁huku	-7.86295
▁zinaweza	-7.8734
kuwa	-7.87461
▁sahihi	-7.88517
▁sehemu	-7.88689
▁mashine	-7.88913
▁ambazo	-7.88944
▁Ina	-7.89427
▁ulimwengu	-7.8982
▁ana	-7.91159
ruhusu	-7.92065
▁#	-7.92484
▁shughuli	-7.92681
▁mbalimbali	-7.93644
▁tatu	-7.9408
▁bila	-7.94122
kulingana	-7.94471
▁sababu	-7.94874
▁akili	-7.9534
▁Marekani	-7.95393
▁kuliko	-7.95601
▁zote	-7.95796
▁Wa	-7.97345
likuwa	-7.97665
▁habari	-7.97677
▁sauti	-7.97857
▁Ali	-7.98168
▁maelezo	-7.99359
▁wao	-7.9973
▁Taj	-8.00044
hakikisha	-8.00498
▁Hii	-8.01159
▁mada	-8.01494
▁hisia	-8.01704
▁ufanisi	-8.0248
▁faida	-8.03018
▁mbinu	-8.03026
▁rangi	-8.03079
▁sawa	-8.03603
▁gharama	-8.03818
▁hivi	-8.04355
▁inayo	-8.04431
▁tovuti	-8.05166
▁kuna	-8.0536
po	-8.05778
▁jua	-8.06256
▁hatari	-8.07056
▁kijamii	-8.0763
▁miaka	-8.07631
▁safu	-8.07783
▁kiasi	-8.08814
▁Katika	-8.10163
▁asili	-8.10347
▁karibu	-8.10435
▁nzuri	-8.10493
fanya	-8.10571
▁ndogo	-8.10608
▁zina	-8.10699
▁huu	-8.10774
▁iliyo	-8.10834
▁i	-8.11419
▁yetu	-8.11602
▁mkubwa	-8.11603
▁kufikia	-8.11624
▁kuchukua	-8.11681
▁muhtasari	-8.11892
▁maana	-8.11898
▁zao	-8.12151
▁Tambua	-8.12183
▁sasa	-8.12843
▁kwanza	-8.13084
▁wana	-8.14847
▁vitu	-8.14974
▁huo	-8.15189
▁kunaweza	-8.15221
▁vi	-8.15771
▁furaha	-8.16266
▁rahisi	-8.1641
▁&#39;	-8.16623
lo	-8.17017
▁duniani	-8.17573
▁watumiaji	-8.17658
▁picha	-8.17716
▁usalama	-8.17918
▁eneo	-8.18026
▁Pang	-8.18046
▁wako	-8.18603
▁yangu	-8.19277
▁mifumo	-8.19443
sha	-8.19524
▁jumla	-8.19891
▁pepe	-8.20083
▁nchi	-8.20445
?\	-8.20651
▁taarifa	-8.20686
▁nafasi	-8.20696
▁kutambua	-8.20704
▁mtumiaji	-8.20733
?:	-8.20853
▁+	-8.21964
▁maoni	-8.21973
▁mafuta	-8.22651
▁mawazo	-8.2269
▁mambo	-8.23254
▁kasi	-8.23256
▁uzoefu	-8.23264
▁usiku	-8.23338
x	-8.23453
▁wanaweza	-8.23845
▁mmoja	-8.25235
afuta	-8.25493
▁Hatimaye	-8.25557
u	-8.25676
▁mchakato	-8.26234
▁msingi	-8.26486
▁mtandao	-8.26563
▁hutoa	-8.26923
▁N	-8.27969
▁lazima	-8.28637
ni	-8.29202
▁10	-8.29266
▁ujuzi	-8.30336
▁barua	-8.3036
▁nje	-8.31042
▁mboga	-8.31079
T	-8.31114
▁kampuni	-8.31123
▁mzuri	-8.31392
▁ki	-8.31599
▁wenye	-8.32418
▁zinazo	-8.3311
▁mafanikio	-8.33572
▁maamuzi	-8.33881
▁wanyama	-8.33891
▁safari	-8.34606
▁kupitia	-8.34647
aji	-8.34845
paswa	-8.35405
▁mahitaji	-8.35714
▁kwani	-8.35932
Badilisha	-8.36083
▁kuvutia	-8.36158
▁wote	-8.3719
▁4	-8.375
▁vifaa	-8.3762
▁idadi	-8.37716
▁mitandao	-8.38343
▁ilikuwa	-8.39691
▁algoriti	-8.39841
▁mbaya	-8.40262
pata	-8.40323
▁kiwango	-8.40625
▁John	-8.40727
cho	-8.40951
▁mbadala	-8.41
▁kifungu	-8.4152
▁zake	-8.41539
▁maendeleo	-8.41796
▁mwaka	-8.41846
▁maarufu	-8.42207
▁maswali	-8.42569
▁sifa	-8.42977
▁mawasiliano	-8.43357
mbao	-8.43439
▁yafuatayo	-8.43466
▁b	-8.43509
▁Li	-8.43544
▁yoyote	-8.43755
▁6.	-8.43776
▁maeneo	-8.43884
▁kuweka	-8.43943
▁usahihi	-8.44646
▁matatizo	-8.4496
▁bandia	-8.45401
▁h	-8.45502
▁viwango	-8.45772
▁makala	-8.45788
▁mahali	-8.45814
▁gari	-8.45827
▁upande	-8.45861
▁thamani	-8.46216
▁matukio	-8.4622
▁mwisho	-8.47027
▁ndege	-8.47061
▁ajabu	-8.47134
▁kuelewa	-8.47773
▁pesa	-8.47829
▁tena	-8.4783
▁Fanya	-8.48248
▁bei	-8.48428
▁Pia	-8.48735
▁simu	-8.4878
▁yanaweza	-8.48982
▁hata	-8.4908
▁Pendekez	-8.49085
▁mazoezi	-8.49087
▁unao	-8.49366
je	-8.49435
▁wazi	-8.49475
▁ubunifu	-8.49507
▁kuhifadhi	-8.49807
▁wengine	-8.49932
▁kibinafsi	-8.50356
▁lina	-8.50367
▁mazungumzo	-8.50785
▁familia	-8.51256
▁rasilimali	-8.51643
▁nyumbani	-8.51666
▁dhana	-8.51689
▁k	-8.52064
▁kuongezeka	-8.52563
▁kweli	-8.52675
▁tabia	-8.52947
▁maudhui	-8.53401
▁haya	-8.53502
▁iwe	-8.53753
▁mrefu	-8.53829
▁mteja	-8.53891
▁mwenye	-8.54242
▁ambay	-8.54445
▁kidogo	-8.54714
▁ngumu	-8.5483
▁aki	-8.55673
▁kichwa	-8.55776
▁nyingine	-8.56062
▁zamani	-8.56131
▁uwezekano	-8.56552
▁kujumuisha	-8.56607
esha	-8.56704
▁hili	-8.57025
▁kamili	-8.57341
▁magari	-8.57423
▁yote	-8.57445
▁umeme	-8.57572
▁I	-8.57632
▁V	-8.57855
▁mdogo	-8.57897
▁mwingine	-8.57897
▁salama	-8.58344
▁mengi	-8.58802
▁wanafunzi	-8.58805
ji	-8.59441
▁haki	-8.59486
▁kutatua	-8.59745
▁marafiki	-8.59756
ajili	-8.59776
▁Ili	-8.59915
▁mpango	-8.60207
▁wawili	-8.60256
▁elimu	-8.60721
Weka	-8.61163
▁wavuti	-8.61176
ka	-8.61349
▁Orodh	-8.61846
▁0	-8.6198
▁wastani	-8.62123
▁moyo	-8.62378
▁asilia	-8.62384
▁fursa	-8.62604
▁filamu	-8.62658
▁hutumiwa	-8.62745
▁huwa	-8.62885
▁matibabu	-8.63075
▁tano	-8.63076
▁kanuni	-8.63087
▁kutafuta	-8.63638
▁hilo	-8.64046
▁wali	-8.64213
chafuzi	-8.64265
</	-8.6499
▁umma	-8.65522
▁vyanzo	-8.65523
▁nyumba	-8.65996
▁timu	-8.6602
▁seti	-8.66022
▁7.	-8.66567
▁binadamu	-8.67022
▁ingizo	-8.67544
▁kitabu	-8.67689
▁kikubwa	-8.68036
▁kutengeneza	-8.68138
▁x	-8.68435
▁urefu	-8.68548
▁kabla	-8.69059
2	-8.69261
▁yana	-8.69338
▁chaguo	-8.69619
▁binafsi	-8.70198
▁isiyo	-8.70488
><	-8.70572
▁zilizo	-8.70649
▁malengo	-8.70659
y	-8.70739
▁bahari	-8.71186
tumia	-8.71435
▁kipekee	-8.71662
▁uhusiano	-8.71669
▁sheria	-8.71769
▁awali	-8.72192
▁kiotomatiki	-8.72724
▁ime	-8.73073
▁mwanga	-8.73154
▁uli	-8.73346
▁Wakati	-8.73429
▁wengi	-8.73793
▁ununuzi	-8.73797
▁jambo	-8.73813
▁serikali	-8.73813
▁mbali	-8.73866
▁anaye	-8.74054
unda	-8.74067
▁ma	-8.74282
▁mwili	-8.7431
▁kadhaa	-8.74336
▁mchezo	-8.74354
▁maarifa	-8.7488
▁msimbo	-8.7488
▁hai	-8.74944
▁kukuza	-8.74974
▁moto	-8.74984
▁mpangilio	-8.75428
):	-8.75812
▁viungo	-8.75976
▁8	-8.76452
▁nyenzo	-8.76528
▁urahisi	-8.76548
▁maalum	-8.76782
▁kudhibiti	-8.76966
▁Na	-8.77056
▁utafiti	-8.77091
▁tukio	-8.77265
▁mimea	-8.77643
▁upepo	-8.77734
▁baada	-8.78142
pande	-8.78148
▁chanya	-8.78521
▁hapa	-8.78711
▁swali	-8.7877
▁kufuatilia	-8.78802
▁anga	-8.78936
▁vizuri	-8.79388
▁kuchunguza	-8.794
▁saa	-8.79535
▁makubwa	-8.79909
▁shairi	-8.79927
▁J	-8.80459
▁6	-8.80513
▁nchini	-8.80534
ongezek	-8.80764
▁huko	-8.80971
▁vina	-8.81087
▁alama	-8.81302
Ongeza	-8.81421
▁umuhimu	-8.81651
▁uuzaji	-8.81652
wezesha	-8.81905
▁pa	-8.82128
▁Tumi	-8.82201
▁zingine	-8.82228
▁si	-8.82415
▁kuona	-8.82514
▁hapo	-8.82876
▁kusoma	-8.82892
▁baridi	-8.83004
.&	-8.83008
▁wanao	-8.83262
▁R	-8.83286
ainisha	-8.83326
▁manufaa	-8.83408
▁hizi	-8.83413
▁michezo	-8.83528
chukua	-8.84508
idi	-8.84603
▁uso	-8.84628
▁linalo	-8.84835
▁utambuzi	-8.85206
▁kubadilisha	-8.85222
▁huyo	-8.85238
▁iki	-8.85311
▁miti	-8.8581
▁dakika	-8.85969
▁zana	-8.86341
▁uchumi	-8.8644
▁usaidizi	-8.86452
▁jamii	-8.86509
▁jina	-8.86725
▁vyema	-8.87034
▁uzalishaji	-8.87038
▁uchanganuzi	-8.87048
maanisha	-8.87086
▁hutumia	-8.87091
▁fupi	-8.87119
▁kupanga	-8.87169
▁Siku	-8.87391
▁kuruhusu	-8.87552
▁kikombe	-8.87673
▁kuifanya	-8.87684
▁D	-8.88044
▁maagizo	-8.88292
▁wangu	-8.88466
▁Teknolojia	-8.8858
▁roboti	-8.88891
▁viwili	-8.88898
▁kisha	-8.88945
▁F	-8.88968
▁halisi	-8.8899
▁majuzi	-8.89529
▁8.	-8.89569
▁kauli	-8.90159
▁changamoto	-8.9016
▁mkuu	-8.9016
▁kale	-8.90164
▁herufi	-8.90253
hitaji	-8.90334
▁wetu	-8.90887
jumuisha	-8.90951
▁zenye	-8.91437
▁kwenda	-8.91449
toa	-8.91456
nganisha	-8.91575
▁mvua	-8.92107
▁dh	-8.9212
▁ume	-8.92557
;.	-8.92581
▁ubora	-8.92789
▁anaweza	-8.92813
▁Kujifunza	-8.92889
▁Ma	-8.93061
anza	-8.93607
▁karatasi	-8.93709
▁ujumla	-8.94047
▁hoja	-8.94084
▁mstari	-8.94177
▁Vita	-8.94193
onyesha	-8.948
▁utulivu	-8.94802
▁zifuatazo	-8.95372
▁vingine	-8.95383
▁mawili	-8.95394
▁kujenga	-8.95402
▁usafiri	-8.95412
▁kushiriki	-8.95896
taka	-8.96614
▁husaidia	-8.96769
▁kuokoa	-8.96769
▁Tung	-8.97279
▁walio	-8.97297
▁jiji	-8.97371
▁uaminifu	-8.97399
▁kabisa	-8.97399
▁uchunguzi	-8.97404
▁historia	-8.97428
pewa	-8.97448
▁kuleta	-8.97602
▁Dunia	-8.97628
▁uki	-8.97636
hi	-8.9776
▁ulikuwa	-8.97824
▁suala	-8.98084
▁viumbe	-8.98085
▁ita	-8.98314
▁wasiwasi	-8.98773
▁makosa	-8.98775
▁watoto	-8.98832
saidia	-8.9907
sababisha	-8.99081
▁soko	-8.99441
▁kuishi	-8.99465
▁kimataifa	-8.99468
▁miundo	-8.99468
▁duka	-8.99688
▁Inawez	-8.99709
▁kidijitali	-9.00167
▁tatizo	-9.00167
▁magonjwa	-9.00168
▁ufikiaji	-9.00168
▁malipo	-9.00184
▁wanadamu	-9.00229
▁kisasa	-9.0027
▁bustani	-9.00864
▁kaboni	-9.00871
▁kipengele	-9.00897
▁leo	-9.00941
▁ulio	-9.01236
▁kiuchumi	-9.01581
▁kuchakata	-9.01589
▁kuendelea	-9.01667
▁Kila	-9.01785
▁mbele	-9.02359
▁kununua	-9.02411
▁aka	-9.02479
▁hati	-9.02581
▁mwezi	-9.0266
▁amani	-9.02708
▁Paka	-9.02867
▁mradi	-9.03014
▁Mfumo	-9.03166
▁kali	-9.03413
▁10.	-9.03487
▁hesabu	-9.03495
▁2:	-9.03597
▁wowote	-9.03739
▁Pata	-9.03765
▁kijiko	-9.03769
▁nyota	-9.03803
▁zime	-9.04349
▁hifadhidata	-9.04469
▁ujasiri	-9.04535
▁kimwili	-9.05204
▁hatimaye	-9.05205
▁kijani	-9.0523
▁Chagu	-9.05307
▁vitabu	-9.05369
▁gesi	-9.05945
▁fedha	-9.05969
▁vinavyo	-9.06
▁def	-9.06156
▁kuelezea	-9.06429
▁macho	-9.06684
▁kurekebisha	-9.06697
tumika	-9.06916
vyo	-9.07252
▁zi	-9.07363
▁Njia	-9.0738
▁nyuma	-9.07443
▁tayari	-9.07445
▁usawa	-9.07469
▁aya	-9.07471
hisi	-9.07698
▁Kuna	-9.07883
▁mengine	-9.08207
▁vitunguu	-9.08225
▁mtindo	-9.08231
▁utendaji	-9.084
▁kilicho	-9.08522
▁Wana	-9.08725
▁zisizo	-9.08934
▁maadili	-9.08966
ye	-9.09015
▁pili	-9.0905
▁Jua	-9.09717
▁ukuaji	-9.09747
▁kucheza	-9.09787
▁Baada	-9.09897
▁giza	-9.10482
▁bado	-9.1051
▁ujumbe	-9.10514
leta	-9.10577
onekana	-9.10673
▁mhusika	-9.11297
▁kuchanganua	-9.11302
▁ukurasa	-9.11305
▁cm	-9.11677
▁Programu	-9.11766
ariri	-9.12018
▁Nina	-9.12066
▁jukumu	-9.12077
▁ziada	-9.12077
▁kugundua	-9.12191
▁ladha	-9.12898
▁kum	-9.13256
d	-9.13631
▁kile	-9.13732
▁ulimwenguni	-9.13762
▁Hatua	-9.13849
▁safi	-9.14261
▁kote	-9.14509
efu	-9.14532
pendekeza	-9.14615
▁kuonyesha	-9.14649
).	-9.14836
▁kifedha	-9.1529
▁karibuni	-9.15366
▁vyakula	-9.1539
aadhi	-9.15972
▁neva	-9.1611
gt	-9.16283
=\"	-9.16703
▁mi	-9.16873
▁utendakazi	-9.16936
▁chanzo	-9.16937
namo	-9.17013
com	-9.17587
julikana	-9.17754
▁msitu	-9.17771
▁pilipili	-9.17772
▁iliyotolewa	-9.17778
▁wenyewe	-9.17787
▁majaribio	-9.17797
▁mbwa	-9.17821
▁laini	-9.17895
▁ame	-9.17996
▁Mtandao	-9.18153
▁jioni	-9.1861
▁rasmi	-9.18637
▁dukani	-9.18642
▁angani	-9.18649
▁kuendesha	-9.18667
jaribu	-9.18686
weka	-9.1875
A	-9.19131
ana	-9.19404
▁kulinda	-9.19486
▁mtazamo	-9.19489
▁kuzuia	-9.19508
▁kupanda	-9.19518
▁v	-9.196
▁2,	-9.20063
▁shida	-9.20312
▁kukokotoa	-9.20322
▁mwenyewe	-9.20326
▁Python	-9.2034
▁kukabiliana	-9.20351
▁kifuatacho	-9.20388
▁wingu	-9.20437
▁muziki	-9.20883
tengeneza	-9.20943
▁9.	-9.21007
▁mchanganyiko	-9.21179
▁kuji	-9.21203
▁hisa	-9.21223
▁India	-9.21281
▁Ki	-9.21993
itwa	-9.21997
joo	-9.22062
▁kutokea	-9.22118
▁ndoto	-9.22121
▁otomatiki	-9.22121
▁ukubwa	-9.22124
▁kuandika	-9.22134
▁G	-9.22577
▁tasnia	-9.22921
▁ufuatao	-9.22921
▁kutekeleza	-9.2294
▁pembetatu	-9.23001
▁wafanyikazi	-9.23033
▁uhuru	-9.23049
▁*	-9.23425
▁shule	-9.23781
▁wimbo	-9.23806
▁zijazo	-9.23806
rudisha	-9.24003
▁matatu	-9.247
▁lilikuwa	-9.24749
▁kubuni	-9.24767
▁Ufaransa	-9.24829
▁kuanza	-9.24889
▁vilivyo	-9.24979
▁Mtu	-9.25613
▁ukos	-9.25618
▁lake	-9.25769
▁uzuri	-9.25888
td	-9.25942
▁zetu	-9.26509
▁mafunzo	-9.26509
▁mapya	-9.26509
▁sayari	-9.2651
▁masuala	-9.26513
▁kupendeza	-9.26519
▁uamuzi	-9.2652
▁mikakati	-9.26524
▁vipande	-9.26557
▁matunda	-9.26557
▁upendo	-9.26642
ona	-9.27031
▁Ikiw	-9.27123
▁4,	-9.27387
▁sera	-9.27429
▁utoaji	-9.2743
▁mitindo	-9.27436
▁GPT	-9.27459
▁hiki	-9.27468
ja	-9.27649
▁sio	-9.27859
▁chache	-9.28352
▁chumvi	-9.28352
▁mpira	-9.28352
▁suluhisho	-9.28352
▁mapato	-9.28353
▁ushirikiano	-9.28353
▁kuwasiliana	-9.28408
cha	-9.28424
▁kudumisha	-9.28453
▁The	-9.28496
▁wafanyakazi	-9.2866
zi	-9.28693
▁Nili	-9.28852
mekuwa	-9.28915
▁kinacho	-9.29141
▁kampeni	-9.29289
▁michakato	-9.29292
▁halijoto	-9.29302
▁wahusika	-9.29611
▁wame	-9.29885
▁chapa	-9.29995
▁kula	-9.30201
▁video	-9.3023
▁Pato	-9.30232
▁sufuria	-9.30262
▁walikuwa	-9.30365
▁ukweli	-9.30372
▁==	-9.30507
ma	-9.3059
▁wazo	-9.30789
▁P	-9.3095
▁usimamizi	-9.3119
▁utafutaji	-9.31191
nayoweza	-9.31241
▁katikati	-9.31517
▁kitenzi	-9.31543
▁Kompyuta	-9.31598
▁vita	-9.31692
▁aliye	-9.31822
▁ardhi	-9.32117
▁mkono	-9.32117
tokana	-9.32125
▁miwili	-9.32144
▁makazi	-9.32146
▁Aina	-9.32185
▁kukaa	-9.32186
▁Akili	-9.32454
▁zawadi	-9.32564
▁kumbukumbu	-9.33115
▁vyote	-9.33115
▁usemi	-9.33122
▁udhibiti	-9.33135
▁kukamilisha	-9.33143
▁lili	-9.33217
▁nafuu	-9.33306
▁shirika	-9.33388
▁Faida	-9.33539
▁taka	-9.3358
▁siri	-9.3376
▁s	-9.33851
ishi	-9.33911
m	-9.33969
▁pekee	-9.34203
▁toa	-9.34822
▁uta	-9.35053
▁plastiki	-9.35085
▁mwelekeo	-9.35085
▁kutosha	-9.35128
▁Amerika	-9.35175
▁kurudi	-9.35186
▁nayo	-9.35252
▁seli	-9.35291
▁sayansi	-9.35475
ko	-9.35517
▁mwa	-9.35524
▁Kisha	-9.35857
▁Kiingereza	-9.36085
▁lishe	-9.36086
▁tija	-9.36086
▁bidii	-9.36087
▁ufahamu	-9.36108
▁basi	-9.36121
▁kujibu	-9.36124
▁kujaribu	-9.36295
▁dunia	-9.36334
▁nina	-9.36348
;&	-9.36364
▁zili	-9.36795
au	-9.3698
▁lenye	-9.37093
▁mifano	-9.37117
▁kupiga	-9.37158
▁rafiki	-9.37247
gundua	-9.37305
▁kutazama	-9.37347
▁Mfano	-9.3736
▁baad	-9.37396
▁mji	-9.37442
b	-9.37564
▁uvumbuzi	-9.38119
undwa	-9.38394
▁lako	-9.38461
tafuta	-9.38978
▁asubuhi	-9.39147
▁uwanja	-9.39158
▁hakuna	-9.39218
▁c	-9.39325
Jina	-9.39386
▁5,	-9.39727
▁zako	-9.39872
hali	-9.40013
▁paka	-9.40061
▁Mara	-9.40102
▁y	-9.4015
▁mfupi	-9.40189
▁hasara	-9.40191
▁kupima	-9.40197
▁zinazohusiana	-9.40203
▁iliyopita	-9.40204
▁insha	-9.40205
▁dawa	-9.40213
▁mzunguko	-9.40222
▁angahewa	-9.40244
▁chake	-9.40351
▁thabiti	-9.40401
▁Data	-9.40584
zo	-9.40698
▁jibu	-9.40867
▁endelevu	-9.40886
▁Hapo	-9.40901
angazia	-9.40924
▁kubadilika	-9.41303
▁Tofauti	-9.41335
binu	-9.41434
▁hufanya	-9.41501
▁kutabiri	-9.41655
enda	-9.41678
▁3,	-9.41678
▁waki	-9.41949
si	-9.42189
▁Bandia	-9.42305
▁akaunti	-9.42305
▁vidokezo	-9.42305
▁kikuu	-9.42306
▁Tuna	-9.4245
▁badala	-9.42465
▁kuto	-9.42494
▁angavu	-9.42523
▁yanayo	-9.42679
▁mikono	-9.43356
▁motisha	-9.43381
▁kupungua	-9.43401
▁kuanzia	-9.43419
▁usio	-9.43619
▁7	-9.43672
k	-9.43895
▁zinazowez	-9.44438
▁muktadha	-9.44467
▁vigezo	-9.44467
▁kisiasa	-9.44467
▁mojawapo	-9.44491
▁kulinganisha	-9.44559
▁mawimbi	-9.44564
ya	-9.44613
▁uharibifu	-9.4463
▁Ana	-9.44718
▁wale	-9.44761
M	-9.44792
▁bluu	-9.44816
1	-9.44909
▁nzima	-9.45569
▁darasa	-9.45591
▁uboreshaji	-9.4562
▁kushughulikia	-9.45628
▁<	-9.45638
▁ukitumia	-9.45644
▁lililo	-9.45705
badilisha	-9.45778
la	-9.46365
D	-9.46503
▁vitatu	-9.46644
http	-9.46677
▁suluhu	-9.46677
▁kifaa	-9.46682
▁majibu	-9.46693
▁bajeti	-9.46713
▁mwanafunzi	-9.46713
▁kuanzisha	-9.46758
▁kuunganisha	-9.46809
lenga	-9.47002
▁sanaa	-9.47174
▁kuku	-9.47202
▁Yeye	-9.47749
▁kutisha	-9.47807
▁mnyama	-9.47922
▁hasi	-9.47977
madhumuni	-9.48048
▁Huduma	-9.48161
▁nomino	-9.48358
▁kitamaduni	-9.48937
▁riwaya	-9.48937
▁lebo	-9.48937
▁ujifunzaji	-9.48938
▁mkusanyiko	-9.4894
▁lengo	-9.48976
▁kukusanya	-9.48998
▁majira	-9.49092
ongezeka	-9.49514
▁Apple	-9.49705
▁linawez	-9.49975
;,	-9.50031
▁ndefu	-9.50086
▁hizo	-9.50088
▁Uingereza	-9.50455
pitia	-9.50849
▁kutathmini	-9.51117
li	-9.51155
▁Kuwa	-9.51209
▁shauku	-9.5125
▁mashirika	-9.51255
▁imekuwa	-9.51347
;.:	-9.51455
▁il	-9.51497
▁Watu	-9.51812
▁tarehe	-9.51828
://	-9.52059
▁Bidhaa	-9.52175
▁kadi	-9.52423
▁polepole	-9.52426
▁matumaini	-9.52428
▁urafiki	-9.52428
▁majukumu	-9.5243
▁zinazowezekana	-9.52432
▁tamaa	-9.52439
▁ushauri	-9.52447
▁sitiari	-9.52464
▁kusafiri	-9.5249
▁mahiri	-9.52532
▁msaada	-9.52533
h	-9.52636
kutana	-9.52739
safiri	-9.52852
▁Ingawa	-9.52872
endelea	-9.53033
B	-9.5309
▁mahususi	-9.53616
▁mapema	-9.53617
▁sekta	-9.53619
▁uwazi	-9.53658
▁janga	-9.53662
amua	-9.53775
▁New	-9.53777
takuwa	-9.53828
▁kimaadili	-9.54821
▁lifuatalo	-9.54821
▁chochote	-9.54821
▁nyekundu	-9.54821
▁Hali	-9.54857
▁sahani	-9.5486
▁benki	-9.5486
▁mauzo	-9.54867
▁chumba	-9.55035
▁machungwa	-9.55068
▁Mabadiliko	-9.55208
▁nne	-9.55443
▁akiwa	-9.55525
▁yasiyo	-9.55538
tazama	-9.55628
▁Uki	-9.55676
▁9	-9.55822
▁ruwaza	-9.5604
▁usindikaji	-9.56067
▁changamano	-9.56084
▁kuchagua	-9.56118
▁Kanuni	-9.56149
▁kufurahisha	-9.56152
▁nyama	-9.56157
▁Hata	-9.56302
;:	-9.5648
▁wiki	-9.56504
▁vipi	-9.56856
▁Z	-9.56919
▁ulilopewa	-9.57275
▁ratiba	-9.57275
▁Kwanza	-9.57285
▁kutumiwa	-9.57308
▁ishara	-9.57315
▁Mashine	-9.57315
ueleze	-9.57377
▁kuangalia	-9.57401
▁kueleke	-9.57417
(&	-9.58096
chunguza	-9.58379
itandao	-9.58467
▁imani	-9.58526
▁ushindani	-9.58566
▁sarufi	-9.58566
▁1/2	-9.58568
▁tuna	-9.58739
▁Unaweza	-9.58773
▁Hu	-9.58844
▁Jina	-9.58867
AI	-9.58984
lt	-9.59058
▁nili	-9.5964
▁12	-9.59641
▁O	-9.59695
▁chenye	-9.59781
▁injini	-9.59791
▁hadhira	-9.59794
▁ubashiri	-9.59827
▁kemikali	-9.59833
▁kuridhika	-9.59857
▁kuwezesha	-9.60476
c	-9.60676
3	-9.60979
▁dhoruba	-9.61073
▁Lakini	-9.61073
▁uwekezaji	-9.61076
▁barabara	-9.6116
▁tunaweza	-9.61162
=	-9.61189
bali	-9.61516
baki	-9.61857
▁mapinduzi	-9.6186
we	-9.62284
▁vingi	-9.62371
▁mapendekezo	-9.62372
▁mwingiliano	-9.62372
▁mchana	-9.62372
▁uelewa	-9.62381
▁kupumzika	-9.62393
▁kurahisisha	-9.62418
▁Muundo	-9.62487
▁itakuwa	-9.62488
▁kuonekana	-9.62611
▁anuwai	-9.62759
▁unga	-9.62904
▁Vi	-9.63021
j	-9.63319
▁mkakati	-9.63687
▁utamaduni	-9.63687
▁takriban	-9.63688
▁kibinadamu	-9.63688
▁kisayansi	-9.6369
▁mfuatano	-9.63734
▁kulala	-9.63896
arne	-9.63953
▁Kazi	-9.63953
ki	-9.63964
▁Sentensi	-9.64036
▁Google	-9.64111
▁Ujerumani	-9.65023
▁mraba	-9.65024
▁kipindi	-9.65027
▁masomo	-9.65065
▁kodi	-9.65088
▁rekodi	-9.65112
▁ustawi	-9.65115
▁kupatikana	-9.65137
▁upendeleo	-9.65149
▁jedwali	-9.65217
▁Biashara	-9.65294
U	-9.6562
naweza	-9.65674
tia	-9.65677
▁Ilikuwa	-9.66263
▁viwanda	-9.66346
endeshwa	-9.66358
▁mingi	-9.6637
▁miezi	-9.66372
▁seva	-9.66372
▁juhudi	-9.66373
▁vyombo	-9.66373
▁mapumziko	-9.66374
▁kupumua	-9.66374
▁mkate	-9.66378
▁mkali	-9.66378
▁kusisimua	-9.66385
▁mimi	-9.66391
▁kikundi	-9.66395
▁kipande	-9.66434
▁Mi	-9.66458
▁kuruka	-9.66596
▁kuwasaidia	-9.66863
saidizi	-9.67483
▁mafupi	-9.67742
▁kiangazi	-9.67743
▁kuzalisha	-9.67774
r	-9.6778
▁kuwekeza	-9.67795
▁E	-9.67862
1:	-9.6789
▁kukimbia	-9.67993
andika	-9.68174
▁Gharama	-9.68183
▁Safu	-9.68183
punguza	-9.68492
▁Kampuni	-9.68907
▁kamwe	-9.69131
▁kategoria	-9.69131
▁milioni	-9.69133
▁Mapinduzi	-9.69176
▁mayai	-9.69176
▁uzito	-9.69196
▁ndio	-9.69197
▁kujitolea	-9.69199
▁kufuata	-9.69314
▁mali	-9.69342
▁wachezaji	-9.69385
▁Kutumia	-9.69672
▁wingi	-9.70539
▁dioksidi	-9.7054
▁kuendeleza	-9.70566
▁maziwa	-9.70585
▁msaidizi	-9.70588
▁kushangaza	-9.7061
▁kupita	-9.7062
▁unapo	-9.70649
▁Hadithi	-9.70748
▁kuondo	-9.70774
zingatia	-9.70891
ia	-9.71562
▁the	-9.71902
▁jukwaa	-9.71934
www	-9.71967
▁umri	-9.71968
▁bakuli	-9.71968
▁spishi	-9.71969
▁baiskeli	-9.71969
▁umbali	-9.7197
▁kichawi	-9.71972
▁makampuni	-9.71976
▁hofu	-9.72018
▁mtoto	-9.72021
▁kuoka	-9.72037
▁Chuku	-9.72081
wahi	-9.72131
▁kueleza	-9.72148
▁Nishati	-9.72178
▁shujaa	-9.72258
napenda	-9.72391
▁20	-9.72413
;\	-9.72457
ng	-9.72655
▁Mbwa	-9.72684
▁mto	-9.72758
▁6,	-9.73078
▁2020	-9.73155
▁Amazon	-9.7329
▁mchanga	-9.73408
▁York	-9.73417
▁jibini	-9.73417
▁mazuri	-9.73417
▁modeli	-9.73417
▁siagi	-9.73417
▁punde	-9.7342
▁heshima	-9.73422
▁yanayohusiana	-9.73424
▁vitano	-9.73426
▁uhifadhi	-9.73451
▁virusi	-9.7347
▁sukari	-9.73547
moja	-9.73658
▁Nguvu	-9.73715
elezea	-9.7386
▁8,	-9.74066
er	-9.74139
▁kukata	-9.74199
▁kamba	-9.74317
patikana	-9.74803
chapisho	-9.74876
hanganua	-9.74879
▁mandhari	-9.74888
▁ufafanuzi	-9.74888
▁majani	-9.74889
▁mamlaka	-9.74889
▁pwani	-9.74891
▁uliotolewa	-9.74894
▁keki	-9.74936
▁usingizi	-9.74943
▁mkutano	-9.75029
▁tufaha	-9.75105
▁mti	-9.7516
▁mistari	-9.75197
▁kuzunguka	-9.75304
▁kufikiria	-9.75488
▁int	-9.75523
▁yali	-9.75597
▁Athari	-9.75707
▁Lo	-9.75946
himiz	-9.7618
▁hisabati	-9.7638
▁vifuatavyo	-9.7638
▁vivumishi	-9.7638
▁kelele	-9.76381
▁uhalifu	-9.76382
▁molekuli	-9.76383
▁uangalifu	-9.76383
▁uainishaji	-9.76386
▁Niambie	-9.7639
▁ukuzaji	-9.76392
▁chuo	-9.764
▁kutafakari	-9.764
▁mgonjwa	-9.76434
▁ndizi	-9.76441
▁haiku	-9.76456
▁tulivu	-9.76515
kiwa	-9.76518
▁faragha	-9.766
▁15	-9.76692
▁yaliyo	-9.7698
▁Nambari	-9.7713
▁ripoti	-9.77141
kundi	-9.77147
▁Habari	-9.77219
▁iliyokatwa	-9.77848
▁mipango	-9.77895
▁nyeusi	-9.77895
▁uthibitishaji	-9.77896
▁maua	-9.77898
▁kiumbe	-9.77901
▁kufikiwa	-9.77909
▁madhara	-9.77911
▁utaratibu	-9.77922
▁ushawishi	-9.77924
▁uund	-9.77936
▁kudumu	-9.77944
▁baharini	-9.77973
▁kuwasilisha	-9.78005
▁nyanya	-9.78029
▁iko	-9.78085
▁haku	-9.78157
▁umbo	-9.78307
▁lime	-9.78727
▁Anga	-9.78772
-19	-9.78811
▁washiriki	-9.78983
▁Hakuna	-9.79252
▁tweet	-9.79416
▁sherehe	-9.79434
▁kibichi	-9.79436
▁nyeupe	-9.79436
▁mabaya	-9.79438
▁upatikanaji	-9.79445
▁kui	-9.79468
▁kujua	-9.79521
▁kuingia	-9.79532
▁husababisha	-9.79547
▁kuzungumza	-9.79618
▁wewe	-9.79654
<	-9.79692
l	-9.79696
ti	-9.79902
▁angal	-9.79953
▁inahitaji	-9.79989
▁nakala	-9.80115
chukuliwa	-9.8017
▁kuzi	-9.80322
jitahidi	-9.80844
▁kijiji	-9.8097
▁taswira	-9.80996
▁blogu	-9.80996
▁matano	-9.80997
▁barafu	-9.80999
▁vigumu	-9.81003
▁inayofaa	-9.81004
▁miji	-9.81004
▁wapya	-9.81023
▁kimoja	-9.81024
▁kukusaidia	-9.81028
▁huzuni	-9.81048
▁kielelezo	-9.81048
▁faili	-9.81048
▁kahawa	-9.81048
▁mamalia	-9.81049
▁inayotumika	-9.81054
▁HTML	-9.81136
▁kichocheo	-9.81136
▁nadharia	-9.81136
f	-9.81289
▁arr	-9.81484
ili	-9.81873
eleza	-9.81952
▁Utafiti	-9.82072
fu	-9.82321
husiana	-9.82447
▁kiafya	-9.82584
▁uhakika	-9.82584
▁makini	-9.82584
▁ulichopewa	-9.82585
▁mtiririko	-9.82586
▁uendeshaji	-9.82587
▁kushinda	-9.82588
▁upangaji	-9.82623
▁mkononi	-9.82628
▁mshangao	-9.82636
▁anwani	-9.82636
▁jaribio	-9.82636
▁msimu	-9.82639
▁hutumik	-9.8267
▁yame	-9.8271
▁chembe	-9.82911
▁Inapaswa	-9.82919
▁inayowez	-9.83022
▁1,	-9.83157
▁Kula	-9.83339
▁Roboti	-9.83368
▁yalikuwa	-9.8341
nahitaji	-9.83616
;)	-9.83768
!&	-9.84099
▁Tathmini	-9.84197
▁chaguzi	-9.84197
▁ipasavyo	-9.84197
▁nguo	-9.84199
▁miguu	-9.8425
▁Rais	-9.84253
▁mwendo	-9.84363
us	-9.84475
▁Afya	-9.84529
▁halali	-9.84535
▁chafu	-9.8455
zungumza	-9.84773
fungua	-9.84808
▁7,	-9.84885
isha	-9.85208
arr	-9.85259
▁nyan	-9.85778
▁upotevu	-9.85838
▁uliopita	-9.85849
▁utumiaji	-9.85851
▁nyuzi	-9.8589
▁pointi	-9.85899
chakato	-9.85948
▁Lugha	-9.85982
▁Algorithm	-9.85983
▁Ulaya	-9.86077
▁Ulimwengu	-9.86146
▁Ndege	-9.86462
▁kwake	-9.86961
▁umakini	-9.87495
Hesabu	-9.87503
▁blockchain	-9.87503
▁zozote	-9.87503
▁kubadilishwa	-9.87547
▁msichana	-9.8758
▁Mpango	-9.87653
yenye	-9.87684
▁kilikuwa	-9.87688
▁Ndiyo	-9.87748
▁milele	-9.8775
▁Ime	-9.87767
▁kura	-9.87895
▁Hifadhi	-9.88038
▁Mimi	-9.88091
no	-9.88175
▁Alice	-9.88448
le	-9.88803
ke	-9.88921
▁lita	-9.8896
akikisha	-9.88988
▁jumuiya	-9.89198
shukuru	-9.892
▁maktaba	-9.89202
▁mwandishi	-9.89209
▁theluji	-9.89254
▁hotuba	-9.8926
▁vitendo	-9.89262
▁samaki	-9.89349
ra	-9.89352
soma	-9.89404
▁ikolojia	-9.89448
kula	-9.89474
changanya	-9.89487
▁Amu	-9.8949
▁nodi	-9.89725
▁kulia	-9.90039
▁Nchi	-9.90587
tengenezwa	-9.9065
The	-9.90708
▁kisicho	-9.90902
▁ijayo	-9.90922
▁ufukweni	-9.90922
▁maombi	-9.90922
▁kikamilifu	-9.90922
▁ustadi	-9.90926
▁uhandisi	-9.90953
▁usafirishaji	-9.90985
▁Kanada	-9.91076
▁Bahari	-9.91077
▁utabiri	-9.91091
▁Maisha	-9.91168
▁Sheria	-9.91175
▁maili	-9.91294
fikia	-9.92443
ababu	-9.92524
▁W	-9.92613
▁jadi	-9.92657
▁mwingi	-9.92673
▁majukwaa	-9.92676
▁muunganisho	-9.92676
▁oksijeni	-9.92676
▁Rangi	-9.92676
▁vikwazo	-9.92676
▁ushahidi	-9.92677
▁mkopo	-9.92678
▁nusu	-9.92678
▁kozi	-9.9268
▁utambulisho	-9.92681
▁mwongozo	-9.92687
▁kusafisha	-9.92691
▁makundi	-9.92695
▁kutoweka	-9.9271
▁hasa	-9.92729
▁visivyo	-9.92796
▁Jibu	-9.92833
▁11	-9.93103
ongeza	-9.93271
▁vinavyowez	-9.93307
kana	-9.93534
▁100	-9.94231
▁Mada	-9.94261
5	-9.94351
kwenda	-9.94374
▁mtihani	-9.94462
▁vipengee	-9.94462
▁mawingu	-9.94463
▁hitimisho	-9.94463
▁ajira	-9.94463
▁mitatu	-9.94465
▁kilimo	-9.94469
▁ukaguzi	-9.94472
▁kipimo	-9.94473
▁kujali	-9.94505
▁kushindwa	-9.94515
▁quantum	-9.9452
▁Tabia	-9.94524
▁inayoonyesha	-9.94541
▁tabaka	-9.94621
▁Mwezi	-9.94626
▁kwako	-9.94853
▁Kitu	-9.94958
nM	-9.95179
shwa	-9.95242
g	-9.95315
▁huru	-9.95519
▁Mteja	-9.95566
ondoa	-9.96151
▁jipya	-9.9628
▁mchoro	-9.9628
▁protini	-9.9628
▁ujao	-9.9628
▁kisarufi	-9.9628
▁kipya	-9.96281
▁hicho	-9.96284
▁miradi	-9.96285
▁unaofaa	-9.96286
▁kuingiliana	-9.96317
▁mwanamke	-9.9634
▁kuenea	-9.96361
▁mwonekano	-9.96443
▁wasifu	-9.96542
▁Matokeo	-9.96551
()	-9.96591
▁nenosiri	-9.96723
ruka	-9.96734
▁tamu	-9.96824
▁baadaye	-9.96901
▁print	-9.97085
▁Hiv	-9.97504
▁kukua	-9.98011
▁ziki	-9.98074
ua	-9.98121
▁unge	-9.98132
kidhi	-9.98132
▁daima	-9.98133
▁utangazaji	-9.98134
▁nyakati	-9.98134
▁upole	-9.98135
▁magumu	-9.98136
▁mfululizo	-9.98139
▁msituni	-9.98191
▁Mstari	-9.98193
▁kitamu	-9.98301
▁jasiri	-9.98397
▁Kadiri	-9.98408
▁Pa	-9.98489
▁Nyota	-9.98514
▁Furaha	-9.98516
zidi	-9.98732
▁Ene	-9.9876
▁Wali	-9.98967
lia	-9.99003
▁Ninge	-9.9923
paka	-9.99315
jifunza	-9.99583
▁pembe	-9.99995
▁rununu	-10.0002
▁yeyote	-10.0002
▁uwasilishaji	-10.0002
▁pembejeo	-10.0002
▁uteuzi	-10.0003
▁hitilafu	-10.0003
▁Kuhesabu	-10.0004
▁kuimarisha	-10.0005
▁Kama	-10.0007
▁kurejesha	-10.0007
▁nasibu	-10.0008
▁Viungo	-10.0008
▁hakika	-10.0011
▁hao	-10.0012
▁kumaliza	-10.0014
▁dhahabu	-10.0019
I	-10.0024
▁return	-10.003
▁li	-10.0053
▁aliweza	-10.0058
▁kuhimiz	-10.0064
▁Elimu	-10.0074
▁kutu	-10.0075
▁Chakula	-10.0096
▁kuwap	-10.0116
▁inge	-10.0133
▁d	-10.0135
▁nembo	-10.0194
▁udongo	-10.0194
▁Fikiri	-10.0194
▁viazi	-10.0194
▁kifo	-10.0194
▁tamaduni	-10.0194
▁kinachofaa	-10.0194
▁ufuo	-10.0195
▁utekelezaji	-10.0195
▁Kusini	-10.02
▁kiolesura	-10.0201
▁kutangaza	-10.0204
▁kufurahia	-10.0204
▁langu	-10.0206
ing	-10.0213
▁uwepo	-10.0214
▁Fupi	-10.0214
▁husika	-10.0219
▁len	-10.0221
es	-10.0229
▁Neno	-10.0232
Nipe	-10.0233
▁Vipengele	-10.0235
▁digrii	-10.0245
▁Kiwango	-10.0247
▁ungependa	-10.025
▁ndiy	-10.0255
▁yeye	-10.0256
▁upe	-10.0281
husisha	-10.0313
?&	-10.0366
anzisha	-10.0387
▁ushiriki	-10.0387
▁likizo	-10.0387
▁burudani	-10.039
▁punguzo	-10.039
▁raia	-10.039
▁ushuru	-10.039
▁makuu	-10.039
▁mwanadamu	-10.039
▁mapendeleo	-10.0391
▁linalofaa	-10.0391
▁matarajio	-10.0391
▁zinazofaa	-10.0391
▁kinyume	-10.0391
▁mpaka	-10.0396
▁kuepuka	-10.0396
▁Wanyama	-10.0397
▁kuandaa	-10.0402
▁kusema	-10.0402
▁daraja	-10.0408
▁ipi	-10.0413
tr	-10.0415
▁kuuliza	-10.0415
▁in	-10.043
▁pato	-10.0436
▁Kweli	-10.0442
▁of	-10.047
▁niki	-10.0493
acha	-10.0513
panga	-10.0521
▁j	-10.0581
▁uwongo	-10.059
▁shinikizo	-10.059
▁kesi	-10.059
▁mchuzi	-10.0591
▁ugonjwa	-10.0591
▁alipo	-10.0593
tangu	-10.0596
▁Gatsby	-10.0597
▁takwimu	-10.0597
▁uchaguzi	-10.0597
▁Mazoezi	-10.0597
▁unahusish	-10.0609
▁kuchanganya	-10.0609
nda	-10.0629
▁mapenzi	-10.063
KA	-10.0635
▁unahitaji	-10.065
▁Tu	-10.0656
▁3:	-10.0686
endesha	-10.0694
nunua	-10.0695
▁Maneno	-10.0725
ijiko	-10.076
wakilishi	-10.0777
sisitiza	-10.0779
▁kutuma	-10.0788
▁Smith	-10.0794
▁mkahawa	-10.0794
▁sura	-10.0795
▁zinazohitajika	-10.0796
name	-10.08
▁chombo	-10.0801
▁mavazi	-10.0801
▁maono	-10.0801
▁kukumbuka	-10.0806
▁tambua	-10.0813
▁algorithm	-10.083
th	-10.083
▁kuta	-10.0865
▁bilioni	-10.0873
▁Aliku	-10.0883
angalia	-10.0903
inajumuisha	-10.0933
▁sita	-10.0953
▁Maji	-10.1
▁mlinganyo	-10.1003
▁kando	-10.1003
▁sampuli	-10.1003
▁vivuli	-10.1003
▁Juu	-10.1003
▁vipimo	-10.1003
▁shaka	-10.1003
▁kuboreshwa	-10.1003
▁ulinzi	-10.1004
▁ufuatiliaji	-10.1005
▁zinazotumiwa	-10.1006
▁kishazi	-10.1007
▁Swali	-10.1021
▁madogo	-10.1021
▁mus	-10.1024
▁taa	-10.1027
▁vyake	-10.1031
▁kili	-10.1032
▁harakati	-10.1042
▁kutia	-10.1043
▁Mpendwa	-10.1053
▁kumi	-10.1056
▁nukuu	-10.1058
__	-10.1061
on	-10.1067
▁Asante	-10.107
inahusisha	-10.1073
pokea	-10.1074
C	-10.1074
▁Gari	-10.1108
wasilisha	-10.1114
andikwa	-10.1137
▁kufikiri	-10.1147
▁Orodha	-10.1149
da	-10.1198
ifumo	-10.1209
▁mlima	-10.1212
▁somo	-10.1215
▁Sarah	-10.1216
▁mwalimu	-10.1216
▁maduka	-10.1216
▁mitano	-10.1216
▁mitazamo	-10.1216
▁kimsingi	-10.1216
▁11.	-10.1221
▁kusikiliza	-10.1221
▁upweke	-10.1222
▁Tukio	-10.1223
H	-10.1225
▁l	-10.123
▁kuamua	-10.1241
▁Jane	-10.1248
▁kuainisha	-10.1269
▁Jumla	-10.1272
litaka	-10.1315
▁Mto	-10.1316
N	-10.1331
num	-10.1344
▁25	-10.1367
▁30	-10.1381
in	-10.1381
▁Kutoka	-10.1386
▁ongeza	-10.1391
usanya	-10.1419
▁peke	-10.1421
▁kuathiri	-10.1431
▁sinema	-10.1433
▁kihistoria	-10.1433
▁kubinafsisha	-10.1433
▁joka	-10.1433
▁trafiki	-10.1433
▁popote	-10.1433
▁kipenzi	-10.1434
▁usumbufu	-10.1434
▁mkazo	-10.1434
▁mipaka	-10.1434
▁inayotumiwa	-10.1434
▁uwe	-10.144
▁kutembea	-10.1442
▁duara	-10.1444
UA	-10.1444
▁kusonga	-10.1449
▁wagonjwa	-10.1461
▁China	-10.1466
▁bunifu	-10.1466
▁ndiyo	-10.1471
▁Tovuti	-10.1478
▁kurudisha	-10.1479
nahusisha	-10.1501
panda	-10.1506
wezi	-10.1546
▁wasio	-10.1566
naamini	-10.1571
4	-10.1585
lazimika	-10.1628
kwa	-10.1649
▁Miundo	-10.165
ifano	-10.165
▁lisilo	-10.1654
▁fomu	-10.1655
▁msongamano	-10.1655
▁vitafunio	-10.1655
▁mlolongo	-10.1655
▁kisawe	-10.1655
▁maumivu	-10.1656
▁kujitunza	-10.1656
▁kiakili	-10.1656
▁kiongozi	-10.1657
▁kihisia	-10.1657
futi	-10.1658
▁hazina	-10.1659
▁ikijumuisha	-10.1659
kuja	-10.166
▁agizo	-10.1666
dadi	-10.1673
▁Uwez	-10.1684
▁cream	-10.1686
▁10,	-10.1691
▁hawa	-10.1704
ngalia	-10.1722
nzisha	-10.1765
afsiri	-10.1816
▁inayoeleze	-10.1825
simama	-10.1835
kataji	-10.1854
1,	-10.1862
▁mwanzo	-10.188
zwa	-10.1881
▁kingine	-10.1882
example	-10.1882
▁vijana	-10.1882
▁kesho	-10.1882
▁tangazo	-10.1882
▁uchovu	-10.1882
▁huruma	-10.1884
▁harufu	-10.1884
▁ufalme	-10.1889
▁JavaScript	-10.189
▁kufanywa	-10.189
▁inchi	-10.189
▁kuungana	-10.1892
uliza	-10.1899
▁kilele	-10.1902
▁Kifaransa	-10.1903
▁Kihispania	-10.1903
▁blogi	-10.1903
▁kukutana	-10.1911
▁kavu	-10.1914
▁kubaini	-10.1964
▁Bob	-10.1981
ta	-10.1986
▁kazini	-10.1993
▁mbiu	-10.201
▁Kulingan	-10.203
shiriki	-10.2034
▁unavyo	-10.2046
tambua	-10.2097
sema	-10.2098
wajibika	-10.2098
falme	-10.21
▁kinywa	-10.2104
▁Afrika	-10.2115
▁Chatbot	-10.2115
▁Java	-10.2115
▁ghafla	-10.2115
▁machache	-10.2115
▁mienendo	-10.2115
▁sarafu	-10.2115
▁kisheria	-10.2115
▁mwanasayansi	-10.2115
▁kuchambua	-10.2116
▁mfanyakazi	-10.2117
▁mhandisi	-10.2118
▁kuaminika	-10.2122
▁msisimko	-10.2123
▁mchezaji	-10.2124
chagua	-10.2125
▁kuunganishwa	-10.2125
▁wakiwa	-10.2135
▁kuzaliwa	-10.2144
bidi	-10.2145
▁wima	-10.2149
▁CH	-10.216
▁Tafadhali	-10.2163
▁mlo	-10.2171
hamu	-10.2183
AG	-10.2291
kadiri	-10.2295
to	-10.2324
▁mita	-10.2328
di	-10.2338
dhani	-10.2349
athiri	-10.2351
▁Fuatilia	-10.2353
▁michache	-10.2353
▁KUTO	-10.2353
▁madarasa	-10.2353
▁ngozi	-10.2353
▁kambi	-10.2353
▁kijana	-10.2354
▁Jeng	-10.2358
▁kufanikiwa	-10.2359
▁kuingiza	-10.2359
▁kufunga	-10.236
▁Furahia	-10.2362
▁Hapa	-10.2369
▁Una	-10.2378
▁kufungua	-10.2379
sikia	-10.2383
ID	-10.2384
▁Upepo	-10.2389
ingia	-10.2394
▁Bei	-10.2403
▁vili	-10.2414
▁aliona	-10.2414
▁Ndizi	-10.2431
▁50	-10.2457
▁ikilinganish	-10.2471
boresha	-10.2472
▁tathmini	-10.2481
▁kuhusish	-10.2491
zuia	-10.2491
maliza	-10.2492
OV	-10.2495
K	-10.253
▁if	-10.254
▁usi	-10.2556
▁naye	-10.2579
▁Vyanzo	-10.2597
▁Tatu	-10.2597
▁kipengee	-10.2597
option	-10.2597
▁wasomaji	-10.2597
ingawa	-10.2597
▁ghali	-10.2597
▁kuunga	-10.2597
▁mahusiano	-10.2598
▁huleta	-10.2613
▁Muda	-10.2619
▁kushoto	-10.2619
▁X	-10.2624
husu	-10.2627
▁kahawia	-10.2647
▁1/4	-10.2647
▁inapo	-10.2653
▁ubao	-10.2662
▁inato	-10.2664
pendelea	-10.2678
▁kuli	-10.2685
amp	-10.2716
hambua	-10.275
toka	-10.2798
);	-10.2818
▁Mark	-10.2833
▁zita	-10.2834
▁Maelekezo	-10.2847
▁Muhtasari	-10.2847
▁busara	-10.2847
▁dalili	-10.2847
▁mafuriko	-10.2847
▁tahajia	-10.2847
▁ubaguzi	-10.2847
Ingiza	-10.2847
▁asali	-10.2847
▁matengenezo	-10.2847
▁usimbaji	-10.2847
▁makali	-10.2847
▁mzungumzaji	-10.2847
▁kigeni	-10.2847
▁mzee	-10.2848
▁jeni	-10.2849
▁Soma	-10.285
))	-10.2851
▁vikundi	-10.2852
▁barabarani	-10.2852
▁mlango	-10.2852
▁darasani	-10.2853
▁kushirikiana	-10.2854
▁inayotumia	-10.2862
piga	-10.2862
▁kitendo	-10.287
ebu	-10.287
▁Punguza	-10.287
▁kupokea	-10.2873
▁Sehemu	-10.2899
▁huchuku	-10.2904
eneza	-10.2907
jadili	-10.2912
▁9,	-10.2917
▁Unganisha	-10.292
▁kuondoka	-10.2922
re	-10.2923
jua	-10.2927
▁utofautish	-10.2946
▁huongez	-10.2956
iyo	-10.2981
▁tuli	-10.2997
▁ha	-10.3059
fikiria	-10.3087
andaa	-10.3099
▁f	-10.31
▁Selsiasi	-10.3103
▁kimantiki	-10.3103
▁kiufundi	-10.3103
▁onyesho	-10.3103
▁Chorus	-10.3103
▁Mataifa	-10.3103
Mchoro	-10.3103
▁meno	-10.3104
▁kimazingira	-10.3104
▁vizazi	-10.3104
▁mingine	-10.3104
▁kusanidi	-10.3109
▁ulioboreshwa	-10.3112
▁$	-10.3113
▁uchambuzi	-10.3116
amini	-10.3117
▁kusikia	-10.3119
▁huanza	-10.3122
▁dharura	-10.3126
▁Mexico	-10.3127
▁Jiji	-10.3128
shi	-10.3131
▁Joe	-10.3132
elewa	-10.3135
fundisha	-10.3136
▁inatumika	-10.3144
▁umekuwa	-10.3156
▁Mambo	-10.3157
▁Mwanga	-10.3167
▁Jack	-10.3171
▁Mazingira	-10.3187
▁majina	-10.3199
X	-10.3206
▁mazoe	-10.321
\">	-10.3212
▁ile	-10.322
pita	-10.322
tokea	-10.3227
▁[1,	-10.3291
atumizi	-10.3304
-&	-10.3354
O	-10.3357
▁Kaskazini	-10.3366
▁faraja	-10.3366
▁iwezekanavyo	-10.3366
▁masharti	-10.3366
▁Kitaifa	-10.3366
▁karanga	-10.3366
▁bahati	-10.3366
▁manyoya	-10.3367
▁uthabiti	-10.3367
▁utatuzi	-10.3367
▁usambazaji	-10.3367
▁mzozo	-10.3367
▁hasidi	-10.3368
▁misitu	-10.3368
▁ujenzi	-10.3368
▁kuvunja	-10.3369
ombe	-10.3372
▁Sam	-10.3372
▁r	-10.3373
▁ramani	-10.3375
▁usanifu	-10.3376
wapa	-10.3382
|	-10.3387
▁kubadilishana	-10.3396
▁aliamu	-10.3396
▁equation	-10.3406
iwa	-10.3406
▁kwangu	-10.3424
▁taratibu	-10.3431
mo	-10.3443
▁Ingizo	-10.3453
▁chai	-10.3456
nAli	-10.3463
kuta	-10.3488
▁watarajiwa	-10.3492
vutiwa	-10.3497
▁kime	-10.3521
kabili	-10.3531
okotoa	-10.359
▁chatbot	-10.363
ikakati	-10.3632
▁sungura	-10.3637
▁wanyamapori	-10.3637
▁Utangulizi	-10.3637
button	-10.3637
▁saizi	-10.3637
▁fonti	-10.3637
▁Suluhisho	-10.3637
▁kiteknolojia	-10.3637
▁Vifaa	-10.3637
▁uchoraji	-10.3638
▁utengenezaji	-10.3638
▁haiwezi	-10.3639
▁wadudu	-10.3639
▁uchakataji	-10.3641
data	-10.3641
▁hutolewa	-10.3642
▁kuhesabu	-10.3642
▁Sayansi	-10.3646
▁kupoteza	-10.3646
▁zilizopo	-10.3654
▁inasema	-10.3657
▁taifa	-10.3661
▁mageuzi	-10.3662
▁milima	-10.3663
sababishwa	-10.3665
▁Simu	-10.3666
▁aliishi	-10.3673
▁Leng	-10.3677
▁kusimami	-10.3677
▁Uongo	-10.3678
▁haja	-10.3689
▁kuhisi	-10.3691
▁nime	-10.3702
▁Tom	-10.3703
tegemea	-10.3704
tabiri	-10.3728
yo	-10.3732
mu	-10.375
afiki	-10.375
badilika	-10.3759
▁kurasa	-10.3772
▁Upendo	-10.3773
sho	-10.3799
ashiria	-10.3804
sahau	-10.3812
▁Usiku	-10.3871
▁El	-10.3897
kusanya	-10.3909
tiwa	-10.3914
html	-10.3914
▁mlingano	-10.3914
▁kitanzi	-10.3915
▁bure	-10.3915
▁jikoni	-10.3915
▁yaliyomo	-10.3915
▁huria	-10.3916
▁inayofuata	-10.3918
▁zinazopatikana	-10.3918
Onyesha	-10.3919
▁njema	-10.3922
▁Usalama	-10.3924
▁masoko	-10.3924
▁masaa	-10.3924
▁matangazo	-10.3925
^2	-10.3925
▁kupangwa	-10.3926
emba	-10.3928
▁wazazi	-10.3932
▁Filamu	-10.394
▁Anza	-10.3941
▁zangu	-10.3949
▁API	-10.3953
tolewa	-10.3955
z	-10.3958
anguka	-10.3962
io	-10.3965
&#39;:	-10.3965
▁maishani	-10.3967
enzi	-10.3977
▁kumpa	-10.3985
▁ofa	-10.4022
▁16	-10.4035
ridhika	-10.404
▁hakiki	-10.4041
&#39;.	-10.4049
▁ata	-10.4052
▁kimya	-10.4055
▁nani	-10.4061
licha	-10.4067
▁Reje	-10.407
▁tumaini	-10.4085
▁//	-10.413
changia	-10.4155
2.	-10.4175
▁Mchez	-10.4192
juzi	-10.4192
▁lolote	-10.42
▁mgahawa	-10.42
▁njano	-10.42
▁Angeles	-10.42
▁saratani	-10.42
▁dhamira	-10.42
▁mtindi	-10.4201
▁Kuanzia	-10.4201
▁uwekaji	-10.4201
▁mchango	-10.4201
▁miamba	-10.4201
▁panya	-10.4202
▁ugumu	-10.4203
ed	-10.4205
▁mawe	-10.4207
▁kuagiza	-10.4207
▁kuchapisha	-10.4207
▁iliyoundwa	-10.4208
▁mlinganisho	-10.421
▁kufika	-10.4211
▁kulipa	-10.4213
▁daktari	-10.4219
▁mvuto	-10.4226
▁Chini	-10.4226
▁%	-10.4227
▁wageni	-10.4243
▁kivumishi	-10.4243
utoe	-10.4255
wakilisha	-10.4256
▁pana	-10.4268
Hakuna	-10.427
▁toleo	-10.4277
jenga	-10.4278
&#39;.:	-10.428
▁chuma	-10.4303
shikilia	-10.4304
▁fadhili	-10.433
▁ngapi	-10.4345
oyo	-10.4359
▁angeweza	-10.4367
ongoza	-10.4372
Ku	-10.4374
▁utofauti	-10.4376
▁18	-10.4383
ga	-10.4386
▁Pili	-10.4437
▁list	-10.4441
▁0;	-10.4448
▁Saa	-10.4449
nazidi	-10.4465
▁chapisha	-10.4472
shinda	-10.4476
changanuzi	-10.4488
Ni	-10.4489
▁nyimbo	-10.4494
▁pizza	-10.4494
▁roho	-10.4494
▁binary	-10.4494
▁mfadhaiko	-10.4494
▁mazao	-10.4494
▁uandishi	-10.4494
▁jozi	-10.4494
▁huyu	-10.4495
▁mapishi	-10.4495
▁unyanyasaji	-10.4495
▁kupanua	-10.4496
label	-10.4497
▁iliyopangwa	-10.4497
▁sisi	-10.45
▁Kati	-10.4501
▁kupika	-10.4502
▁fiche	-10.4504
▁madini	-10.4504
▁Ondo	-10.4504
jisikia	-10.4506
▁uliopo	-10.4508
▁kutembelea	-10.451
▁kufundisha	-10.4511
▁ange	-10.4517
▁Manufaa	-10.4521
▁skrini	-10.4521
▁hatarini	-10.4523
▁Maagizo	-10.4538
▁chati	-10.455
▁max	-10.4553
wekwa	-10.4556
▁wanasayansi	-10.4568
▁radius	-10.4573
▁Mary	-10.4577
8	-10.4595
list	-10.4622
okoa	-10.4626
eko	-10.4633
▁nazo	-10.4635
▁inazidi	-10.4664
▁CSS	-10.4688
▁Hi	-10.4696
naoishi	-10.47
▁ukiwa	-10.4702
▁Ongez	-10.4705
len	-10.4707
string	-10.4708
▁kuuza	-10.4712
tarajia	-10.4723
▁duni	-10.4723
hifadhi	-10.473
ote	-10.4766
jitolea	-10.4778
miliki	-10.4787
pangaji	-10.4793
▁miongo	-10.4797
▁chokoleti	-10.4797
▁uwiano	-10.4797
▁vichwa	-10.4797
▁amri	-10.4797
▁Kijamii	-10.4797
▁kipaumbele	-10.4797
▁vitamini	-10.4798
▁bunduki	-10.4798
▁visawe	-10.4798
▁kamera	-10.4798
Nembo	-10.4798
▁umaskini	-10.4798
▁jana	-10.48
▁kukaanga	-10.4801
zunguka	-10.4801
▁kuhudhuria	-10.4803
▁kunasa	-10.4803
▁mmea	-10.4804
▁California	-10.4807
▁Muungano	-10.4807
▁dhahania	-10.4807
▁mwaminifu	-10.4807
w	-10.4808
▁kuchekesha	-10.4809
▁kugawanywa	-10.481
▁L	-10.4816
▁miundombinu	-10.4825
▁tupu	-10.483
▁haina	-10.4833
▁wapi	-10.4841
▁tembo	-10.4843
▁Wanafunzi	-10.4843
▁Joto	-10.4843
▁Nakala	-10.4845
▁Mtumiaji	-10.4847
al	-10.4852
▁vijiko	-10.4862
oinput	-10.4864
3,	-10.4869
▁kuhitaji	-10.4891
arua	-10.4894
id	-10.4897
▁haija	-10.4929
tangaza	-10.4949
▁num	-10.4961
imbaji	-10.4992
▁Ainish	-10.5
▁Harry	-10.5025
onyeshwa	-10.5038
▁19	-10.5045
▁Si	-10.5095
ze	-10.5098
vi	-10.5107
▁kitaaluma	-10.511
▁kitunguu	-10.511
▁urambazaji	-10.511
▁Potter	-10.511
▁saumu	-10.511
▁dubu	-10.511
▁mantiki	-10.511
▁kitengo	-10.511
▁kujadili	-10.511
▁masuluhisho	-10.5111
▁majengo	-10.5111
▁nuru	-10.5111
▁kumalizia	-10.5111
▁sote	-10.5111
▁mgumu	-10.5112
▁uendelevu	-10.5113
▁unaotegemea	-10.5114
jibu	-10.5115
▁mfalme	-10.5116
▁liki	-10.5119
▁Kidunia	-10.512
▁mduara	-10.512
▁ufunguo	-10.5121
▁Uchina	-10.5121
▁upana	-10.5121
▁iliyoja	-10.5129
▁mwishoni	-10.5131
▁kushawishi	-10.5133
▁wakuu	-10.5134
▁fasihi	-10.5138
▁Fahrenheit	-10.5138
▁Magari	-10.5138
▁kuomba	-10.5141
linganisha	-10.5145
▁kuacha	-10.5153
fahamu	-10.5153
amba	-10.5155
▁hasira	-10.5158
noinput	-10.5164
wi	-10.5165
▁nyepesi	-10.5175
▁simba	-10.5187
▁Asili	-10.5194
▁Jedwali	-10.5194
▁nawe	-10.5201
▁Mhusika	-10.522
▁17	-10.5227
ngeweza	-10.5229
▁ninge	-10.5254
natafuta	-10.5298
en	-10.532
hariri	-10.5321
te	-10.5324
▁Lazima	-10.5326
▁uko	-10.5332
enea	-10.5345
nataka	-10.5349
wishowe	-10.5389
▁pumzi	-10.5404
fanywa	-10.5415
WA	-10.5416
sindikaji	-10.5425
ur	-10.5426
afanua	-10.5428
▁ulizopewa	-10.5432
▁Hitimisho	-10.5432
▁Ndani	-10.5432
▁kikaboni	-10.5432
▁madhubuti	-10.5432
▁matumbawe	-10.5432
▁vichache	-10.5432
▁mikahawa	-10.5432
▁mafumbo	-10.5432
▁kimatibabu	-10.5433
▁mbio	-10.5433
▁Mamalia	-10.5433
▁wasilisho	-10.5433
▁kirafiki	-10.5433
▁machweo	-10.5433
▁ngome	-10.5433
▁urithi	-10.5434
▁vibaya	-10.5434
▁kujiamini	-10.5435
▁huwap	-10.5436
▁inayohusiana	-10.5439
▁kuthibitisha	-10.5439
▁wimbi	-10.5441
▁atomi	-10.5443
▁Tekeleza	-10.5443
▁Tembo	-10.5443
▁gizani	-10.5444
▁hutokea	-10.5444
▁kuchora	-10.5446
▁Chuo	-10.5449
▁kisiwa	-10.5457
▁Hatari	-10.546
▁Kitenzi	-10.5462
▁Australia	-10.5462
▁Uchunguzi	-10.5462
▁Miti	-10.5469
▁kulenga	-10.5476
▁dol	-10.5478
eli	-10.5491
▁shirikishi	-10.55
▁Maandishi	-10.55
▁Karibu	-10.5503
▁aliji	-10.5506
awanya	-10.5523
▁kudhibitiwa	-10.5524
▁Jarib	-10.5534
angaza	-10.5535
▁Serikali	-10.5539
▁Kutoa	-10.5542
tembea	-10.5544
▁Chungu	-10.5547
F	-10.5557
kabiliana	-10.5557
▁wizi	-10.5569
▁kuja	-10.5574
ri	-10.5577
jina	-10.5608
7	-10.5611
▁wata	-10.5615
tarajiwa	-10.5632
▁hakuwa	-10.5632
ibuka	-10.5636
tanguliz	-10.5642
▁Kat	-10.5647
inaonekana	-10.5672
▁Leo	-10.5682
▁Za	-10.5684
rudi	-10.5686
linunua	-10.5711
unganishwa	-10.5723
▁kuya	-10.5746
dhibiti	-10.5749
sichana	-10.576
▁matembezi	-10.5763
▁Shiriki	-10.5765
self	-10.5766
▁mbegu	-10.5766
▁miamala	-10.5766
▁zuri	-10.5766
▁Sasa	-10.5766
▁Matunda	-10.5766
▁vifo	-10.5767
▁kutengwa	-10.5767
▁kuchoma	-10.5767
▁kijeshi	-10.5767
▁mchawi	-10.5767
▁kutafsiri	-10.577
▁kuhamasisha	-10.5773
Futa	-10.5777
▁sekunde	-10.5777
▁DNA	-10.5777
▁vizuizi	-10.5777
▁ubongo	-10.5778
▁Hewa	-10.5778
▁uchawi	-10.5779
▁kushuka	-10.5782
▁yenyewe	-10.5786
▁vifung	-10.579
▁dhabiti	-10.5796
▁kuchukuliwa	-10.5798
▁Makala	-10.5804
nJohn	-10.5808
chukue	-10.581
utumikia	-10.5816
▁kutofautisha	-10.5837
▁watatu	-10.5838
▁huend	-10.5849
rahisisha	-10.5871
▁Safari	-10.5876
tembelea	-10.5893
▁Jinsi	-10.5895
unganisha	-10.591
▁Kuku	-10.5915
▁char	-10.5916
9	-10.5941
▁Nita	-10.5943
▁\\	-10.5965
kwaa	-10.5979
liko	-10.5986
▁hifadhi	-10.6024
▁hutu	-10.6076
son	-10.6083
@	-10.6083
elekea	-10.6104
▁24	-10.6105
▁kusudi	-10.6111
▁shukrani	-10.6111
▁vyovyote	-10.6111
▁dondoo	-10.6111
▁nahau	-10.6111
▁woga	-10.6111
▁misuli	-10.6111
▁kigezo	-10.6111
▁yanayojiendesha	-10.6111
▁masafa	-10.6111
▁nywele	-10.6111
▁vidogo	-10.6111
▁mikutano	-10.6111
▁watano	-10.6112
▁vinywaji	-10.6112
▁kurejeshwa	-10.6113
▁kuogelea	-10.6117
▁kuyeyuka	-10.6117
▁Nomino	-10.6122
▁viatu	-10.6122
▁Hasara	-10.6122
▁mwepesi	-10.6122
▁uvumilivu	-10.6122
jaa	-10.6123
▁Mkuu	-10.6124
▁kushikamana	-10.6124
▁II	-10.6125
▁kufahamu	-10.6127
▁uhalisia	-10.6128
▁asidi	-10.6131
▁Paris	-10.6142
▁kujaza	-10.6152
▁Sio	-10.6154
fika	-10.6155
▁London	-10.6162
▁kuamini	-10.6166
▁Bil	-10.6166
▁Japan	-10.6175
▁w	-10.6183
▁Nyanya	-10.6184
▁ndi	-10.6186
▁meza	-10.6187
▁Mwisho	-10.62
gawanywa	-10.6211
▁hazi	-10.6211
naonyesha	-10.6221
▁Mafanikio	-10.6224
by	-10.6238
pendwa	-10.6244
▁kunywa	-10.6249
▁Huu	-10.626
ripoti	-10.6278
lakini	-10.6279
is	-10.6286
R	-10.6336
tawala	-10.6341
chora	-10.6357
▁unaohusish	-10.6385
kuza	-10.6388
bainisha	-10.6396
lijua	-10.6399
cheza	-10.641
br	-10.6427
▁kuni	-10.6459
▁huhifadhi	-10.6459
lete	-10.646
▁kubadili	-10.6463
songa	-10.6464
▁Vitu	-10.6467
▁dijiti	-10.6468
▁kijinsia	-10.6468
▁kijivu	-10.6468
▁nguruwe	-10.6468
▁nyuki	-10.6468
▁wachache	-10.6468
▁wikendi	-10.6468
▁kusaga	-10.6468
▁Kubwa	-10.6468
▁nyuklia	-10.6468
▁utangulizi	-10.6468
▁Tabianchi	-10.6468
▁nyongeza	-10.6468
▁waridi	-10.6468
▁mweupe	-10.6468
isingi	-10.6468
▁mgawanyiko	-10.6468
▁yuko	-10.6468
▁damu	-10.6468
▁azimio	-10.6468
▁yaliyotolewa	-10.6468
▁letu	-10.6469
▁vilivyotolewa	-10.6469
▁kusogeza	-10.6469
jiunge	-10.647
▁pale	-10.647
▁mwake	-10.6471
▁Seti	-10.6471
▁mito	-10.6472
▁kukagu	-10.6473
▁kukupa	-10.6473
▁kutimiza	-10.6476
▁inayotokana	-10.6479
▁Artificial	-10.648
▁televisheni	-10.648
▁ombi	-10.648
▁wange	-10.648
▁Duniani	-10.6482
▁kuwajibika	-10.6491
▁kubainish	-10.6494
▁kukosa	-10.6495
lishi	-10.651
auti	-10.6511
ika	-10.6521
▁Thamani	-10.6521
navyofanya	-10.6532
▁tawi	-10.6534
▁iPhone	-10.6539
▁SEO	-10.6543
puka	-10.6563
▁huathiri	-10.6567
el	-10.6575
6	-10.6603
▁11,	-10.6607
▁imeundwa	-10.6614
ondoka	-10.6641
kurasa	-10.666
ikiti	-10.6661
ss	-10.6675
uza	-10.6699
▁utu	-10.671
fanyika	-10.6719
▁Mji	-10.6754
▁kutokuw	-10.6755
▁Picha	-10.6784
furahia	-10.6795
▁San	-10.6808
▁huhusish	-10.6813
+	-10.6825
ekebisha	-10.6834
▁George	-10.6838
▁Wastani	-10.6838
▁intaneti	-10.6838
▁nyembamba	-10.6838
▁pazuri	-10.6838
▁lingine	-10.6838
▁kijeni	-10.6838
▁rejareja	-10.6838
▁juisi	-10.6838
▁Merika	-10.6838
▁uakifishaji	-10.6838
▁kielektroniki	-10.6838
▁kikomo	-10.6838
▁miunganisho	-10.6838
▁kofia	-10.6838
▁mipangilio	-10.6838
▁ngazi	-10.6839
▁ulaghai	-10.6839
▁mbawa	-10.6839
▁wananchi	-10.6839
▁marefu	-10.6839
▁kitufe	-10.6839
▁pango	-10.6839
▁upimaji	-10.6839
▁Juni	-10.684
▁marekebisho	-10.6841
▁majimbo	-10.6841
▁kuvuka	-10.6842
▁nyinginezo	-10.6845
▁ardhini	-10.6849
▁shuleni	-10.685
▁kufichua	-10.685
▁nyeti	-10.685
▁Robert	-10.685
▁Microsoft	-10.685
▁karoti	-10.685
▁mitambo	-10.6851
▁milo	-10.6852
▁kuchangia	-10.6856
▁kuongezea	-10.6858
haba	-10.6858
kuaji	-10.686
▁kusimama	-10.6862
ratibiwa	-10.6867
▁alfabeti	-10.6872
▁Kuweka	-10.6884
▁La	-10.6885
▁type	-10.6894
▁Shairi	-10.6894
▁Mwalimu	-10.6894
▁Wateja	-10.6894
▁anapo	-10.6896
▁Sawa	-10.6917
▁walipo	-10.692
pangwa	-10.6931
▁Asilia	-10.6931
▁wanapo	-10.6956
▁Bara	-10.6959
ombo	-10.6961
++	-10.6964
fuata	-10.6983
▁sugu	-10.701
ve	-10.701
shawishi	-10.702
alama	-10.7042
Hujambo	-10.705
▁vime	-10.709
anga	-10.709
▁ninaweza	-10.7108
▁Ch	-10.712
▁tuta	-10.713
▁inavyo	-10.7132
adhumuni	-10.7137
▁ika	-10.7184
kimbia	-10.7187
gawanya	-10.72
chambuzi	-10.7201
▁kuwasha	-10.7213
aendeleo	-10.7217
▁ofisi	-10.722
▁Kawaida	-10.7223
▁marudio	-10.7223
▁mionzi	-10.7223
▁msomaji	-10.7223
▁samawati	-10.7223
▁Mzunguko	-10.7223
▁Taarifa	-10.7223
▁Mafunzo	-10.7223
▁mashairi	-10.7223
▁Taifa	-10.7223
▁sigara	-10.7223
▁Kikuu	-10.7223
▁Italia	-10.7223
▁inapohitajika	-10.7223
▁matawi	-10.7223
▁ukame	-10.7223
▁maunzi	-10.7223
▁kitaalamu	-10.7223
▁haswa	-10.7223
▁msong	-10.7223
▁taasisi	-10.7223
▁dhati	-10.7224
▁itifaki	-10.7224
▁usomaji	-10.7224
▁mtaalamu	-10.7224
▁bima	-10.7224
▁ukumbusho	-10.7224
▁Hati	-10.7225
▁makumbusho	-10.7225
▁utata	-10.7226
zizi	-10.7228
▁ukiuk	-10.7229
▁inatumiwa	-10.7233
▁manjano	-10.7236
▁Uhispania	-10.7236
▁Covid	-10.7236
▁Ha	-10.7236
▁vikombe	-10.7236
▁uongozi	-10.7238
▁kugeuza	-10.724
▁zinahitaji	-10.7241
▁Mahali	-10.7242
▁alisema	-10.7249
▁Utendaji	-10.7258
▁umbi	-10.7261
▁Hasi	-10.7261
▁inayohusish	-10.7275
▁Michezo	-10.7281
▁SQL	-10.7281
▁starehe	-10.7281
▁kuundwa	-10.7289
▁kupeleka	-10.73
funzwa	-10.7302
▁alipoku	-10.7303
▁Nyumba	-10.7304
L	-10.7307
▁kupamba	-10.7318
▁Anapenda	-10.7318
▁riba	-10.7331
▁njiani	-10.7335
▁Tufaha	-10.735
▁pamba	-10.7357
▁kuhifadhiwa	-10.7361
amsha	-10.7362
sikika	-10.7369
poteza	-10.7389
ry	-10.7401
▁utegemez	-10.7414
uongo	-10.742
▁wajibu	-10.7425
▁waajiri	-10.7427
shauri	-10.7443
▁Ser	-10.7447
kulima	-10.7451
NLP	-10.7466
▁4:	-10.7497
▁string	-10.7501
▁huja	-10.7509
▁2)	-10.7512
nU	-10.7512
▁Kupunguz	-10.7512
wasiliana	-10.7518
▁yaki	-10.7526
▁Mbin	-10.7535
▁Shughuli	-10.7536
abiri	-10.7562
handisi	-10.7569
▁kuajiri	-10.761
▁buluu	-10.7623
▁kitropiki	-10.7623
▁methali	-10.7623
Ghafla	-10.7623
▁vitenzi	-10.7623
▁mboji	-10.7623
▁nyasi	-10.7623
▁madirisha	-10.7623
▁idara	-10.7623
▁mifuatano	-10.7623
▁mishahara	-10.7623
▁mahojiano	-10.7623
▁mstatili	-10.7623
▁yoga	-10.7623
▁minne	-10.7623
▁migogoro	-10.7624
▁mahakama	-10.7625
▁kujieleza	-10.7625
▁Urefu	-10.7626
▁mkulima	-10.7628
▁kutusaidia	-10.7629
▁zinazotumika	-10.7635
▁Twitter	-10.7636
▁Ufafanuzi	-10.7636
▁moshi	-10.7636
▁Msitu	-10.7636
▁Tuli	-10.7637
▁Dhana	-10.7637
▁upinzani	-10.7637
▁kugawanya	-10.7638
▁wawekezaji	-10.7641
▁kona	-10.7642
E	-10.7647
▁kutegemea	-10.7655
linda	-10.766
▁Timu	-10.766
▁watazamaji	-10.7661
▁kume	-10.7672
▁Mawazo	-10.7684
▁Acha	-10.7688
▁1)	-10.7692
▁Wacha	-10.7706
▁kutup	-10.7717
▁inayotegeme	-10.772
▁wasanidi	-10.7724
input	-10.7726
wekeza	-10.7729
▁Maoni	-10.7737
org	-10.7758
shazi	-10.7759
▁for	-10.7763
▁tafsiri	-10.7778
▁value	-10.778
▁lengwa	-10.7783
chochea	-10.7795
de	-10.7796
cm	-10.7817
tumie	-10.7818
▁wanahitaji	-10.7823
endana	-10.7833
▁500	-10.7849
adhi	-10.7858
John	-10.7859
inategemea	-10.786
kuchochea	-10.7876
count	-10.7902
nN	-10.7914
▁mwana	-10.7926
▁15,	-10.7927
ita	-10.7929
P	-10.7947
▁Moja	-10.7948
alika	-10.7951
▁nita	-10.7959
▁20,	-10.7965
egemea	-10.7978
▁alianz	-10.7981
▁akiba	-10.7986
nKu	-10.7986
▁str	-10.7996
▁yata	-10.8027
boreshaji	-10.803
▁Haki	-10.8037
▁kwao	-10.8039
▁Blockchain	-10.8039
▁Uhuru	-10.8039
▁hidrojeni	-10.8039
▁kisukuku	-10.8039
▁mashuhuri	-10.8039
▁tahadhari	-10.8039
▁Juliet	-10.8039
▁pendekezo	-10.8039
▁Uchumi	-10.8039
jasusi	-10.8039
▁maslahi	-10.8039
▁upike	-10.804
▁maumbo	-10.804
▁kisaikolojia	-10.804
▁vikuu	-10.804
▁Mpya	-10.804
▁vipya	-10.804
▁aliyefanikiwa	-10.804
▁mchemraba	-10.804
▁karamu	-10.804
▁atomiki	-10.804
▁Asia	-10.8041
▁udhaifu	-10.8041
▁linalowezekana	-10.8041
▁ndivyo	-10.8041
▁zinazofanana	-10.8041
ainishwa	-10.8041
▁undani	-10.8041
▁upinde	-10.8042
▁nzito	-10.8042
▁100,000	-10.8042
▁kutegemewa	-10.8042
▁siwezi	-10.8043
▁kuiga	-10.8045
▁nafsi	-10.8046
▁kung	-10.8046
▁uliopewa	-10.8047
▁viwandani	-10.8048
faidi	-10.8049
▁Hapana	-10.8051
▁akitafuta	-10.8052
▁kufafanua	-10.8053
▁Mboga	-10.8053
▁Nunua	-10.8053
▁Shirika	-10.8053
▁Utambuzi	-10.8053
▁Nadharia	-10.8053
▁nafaka	-10.8053
▁kioevu	-10.8053
▁ABC	-10.8054
▁Ndio	-10.8054
▁lililotolewa	-10.8055
!=	-10.8056
▁kuburudisha	-10.806
▁kuoga	-10.8061
iko	-10.8061
▁vinginevyo	-10.8061
▁kuzindu	-10.8061
▁kutolewa	-10.8062
▁hatia	-10.8062
▁kusisitiza	-10.8071
ani	-10.8073
▁kuanguka	-10.8075
▁Mimea	-10.8078
▁unaonyesha	-10.808
navyoweza	-10.8088
▁vyao	-10.8088
▁iliyopo	-10.809
▁Mti	-10.8094
▁dirisha	-10.8099
▁wasimamizi	-10.8125
me	-10.8126
uruhusu	-10.8136
▁Kitabu	-10.8154
▁Nini	-10.8154
Alama	-10.816
▁chako	-10.816
▁Fungu	-10.8163
▁12.	-10.8166
▁18.	-10.8174
W	-10.8187
▁2019	-10.8206
▁__	-10.8209
toleo	-10.8215
tamani	-10.8239
▁Inc	-10.8239
▁Mwanafunzi	-10.8254
ano	-10.827
▁zikiwa	-10.8317
▁apple	-10.8324
nafanya	-10.835
pendekezwa	-10.8358
#	-10.8368
aswi	-10.8402
1)	-10.8404
taratibu	-10.8408
▁Kuongez	-10.841
▁mbao	-10.8453
iolesura	-10.8471
▁Julai	-10.8474
▁matakwa	-10.8474
▁parachichi	-10.8474
—	-10.8474
▁XYZ	-10.8474
▁ifaayo	-10.8474
▁mvuke	-10.8474
▁jitihada	-10.8474
▁kifahari	-10.8474
▁yule	-10.8474
▁mataifa	-10.8474
▁Kichina	-10.8474
▁soka	-10.8475
head	-10.8475
▁vinavyohitajika	-10.8475
▁bodi	-10.8475
▁mkarimu	-10.8475
▁utambu	-10.8475
▁mashambulizi	-10.8475
▁mph	-10.8475
▁kiima	-10.8475
▁mifuko	-10.8475
▁urekebishaji	-10.8476
▁kitambaa	-10.8476
▁mnara	-10.8477
▁ugunduzi	-10.8478
▁kuhariri	-10.8479
▁akitembea	-10.8479
▁kukumbukwa	-10.8479
▁kuzidisha	-10.848
▁Ulimwenguni	-10.8481
▁unaoendelea	-10.8482
▁Japani	-10.8484
▁inafaa	-10.8485
▁umiliki	-10.8485
▁jumba	-10.8488
▁fumbo	-10.8488
▁Fedha	-10.8489
▁Vidokezo	-10.8489
▁michoro	-10.8489
▁Jaribio	-10.8489
▁mgeni	-10.8491
▁Uainishaji	-10.8491
amilia	-10.8493
▁Majira	-10.8497
▁kuharib	-10.8508
▁Sanaa	-10.8515
▁Kifungu	-10.8515
▁walimu	-10.8517
▁wataalamu	-10.8518
▁Rudia	-10.8518
ara	-10.8521
▁wakubwa	-10.8521
▁Kundi	-10.8523
▁utawala	-10.8523
zaliwa	-10.8532
▁ilivyo	-10.8534
int	-10.8536
0	-10.8537
▁hodari	-10.854
▁matendo	-10.854
▁Kuanzisha	-10.8556
kua	-10.8556
▁chafuzi	-10.8573
sa	-10.8586
▁fizikia	-10.859
iliyoandikwa	-10.8599
kuzima	-10.8603
nasa	-10.8605
Mchezaji	-10.8618
▁name	-10.8645
▁is	-10.8651
▁inaonyesh	-10.8664
▁13	-10.8665
▁inafanya	-10.8668
▁Kuu	-10.8673
▁refu	-10.8676
adili	-10.8687
▁zinavyo	-10.869
ifanya	-10.8693
kusanyika	-10.8701
▁sum	-10.8751
fuatilia	-10.8793
▁and	-10.8795
▁Nime	-10.8809
ne	-10.8817
dumu	-10.8846
elimisha	-10.8854
kihisi	-10.8865
▁id	-10.8883
▁12,	-10.8894
kufanya	-10.8895
▁Ba	-10.8899
barani	-10.8913
uzaji	-10.8916
▁bara	-10.8916
gogoro	-10.8923
adhara	-10.8927
ijisehemu	-10.8928
Uchaguzi	-10.8929
▁Mawasiliano	-10.8929
▁Tesla	-10.8929
▁gumzo	-10.8929
▁ifuatavyo	-10.8929
▁nyororo	-10.8929
▁tarakimu	-10.8929
▁vegan	-10.8929
▁Vyombo	-10.8929
body	-10.8929
▁desimali	-10.8929
▁milango	-10.8929
▁mashindano	-10.8929
▁dini	-10.8929
▁vitengo	-10.8929
▁shangwe	-10.8929
▁taaluma	-10.8929
▁treni	-10.8929
▁kengele	-10.8929
▁yanayofaa	-10.8929
▁karafuu	-10.8929
▁vekta	-10.8929
▁uwajibikaji	-10.893
▁vinavyofaa	-10.893
▁Hifadhidata	-10.893
elif	-10.893
▁unaohitajika	-10.893
▁mzima	-10.8931
▁unyogovu	-10.8931
▁ushindi	-10.8931
▁utunzaji	-10.8931
▁kujiunga	-10.8931
▁ufadhili	-10.8931
▁kugusa	-10.8932
▁njaa	-10.8933
▁waandishi	-10.8933
▁ubadilishaji	-10.8934
▁usanidi	-10.8934
▁robotiki	-10.8934
▁kiwakilishi	-10.8935
▁15.	-10.8936
▁2021	-10.8936
▁kuchosha	-10.8936
▁husababishwa	-10.8937
▁ukuta	-10.8937
▁kuchelewa	-10.8937
▁mgongo	-10.8938
▁kuanzishwa	-10.8938
fafanuliwa	-10.894
▁kuratibu	-10.894
awezi	-10.8944
▁Hisia	-10.8944
▁Msimbo	-10.8944
▁sumaku	-10.8944
▁Mlima	-10.8945
▁Uendeshaji	-10.8945
▁sokoni	-10.8947
Wimbo	-10.8948
▁umoja	-10.8952
▁kushirikisha	-10.8961
▁saini	-10.8968
▁sambamba	-10.897
▁tafadhali	-10.8971
▁kutarajia	-10.8971
uboresha	-10.8976
▁min	-10.8981
▁Bora	-10.8981
▁kuelekeza	-10.8982
▁kusasish	-10.8988
▁maridadi	-10.8998
▁mbweha	-10.8998
▁demokrasia	-10.8998
▁nilipo	-10.9
▁wazima	-10.9006
▁Usi	-10.9014
10	-10.9057
▁uch	-10.9077
kulete	-10.9117
wezekana	-10.9127
▁washawishi	-10.9137
alijoto	-10.9137
husika	-10.9138
weze	-10.9148
▁hau	-10.9148
shindwa	-10.9151
pange	-10.9158
▁mwamba	-10.9165
fafanua	-10.9178
upitia	-10.919
▁Ninapend	-10.9202
zoea	-10.9218
nNi	-10.9238
najumuisha	-10.925
▁Uli	-10.925
amka	-10.9273
▁kiki	-10.9273
one	-10.9279
▁asiye	-10.928
▁-1	-10.9287
▁kurudia	-10.9292
uliwa	-10.9297
iongozi	-10.9311
imejaa	-10.9317
liona	-10.9333
API	-10.9338
Maisha	-10.9342
orodha	-10.9345
embelea	-10.9363
hamia	-10.9372
aratasi	-10.9377
ipoti	-10.9389
zito	-10.9393
▁sandwich	-10.9397
2)	-10.9397
kataba	-10.9399
inyume	-10.9402
▁mashamba	-10.9402
kumbush	-10.9405
▁Einstein	-10.9405
title	-10.9405
▁Suluhu	-10.9405
▁mchicha	-10.9405
▁silaha	-10.9405
▁ufumbuzi	-10.9405
▁upungufu	-10.9405
▁vikapu	-10.9405
▁tanuri	-10.9405
▁mapambo	-10.9405
▁grafu	-10.9405
▁ufunguzi	-10.9405
▁mafadhaiko	-10.9405
▁chemsha	-10.9405
▁knight	-10.9405
▁maumbile	-10.9405
▁vitisho	-10.9405
▁wema	-10.9405
▁betri	-10.9405
▁kibunifu	-10.9405
▁upili	-10.9405
▁Kitengo	-10.9406
▁linalohitajika	-10.9406
▁uhamiaji	-10.9406
▁kutekelezwa	-10.9406
▁yanayotarajiwa	-10.9406
▁Mnyama	-10.9406
▁City	-10.9406
▁uhuishaji	-10.9406
▁maonyesho	-10.9406
▁urejeshaji	-10.9407
▁ujazo	-10.9407
▁unaowezekana	-10.9407
▁imara	-10.9408
tibu	-10.941
▁Kale	-10.941
▁mwanzoni	-10.9411
▁takataka	-10.9412
▁kusubiri	-10.9413
▁kuosha	-10.9418
▁Scott	-10.9421
▁msamiati	-10.9421
▁Gogh	-10.9421
▁Intelligence	-10.9421
▁maelewano	-10.9421
▁inayoanza	-10.9428
taweza	-10.9434
▁kumw	-10.944
Janga	-10.9441
▁saba	-10.9449
▁Jambo	-10.9449
jo	-10.9465
se	-10.9465
▁Wi	-10.9465
▁uwakilishi	-10.9466
▁Haraka	-10.9473
▁Romeo	-10.9478
▁Chanya	-10.9478
lionekana	-10.9501
▁wakazi	-10.9508
▁vyako	-10.9524
▁siki	-10.9534
▁kilomita	-10.9536
▁Mvu	-10.9537
▁count	-10.9554
▁hawaku	-10.956
▁ilionekana	-10.9562
ingizwa	-10.9564
▁Mwanamke	-10.9565
▁Pig	-10.9579
▁input	-10.9583
00	-10.9597
▁mitaa	-10.9616
tiliwa	-10.9633
ong	-10.9633
fanye	-10.9639
tumiwa	-10.9648
▁mwitu	-10.9652
▁Ume	-10.9655
▁kuwepo	-10.966
sikiliza	-10.9667
ndi	-10.9675
▁chuki	-10.968
▁kiti	-10.9684
faulu	-10.9717
\\	-10.972
fanyakazi	-10.972
tunza	-10.9742
▁yale	-10.976
mna	-10.9761
▁kufunz	-10.9768
kitumia	-10.9802
▁mial	-10.9805
pitishwa	-10.981
ongozwa	-10.983
Ali	-10.983
▁ng	-10.9831
&#39;,	-10.9861
kamilisha	-10.9868
meta	-10.9873
tumwa	-10.988
mbwa	-10.988
ck	-10.9887
▁Kina	-10.9889
istoria	-10.9898
atukio	-10.9899
tamathali	-10.9902
▁binti	-10.9904
hangamoto	-10.9904
azimi	-10.9904
▁Koroga	-10.9905
▁Tokyo	-10.9905
▁Windows	-10.9905
▁balbu	-10.9905
▁faharasa	-10.9905
▁hekima	-10.9905
▁kijiografia	-10.9905
▁kizuri	-10.9905
▁mizeituni	-10.9905
▁mpito	-10.9905
▁nyuso	-10.9905
▁picnic	-10.9905
▁vijavyo	-10.9905
▁Albert	-10.9905
▁Francisco	-10.9905
▁Samaki	-10.9905
▁niuroni	-10.9905
▁ukungu	-10.9905
▁maharagwe	-10.9905
▁petroli	-10.9905
▁vitambuzi	-10.9905
▁diski	-10.9905
▁Mirihi	-10.9905
▁malalamiko	-10.9905
▁adabu	-10.9905
▁sintaksia	-10.9905
▁kisukari	-10.9905
▁maliasili	-10.9905
▁misheni	-10.9905
▁uzani	-10.9905
▁inapowezekana	-10.9905
▁Changany	-10.9905
▁ustahimilivu	-10.9905
▁mapungufu	-10.9906
▁umaarufu	-10.9906
▁iliyosambazwa	-10.9906
▁kizuizi	-10.9906
▁methane	-10.9906
▁zinazojiendesha	-10.9906
▁ufurahie	-10.9906
▁mikataba	-10.9906
▁uthibitisho	-10.9906
▁uhasibu	-10.9906
▁iliyohifadhiwa	-10.9906
▁kuhamisha	-10.9907
▁vitamu	-10.9907
▁mashambani	-10.9908
▁upau	-10.9908
▁mkia	-10.9909
▁wafanyabiashara	-10.991
▁kuvuta	-10.991
▁machapisho	-10.9911
▁kuzingatiwa	-10.9912
▁kufungwa	-10.9915
▁hazija	-10.9915
▁deni	-10.9917
▁kutafiti	-10.9918
▁kielezi	-10.9922
▁Ubora	-10.9922
▁Milima	-10.9922
▁Facebook	-10.9922
▁kimapenzi	-10.9923
▁jangwa	-10.9923
▁Nuru	-10.9924
▁wadogo	-10.993
▁kuongoza	-10.993
▁elektroniki	-10.9932
▁3)	-10.9933
vu	-10.9941
▁kufaulu	-10.9945
▁Mbali	-10.9947
▁sanduku	-10.9951
▁inaelezea	-10.9951
▁mzigo	-10.9952
▁kiungo	-10.9952
▁ucheshi	-10.9955
▁Kupanda	-10.9965
▁uhakikish	-10.9971
▁g	-10.9973
chakataji	-10.9976
▁hewani	-11.0003
▁ziwa	-11.001
▁Wanadamu	-11.0012
▁dhaifu	-11.0012
▁Kichwa	-11.0013
▁kupitish	-11.0014
▁unafanya	-11.0015
eja	-11.0016
uni	-11.0032
zaji	-11.0036
▁de	-11.0045
▁Pi	-11.0045
▁rais	-11.005
shughulikia	-11.0051
▁Charl	-11.0087
2,	-11.009
▁da	-11.0095
▁NLP	-11.0105
kufa	-11.0118
kusudiwa	-11.0121
simulia	-11.0123
▁Amba	-11.0127
▁Hujambo	-11.0136
*	-11.0149
▁ba	-11.0171
jengwa	-11.0176
agua	-11.0181
jaza	-11.0184
v	-11.019
▁13.	-11.0192
▁tabasamu	-11.02
▁Mia	-11.0208
oni	-11.021
laji	-11.021
shika	-11.0215
shirikisha	-11.022
dai	-11.0231
rejesha	-11.0243
▁Kuja	-11.0253
ba	-11.0257
ngu	-11.0285
▁Go	-11.0286
meundwa	-11.0305
▁21	-11.0317
▁wanavyo	-11.0322
ikombe	-11.0327
▁kutenga	-11.0335
thamini	-11.034
naanza	-11.0351
ice	-11.0363
▁uka	-11.0375
▁Inato	-11.0384
▁28	-11.0397
or	-11.0399
penda	-11.041
(&#39;	-11.0412
▁Q	-11.0412
▁kaka	-11.0416
ini	-11.0417
muhimu	-11.0419
mara	-11.0426
▁kukubali	-11.0427
range	-11.043
milioni	-11.043
▁Washington	-11.0431
▁dijitali	-11.0431
▁meneja	-11.0431
▁msukumo	-11.0431
▁washikadau	-11.0431
▁kikapu	-11.0431
▁Agile	-11.0431
▁kupikia	-11.0431
▁leseni	-11.0431
▁kibiashara	-11.0431
▁jimbo	-11.0431
▁mashua	-11.0431
▁ulemavu	-11.0431
▁Vigezo	-11.0431
▁uzinduzi	-11.0431
▁Kigiriki	-11.0431
▁James	-11.0431
▁miadi	-11.0432
▁vigeu	-11.0432
▁mishipa	-11.0432
▁Katiba	-11.0432
Endelea	-11.0432
▁zipi	-11.0432
▁mgombea	-11.0432
▁mikopo	-11.0432
▁kaya	-11.0432
▁saladi	-11.0432
▁hawawezi	-11.0432
▁mvutano	-11.0432
vugu	-11.0432
▁ukarimu	-11.0433
▁mshindi	-11.0433
▁mjadala	-11.0433
▁wanaume	-11.0433
▁kurekebishwa	-11.0433
▁kuchuja	-11.0433
▁kuchemsha	-11.0434
▁kiini	-11.0434
▁kumudu	-11.0434
▁kutuliza	-11.0434
▁inayowezekana	-11.0435
▁kuchezea	-11.0435
▁virutubisho	-11.0436
▁Uzalishaji	-11.0437
▁wenzao	-11.0437
▁kujitegemea	-11.0437
▁hatima	-11.0438
Hoja	-11.044
▁lao	-11.044
▁kuvaa	-11.044
▁kujihusisha	-11.044
▁pombe	-11.0441
▁inayolengwa	-11.0441
▁inavyofanya	-11.0443
▁amechoka	-11.0444
um	-11.0445
Katika	-11.0445
▁hutengenezwa	-11.0447
▁asilimia	-11.0447
▁vituko	-11.0449
▁iliyoko	-11.0449
▁makubaliano	-11.045
▁jirani	-11.045
▁umati	-11.0452
▁waka	-11.0454
ic	-11.0455
▁wabunifu	-11.0457
▁mama	-11.0458
▁kupinga	-11.0459
▁huongezeka	-11.046
▁sod	-11.0466
▁Uso	-11.0468
▁Tunaweza	-11.0468
▁Haija	-11.0474
zilizounganishwa	-11.0478
▁tajiri	-11.0478
▁Nukuu	-11.048
▁Mayai	-11.048
▁Ge	-11.048
▁kujitahidi	-11.0484
nK	-11.0485
▁Chapish	-11.0486
V	-11.0489
▁Gre	-11.0492
▁ama	-11.0502
uunda	-11.0504
▁Umri	-11.0512
▁rafu	-11.0522
▁Mona	-11.053
▁utahitaji	-11.0543
▁find	-11.0544
▁Mgonjwa	-11.0549
Nili	-11.0555
ngo	-11.0564
Z	-11.0568
▁Uchafuzi	-11.0582
nya	-11.0582
▁alifanya	-11.0588
▁zinapo	-11.0591
sukuma	-11.0603
▁media	-11.0604
▁Maelezo	-11.061
▁Alex	-11.0614
upate	-11.0615
20	-11.0626
▁Alipo	-11.0637
seme	-11.0637
▁upig	-11.0638
▁ulioja	-11.065
nNina	-11.066
napata	-11.0698
▁wanachama	-11.0706
▁haita	-11.0715
ungu	-11.0733
ganda	-11.0733
unahitaji	-11.0734
kusaidia	-11.0743
▁unazo	-11.0751
▁kinachowez	-11.0753
ill	-11.0767
▁40	-11.0769
lin	-11.0778
ny	-11.0799
G	-11.0804
go	-11.0817
maji	-11.0824
▁yanahitaji	-11.0833
▁2018	-11.0846
Nina	-11.0865
▁havi	-11.0877
mfanya	-11.0877
–	-11.0916
J	-11.0917
stack	-11.0921
fichua	-11.0924
fanikiwa	-11.0933
liwa	-11.0949
dokez	-11.0962
▁Roma	-11.0965
husiano	-11.0977
kosa	-11.0984
▁robo	-11.0986
hudumu	-11.0986
▁2017	-11.0987
▁Boston	-11.0987
▁Chicago	-11.0987
▁Daisy	-11.0987
▁Mkakati	-11.0987
▁Vitunguu	-11.0987
▁dereva	-11.0987
▁hoho	-11.0987
▁kipepeo	-11.0987
▁mseto	-11.0987
▁mzaha	-11.0987
▁upanuzi	-11.0987
▁Uzoefu	-11.0987
▁glasi	-11.0987
▁neema	-11.0987
▁adhabu	-11.0987
▁result	-11.0987
kosi	-11.0987
▁chupa	-11.0987
▁chungwa	-11.0987
▁kusakinisha	-11.0987
▁mizani	-11.0987
▁ugavi	-11.0987
▁unyevu	-11.0987
▁kisanduku	-11.0987
▁uchangamfu	-11.0987
▁bakteria	-11.0987
▁madaktari	-11.0987
▁marufuku	-11.0987
▁polisi	-11.0987
▁maajabu	-11.0987
▁Neural	-11.0987
▁ubinafsishaji	-11.0987
▁dhiki	-11.0988
▁uangalizi	-11.0988
▁pomboo	-11.0988
▁urekebishe	-11.0988
▁wanawake	-11.0988
▁uendelee	-11.0988
▁mnene	-11.0988
▁ustaarabu	-11.0989
▁lile	-11.0989
▁kusawazisha	-11.0989
▁mjasiriamali	-11.0989
▁hila	-11.0989
▁kiraia	-11.0989
▁kunisaidia	-11.099
▁kichakataji	-11.099
▁ufupi	-11.099
▁hakimiliki	-11.099
Kesi	-11.0991
▁uchezaji	-11.0991
jeshi	-11.0991
▁kuibua	-11.0992
▁Urusi	-11.0992
▁mzito	-11.0992
▁uandike	-11.0993
▁kupunguzwa	-11.0994
▁kukubalika	-11.0994
▁kusherehekea	-11.0995
▁mwanana	-11.0996
▁uweze	-11.0997
▁mijini	-11.0997
fikra	-11.0998
▁kukaribisha	-11.0998
▁ubadilish	-11.1003
▁mjini	-11.1003
▁unaoonyesha	-11.1003
▁zinazohitaji	-11.1005
▁Machungwa	-11.1006
▁Nafasi	-11.1006
▁Uwezekano	-11.1006
▁mvulana	-11.1006
▁vielelezo	-11.1006
▁Chungwa	-11.1006
▁Kiasi	-11.1007
▁Vitabu	-11.1007
▁Hakika	-11.1009
▁kutumikia	-11.1009
▁14	-11.101
ku	-11.1014
Njia	-11.1014
Yeye	-11.1015
▁Mwaka	-11.1015
aminika	-11.1015
nambari	-11.1017
pamoja	-11.1017
▁kuashiria	-11.1018
▁$1	-11.102
amuliwa	-11.1023
yumba	-11.1028
▁kupigana	-11.1033
hule	-11.1037
▁Lish	-11.1038
▁Chumvi	-11.1039
she	-11.1039
▁Ulinzi	-11.1041
the	-11.1042
▁Ukweli	-11.1042
tafute	-11.1043
▁tendaji	-11.1048
▁inaendelea	-11.105
izoez	-11.1065
▁III	-11.1073
km	-11.1073
afisha	-11.108
kufanyia	-11.1084
▁majini	-11.1093
▁linapo	-11.1096
▁Tangaz	-11.1099
▁Yohana	-11.1106
▁zamu	-11.1117
▁mwangaza	-11.1119
ingiza	-11.1121
mfuata	-11.1126
ambia	-11.1133
▁°	-11.1141
fa	-11.1155
▁Bi	-11.1183
Jua	-11.1187
ufanye	-11.12
Hii	-11.1204
▁waya	-11.1225
▁anayewez	-11.1227
▁Le	-11.1231
▁baba	-11.1237
kamilika	-11.1239
▁Mbweha	-11.1244
▁yawe	-11.1253
▁uweke	-11.1277
▁Pan	-11.1288
▁ui	-11.1296
st	-11.1306
athiriwa	-11.1312
▁temp	-11.1313
▁kifupi	-11.1335
▁Wao	-11.1336
tayarisha	-11.1344
▁maban	-11.135
▁200	-11.1361
ipindi	-11.1362
ER	-11.1384
omba	-11.1392
▁linge	-11.1403
chomwa	-11.1408
▁In	-11.1421
faa	-11.1424
pinga	-11.143
tafiti	-11.144
uwezesha	-11.1457
badilishwa	-11.1484
asi	-11.1486
▁pai	-11.1496
▁nane	-11.1496
itindo	-11.1513
▁kuki	-11.1523
▁iweze	-11.1524
▁nasi	-11.1535
ungwa	-11.154
▁zile	-11.1548
val	-11.1564
ine	-11.157
▁shamba	-11.1572
▁Big	-11.1572
chapisha	-11.1575
▁Aktiki	-11.1575
▁Excel	-11.1575
▁Kiitaliano	-11.1575
▁Lewis	-11.1575
▁Maudhui	-11.1575
▁menyu	-11.1575
▁mgawo	-11.1575
▁kasoro	-11.1575
▁mchele	-11.1575
▁soya	-11.1575
▁milipuko	-11.1575
▁hafla	-11.1575
▁Somo	-11.1575
▁kubahatisha	-11.1575
▁shirikisho	-11.1575
▁Kiafrika	-11.1575
▁chess	-11.1575
▁Wamarekani	-11.1575
▁mviringo	-11.1575
▁Park	-11.1575
▁dhahiri	-11.1575
▁kimetaboliki	-11.1575
▁mwombaji	-11.1575
▁usaga	-11.1575
▁nguzo	-11.1575
▁kiole	-11.1575
▁kidokezo	-11.1575
▁tangawizi	-11.1575
▁marejeleo	-11.1575
▁midogo	-11.1575
▁mikubwa	-11.1575
▁kioo	-11.1575
email	-11.1575
▁masasisho	-11.1576
▁mbunifu	-11.1576
▁mpinzani	-11.1576
▁reli	-11.1576
▁siha	-11.1576
▁mdundo	-11.1576
▁mizizi	-11.1577
▁bomba	-11.1577
▁Pamoja	-11.1577
▁kuridhisha	-11.1577
▁inayosimamiwa	-11.1578
▁vilima	-11.1578
▁ujumuishaji	-11.1578
CNN	-11.1579
▁Kijani	-11.1579
▁mezani	-11.158
▁uchom	-11.1581
▁mshauri	-11.1582
▁iliyokusanywa	-11.1583
▁mabaki	-11.1583
▁kutenda	-11.1584
▁kufuta	-11.1584
▁kukusanywa	-11.1585
▁ahadi	-11.1585
▁kucheka	-11.1585
▁utumie	-11.1586
▁kuhama	-11.1586
▁kutatuliwa	-11.1586
▁lini	-11.1587
▁Uuzaji	-11.1587
▁viti	-11.1588
▁amepata	-11.159
▁Oktoba	-11.1595
▁mifugo	-11.1595
▁Mawimbi	-11.1595
▁Meneja	-11.1595
▁mapafu	-11.1595
▁blanketi	-11.1595
▁Binadamu	-11.1595
▁Nyekundu	-11.1595
▁Van	-11.1596
▁uadilifu	-11.1597
▁Miaka	-11.1598
▁usoni	-11.1603
▁kipang	-11.1603
▁Haku	-11.1606
▁huweka	-11.1613
ipengele	-11.1614
▁pengo	-11.1615
▁siasa	-11.1629
bu	-11.163
▁Trump	-11.163
▁Ushirikiano	-11.163
▁mapamba	-11.1632
mwambia	-11.1645
▁ziko	-11.1646
▁Ya	-11.1648
▁Inafanya	-11.1649
▁Moto	-11.1653
▁koroga	-11.1666
▁Muziki	-11.1666
▁popo	-11.1678
▁Nimefurahi	-11.1696
▁alim	-11.17
▁Karoti	-11.1702
ter	-11.1705
rd	-11.171
▁10%	-11.1719
ojawapo	-11.1722
iri	-11.1724
;=	-11.1741
▁akawa	-11.1768
▁kaanga	-11.1771
▁wanaohitaji	-11.1776
ly	-11.1783
▁HTTP	-11.1791
tindo	-11.1797
ro	-11.1799
▁vuli	-11.1803
▁haziwez	-11.1809
▁0)	-11.1813
▁22	-11.1826
zindua	-11.1829
ekta	-11.1831
nasayansi	-11.1858
zunguk	-11.1861
▁14.	-11.1867
amilisha	-11.1874
akili	-11.1898
▁Kamili	-11.1904
akisi	-11.1908
sogea	-11.1916
pika	-11.1924
nia	-11.1935
salia	-11.1941
Sekta	-11.1943
kala	-11.1946
tishi	-11.1957
▁anza	-11.1966
uzo	-11.1975
lingana	-11.1983
kurugenzi	-11.199
ota	-11.1996
▁34	-11.1997
jaribiwa	-11.1997
julish	-11.2002
▁linganisha	-11.2013
▁ada	-11.2021
izi	-11.2025
ratibu	-11.2026
kumbuka	-11.2038
▁Zina	-11.2055
▁vinavyotumi	-11.2066
▁90	-11.2068
aribu	-11.2069
shangaza	-11.2072
tofautiana	-11.2072
napendekeza	-11.2102
kata	-11.2118
wapo	-11.2123
idhini	-11.2131
▁Uch	-11.2145
ikio	-11.2152
▁tafiti	-11.2159
imba	-11.2161
▁Star	-11.2161
tupa	-11.2165
ayari	-11.217
▁ninapo	-11.2174
▁radi	-11.2179
asisha	-11.2188
▁Jumui	-11.2188
▁z	-11.2189
▁mw	-11.2191
bo	-11.2193
▁utaalam	-11.2197
▁ukingo	-11.2198
gunduliwa	-11.2198
amuzi	-11.2199
▁Milk	-11.22
▁Hamlet	-11.22
▁Instagram	-11.22
▁Kimataifa	-11.22
▁Napoleon	-11.22
▁Thomas	-11.22
▁milinganyo	-11.22
▁utaftaji	-11.22
▁makao	-11.22
▁Viwanda	-11.22
▁mipya	-11.22
▁mabomba	-11.22
▁uingizaji	-11.22
▁vichekesho	-11.22
▁vivutio	-11.22
jishughulish	-11.22
▁mabishano	-11.22
▁Yangu	-11.22
▁kielimu	-11.22
▁kitaifa	-11.22
▁sakafu	-11.22
▁90%	-11.22
▁mijadala	-11.22
▁mmomonyoko	-11.22
▁wafuatao	-11.22
▁manukuu	-11.2201
▁mirefu	-11.2201
▁yanayohitajika	-11.2201
▁chanjo	-11.2201
▁vikumbusho	-11.2201
▁yanayowezekana	-11.2201
▁manne	-11.2201
▁kivuli	-11.2201
▁porini	-11.2201
▁mwavuli	-11.2201
▁chokaa	-11.2201
▁koti	-11.2202
▁kutoroka	-11.2202
▁vinne	-11.2202
▁vikali	-11.2202
▁homa	-11.2203
▁IV	-11.2203
▁mbuga	-11.2203
▁utupu	-11.2203
▁uchapishaji	-11.2203
▁udadisi	-11.2203
▁kuthamini	-11.2203
▁yanayotokana	-11.2205
▁kuhamasishwa	-11.2205
nMakala	-11.2206
▁Giza	-11.2206
▁mkataba	-11.2206
▁kuvunjika	-11.2206
▁kifalme	-11.2207
▁kubebeka	-11.2207
▁kuvinjari	-11.2208
zalisha	-11.2208
▁umejaa	-11.2208
▁reja	-11.2213
▁washindani	-11.2214
ies	-11.2216
▁inayoendelea	-11.2217
▁mwishowe	-11.2221
▁Nzuri	-11.2221
▁kunyo	-11.2221
▁Euro	-11.2221
▁Riwaya	-11.2221
▁Nyangumi	-11.2221
▁matamanio	-11.2222
▁kejeli	-11.2222
▁1945	-11.2222
▁utajiri	-11.2222
▁uokoaji	-11.2223
▁Mtiririko	-11.2223
▁inayoonekana	-11.2225
▁yasiyotarajiwa	-11.2228
▁William	-11.2232
Picha	-11.2232
Je	-11.2233
▁5:	-11.2233
▁Ad	-11.2233
▁Uchambuzi	-11.2237
Chati	-11.224
▁Panda	-11.224
▁Siri	-11.224
▁unatafuta	-11.2247
dumisha	-11.2253
▁toni	-11.2254
are	-11.2255
▁Uzuri	-11.2259
▁Tarehe	-11.2259
▁Viazi	-11.2259
▁Marafiki	-11.226
▁Kifaa	-11.226
▁Pro	-11.226
▁unatumia	-11.2262
main	-11.2262
▁watengenezaji	-11.2285
▁unafikiri	-11.2296
▁Mpira	-11.2297
▁Profesa	-11.2297
▁Aprili	-11.2297
▁Majani	-11.2297
lst	-11.2298
▁Dawa	-11.2299
Usiku	-11.2301
Kampuni	-11.2304
▁Tayari	-11.2305
bi	-11.2306
zote	-11.2308
sh	-11.231
Watu	-11.232
0,000	-11.2322
kaa	-11.2323
2:	-11.2326
▁kuwakilish	-11.2326
▁Max	-11.2329
▁ari	-11.2347
ifanye	-11.2358
▁Cat	-11.2366
ende	-11.2367
▁koma	-11.237
chini	-11.237
▁Ndoto	-11.2374
▁De	-11.2386
ge	-11.2389
igizaji	-11.2395
tumizi	-11.2397
▁70	-11.2408
▁Che	-11.2424
▁Te	-11.247
▁19.	-11.2476
▁Alianz	-11.2504
jali	-11.2508
vutia	-11.2517
▁kadiri	-11.2533
▁80	-11.2546
▁uti	-11.2553
▁Isiyo	-11.2553
&#39;)	-11.2554
▁kwayo	-11.2555
▁16.	-11.2558
agiza	-11.2559
ifunz	-11.258
▁tume	-11.2593
ul	-11.2606
wahimiz	-11.2616
uhusu	-11.2623
atibabu	-11.2638
tekeleza	-11.2658
▁liwe	-11.2659
▁huhitaji	-11.2669
\"><	-11.2675
▁Mac	-11.2682
inakadiri	-11.2701
sanidi	-11.2714
lipa	-11.2736
osha	-11.2746
kamata	-11.2752
▁bili	-11.2761
▁kita	-11.2775
tambaa	-11.2776
poromok	-11.2778
45	-11.278
▁AU	-11.2781
can	-11.2784
wana	-11.2799
▁kipi	-11.2801
$	-11.2815
str	-11.2815
▁kosa	-11.2817
obe	-11.2818
▁chao	-11.2825
que	-11.2842
1.	-11.2851
stahimili	-11.2851
▁niliyo	-11.2855
▁kifua	-11.2858
andike	-11.2859
kutano	-11.2863
chezwa	-11.2863
wandishi	-11.2864
▁kiwanda	-11.2864
Mlinganyo	-11.2867
▁Galaxy	-11.2867
▁Kanisa	-11.2867
▁Kijapani	-11.2867
▁Pasifiki	-11.2867
▁Ufanisi	-11.2867
▁Wonderland	-11.2867
▁cubes	-11.2867
▁galaksi	-11.2867
▁uyoga	-11.2867
▁ruzuku	-11.2867
▁misimbo	-11.2867
▁nidhamu	-11.2867
length	-11.2867
▁wachanga	-11.2867
jpg	-11.2867
▁mweusi	-11.2867
▁roketi	-11.2867
▁vijijini	-11.2867
▁mitihani	-11.2867
▁kifani	-11.2867
▁mashaka	-11.2867
▁kwingineko	-11.2867
▁ufundi	-11.2867
▁Maswali	-11.2867
array	-11.2867
▁vazi	-11.2867
▁wenzako	-11.2867
▁mwinuko	-11.2867
funua	-11.2867
▁Newton	-11.2867
▁kidini	-11.2867
▁machafuko	-11.2867
▁tamasha	-11.2867
▁tabianchi	-11.2868
▁uvamizi	-11.2868
▁vidole	-11.2868
▁mwangu	-11.2868
▁maambukizi	-11.2868
▁Kuchambua	-11.2868
▁mteremko	-11.2868
▁visiwa	-11.2868
▁vyumba	-11.2868
▁uvutano	-11.2869
▁mswaki	-11.2869
▁uhai	-11.2869
▁zinazovutia	-11.2869
▁miongozo	-11.2869
kuandikia	-11.287
▁unavuma	-11.287
▁iliyofanikiwa	-11.287
▁kuhamishwa	-11.2871
▁vinavyohusiana	-11.2872
▁ulinganisho	-11.2872
▁kukodisha	-11.2872
▁mdomo	-11.2873
funika	-11.2873
▁chipsi	-11.2873
▁kubofya	-11.2874
▁Sifa	-11.2875
▁kupigwa	-11.2875
▁kike	-11.2877
▁kueleweka	-11.2878
▁inarejelea	-11.2878
▁kupotea	-11.2878
▁Rye	-11.2878
▁inayopatikana	-11.2879
▁apples	-11.288
▁itasaidia	-11.2881
▁huunganishwa	-11.2881
▁kukadiria	-11.2882
▁kukamilika	-11.2884
▁potofu	-11.2889
▁njoo	-11.2889
▁mng	-11.289
▁mbizi	-11.289
▁Jones	-11.289
▁katuni	-11.289
▁maafa	-11.289
▁kukumbatia	-11.289
▁Tiger	-11.289
▁Baridi	-11.2891
▁Doe	-11.2892
▁Njiani	-11.2892
▁kuabiri	-11.2893
▁Kate	-11.2895
▁Umeme	-11.2895
▁kutambuliwa	-11.2896
▁Misri	-11.2896
▁huhifadhiwa	-11.2897
▁45	-11.2898
▁vito	-11.2903
▁Kupiga	-11.2905
▁pua	-11.2908
▁zinazojulikana	-11.2909
▁Gra	-11.2914
▁Macho	-11.2914
▁zinge	-11.2915
▁Ningepend	-11.2921
▁Washa	-11.2928
▁uchafu	-11.2928
hirisha	-11.2929
▁Mandhari	-11.2929
▁Kichocheo	-11.293
▁Shukrani	-11.293
▁Jumb	-11.293
▁Benki	-11.293
▁falsafa	-11.293
gumu	-11.2937
▁Usaidizi	-11.2938
▁$2	-11.2943
inuka	-11.2949
lifanya	-11.2955
Bidhaa	-11.2961
Paka	-11.2963
▁35	-11.2966
peleka	-11.2981
▁27	-11.2984
▁Uhandisi	-11.2984
▁1000	-11.2987
▁Dali	-11.2991
table	-11.2996
▁inajadili	-11.3005
kutambulisha	-11.3007
▁Ninaweza	-11.3015
msingi	-11.3017
anzishwa	-11.3019
▁Mfanyakazi	-11.3031
kadiria	-11.3052
reat	-11.3053
▁chungu	-11.3058
unja	-11.307
▁Rudi	-11.3074
Iwe	-11.3077
▁Hai	-11.3077
-1	-11.3086
▁msem	-11.3089
▁kutua	-11.3098
▁**	-11.3098
naandika	-11.3103
fahamish	-11.312
▁23	-11.3126
olojia	-11.3132
ire	-11.3133
▁mkasi	-11.3138
▁54	-11.3143
log	-11.3156
▁ningepend	-11.3174
tokeza	-11.3182
▁Jaz	-11.3185
Kwa	-11.3185
fungwa	-11.3189
ron	-11.3191
Ilikuwa	-11.3196
▁nami	-11.3196
out	-11.3205
lala	-11.3209
fanana	-11.3211
▁kugawa	-11.3214
iumbe	-11.3215
furahishwa	-11.3218
nJina	-11.3225
thibitisha	-11.3228
▁mis	-11.3252
▁kurejele	-11.3254
sis	-11.3259
▁Android	-11.3265
mewahi	-11.327
▁kinachotumi	-11.3277
▁mtoa	-11.3281
▁mwit	-11.3284
▁100.	-11.3305
▁Nyu	-11.3319
lipenda	-11.3327
uka	-11.3343
ache	-11.3344
furaha	-11.3347
▁yanayosababish	-11.3347
cher	-11.3348
dhibitiwa	-11.3351
hamasisha	-11.3361
pamban	-11.3387
dhamiria	-11.3397
ea	-11.3399
ibi	-11.3418
beba	-11.3426
itikia	-11.3473
▁awe	-11.3483
▁Des	-11.3488
▁wala	-11.3493
▁Maon	-11.3497
▁zinazotegeme	-11.3506
▁imewa	-11.3514
ar	-11.352
▁kufuati	-11.3523
▁Bill	-11.3528
nJe	-11.3529
toi	-11.3541
ning	-11.3542
▁Alexa	-11.3553
arufu	-11.3558
▁alifurahi	-11.3563
hudumia	-11.3565
▁mfan	-11.3566
koloni	-11.357
▁Mtazam	-11.3571
▁ziwe	-11.3572
itilafu	-11.3576
arekebisho	-11.3576
changanyiko	-11.3576
pambwa	-11.3577
▁--	-11.3577
▁maswal	-11.3579
▁Rahisi	-11.3579
itendakazi	-11.358
ingatia	-11.358
▁Urejelezaji	-11.3581
▁sharti	-11.3581
▁tashibiha	-11.3581
▁urembo	-11.3581
▁watalii	-11.3581
Kwenye	-11.3581
append	-11.3581
▁Agosti	-11.3581
▁Fitzgerald	-11.3581
▁Linux	-11.3581
▁Maarifa	-11.3581
▁Muhimu	-11.3581
▁Street	-11.3581
▁kimkakati	-11.3581
▁maabara	-11.3581
▁moduli	-11.3581
▁oregano	-11.3581
▁utiririshaji	-11.3581
▁Cuba	-11.3581
▁ukadiriaji	-11.3581
▁Biden	-11.3581
▁waaminifu	-11.3581
▁Mwanasayansi	-11.3581
▁jalada	-11.3581
▁shindano	-11.3581
▁kalori	-11.3581
▁kiharusi	-11.3581
▁mlipuko	-11.3581
▁utumbo	-11.3581
▁mwangalifu	-11.3581
▁kichapishi	-11.3581
▁ufaao	-11.3581
▁bwawa	-11.3581
▁misaada	-11.3581
▁Kujitunza	-11.3581
▁kwetu	-11.3581
▁supu	-11.3581
▁utando	-11.3581
▁fanicha	-11.3582
img	-11.3582
▁mpana	-11.3582
▁ulioimarishwa	-11.3582
▁samani	-11.3582
Wekeza	-11.3582
▁Ugiriki	-11.3582
▁utotoni	-11.3582
▁kunyumbulika	-11.3583
▁yanayofanana	-11.3583
▁Ubunifu	-11.3583
▁ushujaa	-11.3583
▁dari	-11.3583
▁Panya	-11.3583
▁linalofuata	-11.3584
▁ukanda	-11.3585
▁msanidi	-11.3586
▁sumu	-11.3587
▁visa	-11.3588
▁pasta	-11.3588
▁mgogoro	-11.3589
▁mwako	-11.3589
▁ilivyokuwa	-11.3589
▁kuinua	-11.359
▁mpendwa	-11.3591
▁kuharibika	-11.3592
▁kusuluhisha	-11.3592
ujibu	-11.3593
▁kutofautiana	-11.3595
▁Kupika	-11.3595
onic	-11.3596
▁majang	-11.3597
▁kustaajabisha	-11.3597
▁Mwana	-11.3597
▁Ok	-11.3599
▁kuimba	-11.3599
get	-11.3601
▁kuzifanya	-11.3601
▁huchakata	-11.3601
▁kutunza	-11.3602
▁kusimulia	-11.3603
▁ncha	-11.3606
▁Daraja	-11.3606
▁Kirumi	-11.3606
▁Siagi	-11.3606
▁Bluu	-11.3606
▁Fibonacci	-11.3606
▁Onyesho	-11.3606
▁Dubu	-11.3606
▁Watoto	-11.3607
▁Wote	-11.3607
▁2008	-11.3607
litembelea	-11.3608
▁iliyotumika	-11.3608
▁Mei	-11.3608
▁Maadili	-11.3608
▁Grand	-11.3609
▁kuiba	-11.361
indua	-11.361
▁Ujumbe	-11.3611
▁Mwenye	-11.3611
▁alishinda	-11.3613
tie	-11.3613
▁inayohitaji	-11.3615
▁Ratib	-11.3617
mba	-11.362
▁ikifuat	-11.3621
adala	-11.3623
toe	-11.3624
▁awamu	-11.3629
▁kusimamiwa	-11.3629
GB	-11.3636
kama	-11.3637
▁alirudi	-11.3639
▁inayoendesh	-11.364
epuka	-11.3642
▁Kufiki	-11.3644
▁kuyumba	-11.3645
▁smoothie	-11.3649
▁Wewe	-11.3649
▁Ununuzi	-11.365
waweze	-11.3653
▁Usimamizi	-11.3657
endeleza	-11.3664
▁hukumu	-11.3666
ogopa	-11.3677
▁inatu	-11.3688
▁penseli	-11.3693
▁wazee	-11.3694
▁Kamba	-11.3703
naonekana	-11.3705
tumai	-11.3705
▁Waz	-11.3715
sur	-11.3717
chi	-11.3717
Mada	-11.3727
▁Daktari	-11.3737
▁60	-11.3741
IoT	-11.3744
▁20.	-11.3757
nyesha	-11.3757
Dk	-11.3758
of	-11.3761
uru	-11.3763
mejaa	-11.3769
kucha	-11.3769
▁kivinjari	-11.378
▁kuhami	-11.3782
Harry	-11.3783
▁Urafiki	-11.3784
teleza	-11.379
ombwa	-11.3794
▁pata	-11.3796
▁kukamat	-11.3797
iwezi	-11.3834
▁chagua	-11.3837
oleo	-11.3842
;);	-11.386
▁Jana	-11.3878
▁huzingati	-11.3879
▁64	-11.3921
liingia	-11.3923
chelewa	-11.3925
shuhudia	-11.3957
uku	-11.3963
nge	-11.3966
ibiwa	-11.3974
--	-11.3975
tunga	-11.399
il	-11.401
rudiwa	-11.402
tangazwa	-11.4032
▁matam	-11.4053
vaa	-11.406
gi	-11.4068
4.	-11.4072
▁upo	-11.4075
▁Maria	-11.4082
tulia	-11.4089
tumiaji	-11.4102
▁hum	-11.4107
tatu	-11.4109
baya	-11.4112
akampuni	-11.4122
ngependa	-11.4128
hitimu	-11.4146
pigi	-11.4147
thibitishwa	-11.4154
▁imebadilish	-11.4182
husish	-11.4186
binafsishwa	-11.4186
lisikia	-11.4186
▁ukaa	-11.421
form	-11.422
unazidi	-11.4233
ts	-11.4246
▁aligundu	-11.4247
meridhika	-11.4255
uuliza	-11.4287
ake	-11.4289
▁kut	-11.4291
afiti	-11.4301
kia	-11.4303
okeo	-11.4313
lifanikiwa	-11.4316
pelelezi	-11.4326
hahada	-11.433
yeyuka	-11.433
hudhuria	-11.4333
▁zilizokatwa	-11.4337
iwango	-11.4341
ord	-11.4344
wongozo	-11.4345
▁nyika	-11.4347
dugu	-11.4347
commerce	-11.4349
▁IBM	-11.435
▁Kusudi	-11.435
▁Lincoln	-11.435
▁Nyenzo	-11.435
▁Richard	-11.435
▁Sikiliza	-11.435
▁Uropa	-11.435
▁adventure	-11.435
▁fuwele	-11.435
▁jotoardhi	-11.435
▁kimbunga	-11.435
▁kiunganishi	-11.435
▁michango	-11.435
▁mifupa	-11.435
▁msanii	-11.435
▁nitrojeni	-11.435
▁ruhusa	-11.435
▁trilioni	-11.435
▁upotoshaji	-11.435
madereva	-11.435
▁balagha	-11.435
▁kuonja	-11.435
▁Everest	-11.435
▁Jibini	-11.435
▁hadharani	-11.435
▁egemeo	-11.435
▁madeni	-11.435
Vincent	-11.435
▁hoteli	-11.435
▁sabuni	-11.435
▁blender	-11.435
▁mikun	-11.435
▁vurugu	-11.435
▁pete	-11.435
▁Adele	-11.435
▁kikwazo	-11.435
▁upasuaji	-11.4351
▁manunuzi	-11.4351
▁silabi	-11.4351
▁bendi	-11.4351
▁Pindi	-11.4351
▁1999	-11.4351
▁kubashiri	-11.4351
▁uwindaji	-11.4351
▁utukufu	-11.4351
▁klabu	-11.4351
▁yanayolingana	-11.4351
▁ngano	-11.4351
▁zilizofichwa	-11.4351
▁shina	-11.4351
▁isikike	-11.4352
▁mahesabu	-11.4352
▁kirefu	-11.4352
▁shati	-11.4352
▁Ujasiri	-11.4352
▁Uwekezaji	-11.4352
▁Mtendaji	-11.4352
▁Bado	-11.4353
▁kuvuruga	-11.4353
▁unaovutia	-11.4353
▁uzio	-11.4353
▁poda	-11.4353
▁urais	-11.4353
▁mjanja	-11.4353
▁bata	-11.4354
▁inayovutia	-11.4354
▁zimeunganishwa	-11.4354
▁kuharakisha	-11.4355
▁kulalia	-11.4355
▁mcheshi	-11.4355
▁usanisinuru	-11.4355
▁inayohitajika	-11.4355
okofu	-11.4356
▁piga	-11.4357
tafutaji	-11.4357
zungumzia	-11.4358
▁mlangoni	-11.4359
▁kupimwa	-11.436
▁kujirudia	-11.436
▁mauaji	-11.436
▁unaohusiana	-11.436
▁hufanyika	-11.4361
[0]	-11.4362
▁hubadilika	-11.4365
▁zinazoendelea	-11.4366
▁kuitumia	-11.4367
▁uga	-11.4368
▁Katikati	-11.4368
▁kuteleza	-11.437
▁Dol	-11.437
▁Mungu	-11.4371
▁sanamu	-11.4371
▁Toni	-11.4373
▁wakicheza	-11.4373
▁kuzama	-11.4373
▁hawana	-11.4374
yakula	-11.4374
▁Arctic	-11.4377
▁Mashariki	-11.4377
▁YouTube	-11.4377
▁divai	-11.4377
▁Injini	-11.4377
▁vijiti	-11.4377
▁Bajeti	-11.4377
▁Indonesia	-11.4377
▁polar	-11.4377
▁kitambulisho	-11.4378
▁Watumiaji	-11.4381
▁zilizowekwa	-11.4382
▁Mtoto	-11.4382
▁kuelea	-11.4385
▁tuzo	-11.4385
▁unaendelea	-11.4386
▁kusasishwa	-11.4388
▁changu	-11.4391
▁Yanayo	-11.4392
▁askari	-11.4395
▁alikimbia	-11.4396
▁Mahitaji	-11.4397
▁mafundi	-11.4397
▁Juli	-11.4404
▁tata	-11.4414
▁ghala	-11.4419
▁wanariadha	-11.4424
▁Tatizo	-11.4424
▁Nyumbani	-11.4426
▁meli	-11.4436
▁Mwend	-11.4443
▁mpiga	-11.4449
▁const	-11.4453
▁Re	-11.4457
uko	-11.4461
▁Inatumi	-11.4461
uongezeka	-11.4461
fanyi	-11.4464
▁Soko	-11.4471
▁Kahawa	-11.4471
and	-11.4477
▁Usafiri	-11.448
▁hubeb	-11.4483
rejelea	-11.4486
▁Kuto	-11.4499
▁Viji	-11.4499
▁Las	-11.4504
▁kusukuma	-11.4508
nategemea	-11.4517
▁saikolojia	-11.4518
▁Jamii	-11.452
▁Keki	-11.4521
▁kutaka	-11.4534
ore	-11.4534
▁Tuta	-11.4538
sifiwa	-11.4541
▁baa	-11.4543
apple	-11.4554
Apple	-11.4562
▁isiwe	-11.4572
▁Wahusika	-11.4575
▁Agiz	-11.4579
▁Maua	-11.4583
▁watafiti	-11.4585
gcd	-11.4585
kifurahia	-11.4593
elfu	-11.4594
hama	-11.4595
hesabu	-11.4598
▁nene	-11.4608
4,	-11.4615
Lazima	-11.4616
muziki	-11.4623
Hapo	-11.4624
endelevu	-11.4627
nzi	-11.4634
Wa	-11.4653
Utafiti	-11.4666
▁kufupish	-11.467
▁alicho	-11.4675
5)	-11.4685
▁[2,	-11.47
▁wakulima	-11.47
pitisha	-11.4708
▁48	-11.4726
tanda	-11.4749
megundua	-11.4754
▁Uba	-11.4758
ahidi	-11.4762
karibia	-11.4765
%	-11.4775
▁Ja	-11.4778
igaji	-11.478
▁hupunguz	-11.4782
ati	-11.4789
▁kukataa	-11.4791
▁kusambaz	-11.4791
kazi	-11.4801
lijaribu	-11.4802
tu	-11.4806
nara	-11.4809
▁And	-11.4823
▁Duk	-11.4828
akumbusho	-11.4854
siri	-11.4859
tezi	-11.4881
tiririka	-11.4908
amu	-11.4919
▁anayetafut	-11.4922
Fi	-11.4923
nA	-11.4926
waka	-11.4936
upika	-11.4954
hitajika	-11.4973
▁Davi	-11.4976
simamizi	-11.4992
▁18,	-11.4994
,000	-11.4997
achwa	-11.4997
ort	-11.5002
uliz	-11.5003
do	-11.5004
kataa	-11.5009
▁Nel	-11.5031
▁Chu	-11.5047
▁hatu	-11.505
wazi	-11.5068
▁zinazohusish	-11.5075
▁kupa	-11.5092
▁kuwahi	-11.51
ovu	-11.5103
idhinishwa	-11.5105
fifia	-11.5111
kazo	-11.5112
tosha	-11.5113
lipotazama	-11.5135
▁hauwez	-11.5135
penzi	-11.5137
▁Aka	-11.5145
cheshi	-11.5152
▁kiwe	-11.5156
▁kuipa	-11.5159
cheka	-11.5162
ogelea	-11.5167
tatuliwa	-11.5168
gunduzi	-11.5176
▁chips	-11.5181
▁Ukos	-11.5181
▁VARCHAR	-11.5184
▁bioanuwai	-11.5184
▁hospitali	-11.5184
▁kijiometri	-11.5184
Takwimu	-11.5184
▁Ajabu	-11.5184
▁Canyon	-11.5184
▁Kumbukumbu	-11.5184
▁Kwenda	-11.5184
▁Mandela	-11.5184
▁Olimpiki	-11.5184
▁Santiago	-11.5184
▁kafeini	-11.5184
▁kuchipua	-11.5184
▁taslimu	-11.5184
▁upakiaji	-11.5184
▁Dakika	-11.5184
▁Yetu	-11.5184
▁Nguo	-11.5184
▁cumin	-11.5184
▁njama	-11.5184
▁Njano	-11.5184
▁wakimbizi	-11.5184
▁Frost	-11.5184
▁metali	-11.5184
▁Musk	-11.5184
▁usakinishaji	-11.5184
▁Ujao	-11.5184
▁satelaiti	-11.5184
▁ngoma	-11.5184
sung	-11.5184
▁msisitizo	-11.5184
▁mvivu	-11.5184
▁mvumilivu	-11.5184
▁1⁄	-11.5184
▁mwanzilishi	-11.5184
▁wenzake	-11.5184
▁mikuu	-11.5184
▁Wavuti	-11.5184
▁bango	-11.5184
▁kuzaliana	-11.5184
▁msimamo	-11.5184
▁mabara	-11.5184
▁mahindi	-11.5184
▁mpole	-11.5184
▁mabasi	-11.5184
▁misemo	-11.5184
▁insulation	-11.5185
▁tele	-11.5185
▁dada	-11.5185
▁vitambulisho	-11.5185
▁unaosimamiwa	-11.5185
▁-1/2	-11.5185
▁misimu	-11.5185
▁makaa	-11.5185
▁unayotaka	-11.5185
▁ubepari	-11.5185
▁vikubwa	-11.5185
▁matini	-11.5185
▁Yako	-11.5185
▁jicho	-11.5186
▁zinazorudiwa	-11.5186
▁kuniambia	-11.5186
▁USB	-11.5186
upendekez	-11.5186
▁umbile	-11.5186
▁zisizotarajiwa	-11.5186
▁Ustadi	-11.5186
▁pumu	-11.5187
▁Tochi	-11.5187
▁hobby	-11.5187
▁kujitambua	-11.5188
▁mtaji	-11.5188
Donald	-11.5188
▁hupungua	-11.5188
▁Lisa	-11.5189
▁kuhoji	-11.519
▁ukimya	-11.519
▁Utengenezaji	-11.519
▁zinazotolewa	-11.5191
▁iliyowekwa	-11.5191
▁iliyounganishwa	-11.5191
▁inayozunguka	-11.5191
▁kuigiza	-11.5192
▁zilizopita	-11.5192
▁inayotolewa	-11.5193
▁tufanye	-11.5194
▁imeongezeka	-11.5194
▁unafaa	-11.5195
▁aliyepewa	-11.5195
▁kujificha	-11.5196
nNakala	-11.5196
▁Mwit	-11.5198
▁wakitembea	-11.5198
▁hyperparameta	-11.52
▁sivyo	-11.5201
▁uenez	-11.5203
▁kufanana	-11.5203
▁uhariri	-11.5203
▁Brazil	-11.5205
▁amedhamiria	-11.5205
▁akienda	-11.521
▁kukusanyika	-11.5211
▁Simba	-11.5211
▁rap	-11.5212
▁nyoka	-11.5213
▁Leonard	-11.5213
▁Mavazi	-11.5213
▁Rasilimali	-11.5213
▁Sungura	-11.5213
▁Darasa	-11.5213
▁Viatu	-11.5213
▁factorial	-11.5213
Pointi	-11.5213
▁almasi	-11.5214
▁anaruka	-11.5214
meunganishwa	-11.5215
▁Gum	-11.5215
▁Rahisisha	-11.5216
▁inayojulikana	-11.5217
anahitaji	-11.5217
▁Ukubwa	-11.5218
▁5]	-11.5218
▁utamu	-11.5219
▁kuwekwa	-11.522
▁utaalamu	-11.5221
▁wenyeji	-11.523
▁uimarish	-11.5232
▁kuzidi	-11.5235
▁inawezekana	-11.5236
▁hujifunza	-11.5237
▁kushika	-11.524
▁ilianzishwa	-11.5245
▁huonyesh	-11.5246
▁Kaa	-11.5247
nNili	-11.5247
Geuza	-11.5251
nH	-11.526
▁majadiliano	-11.5264
▁Machi	-11.5264
▁mlalo	-11.5264
ungana	-11.5283
ingiliana	-11.5296
▁ufaulu	-11.5296
▁jinai	-11.5297
▁32	-11.5298
akala	-11.5298
▁GPS	-11.5299
▁Sana	-11.5302
▁alifurahia	-11.531
▁wito	-11.5315
▁Wenye	-11.5315
▁Faragha	-11.5316
▁Mkahawa	-11.5316
tumaini	-11.5317
▁yanafaa	-11.5323
▁Kasi	-11.5324
ula	-11.5326
uri	-11.5328
▁anasa	-11.5339
▁(2)	-11.534
5,	-11.5342
akitazama	-11.5342
-3	-11.5343
Kikombe	-11.5348
▁yatakuwa	-11.5351
▁kulipi	-11.5352
▁Red	-11.5353
60	-11.5366
pigana	-11.5367
▁Mtihani	-11.5369
▁Mbadala	-11.5372
kuzaji	-11.5383
(1,	-11.5384
▁nk	-11.5388
ton	-11.5404
▁kinga	-11.541
[1]	-11.542
▁unaowez	-11.5424
frac	-11.5425
2):	-11.5453
sum	-11.5456
▁![	-11.5458
▁$200	-11.5459
mbana	-11.5471
++)	-11.548
▁viashiri	-11.5484
++;	-11.5487
ngoja	-11.5488
▁hauta	-11.549
ikwa	-11.5508
potea	-11.5515
nywaji	-11.552
subiri	-11.5523
▁muhu	-11.5525
Jinsi	-11.5525
prime	-11.5526
pungua	-11.5529
Mteja	-11.5529
mapinduzi	-11.5531
nipa	-11.5531
Programu	-11.5532
kamba	-11.5537
▁43	-11.5539
mpa	-11.5542
▁Man	-11.5548
oga	-11.5553
▁Unapo	-11.5557
▁ML	-11.5563
UR	-11.5572
▁unacho	-11.5574
▁14,	-11.5575
▁hiari	-11.5583
simamia	-11.5588
▁new	-11.5598
irusi	-11.5608
jivunia	-11.5623
usi	-11.5635
̦̦̦̦̦̦̦̦̦̦̦	-11.5636
keti	-11.5642
ajiriwa	-11.5651
▁4]	-11.5656
mwagika	-11.5671
▁vituo	-11.5673
▁zimekuw	-11.5676
▁ninachowe	-11.5687
▁vip	-11.5694
iti	-11.5696
▁1]	-11.5697
nayotumia	-11.5704
man	-11.5706
chezaji	-11.5723
▁badilisha	-11.5724
7.	-11.5727
aliwa	-11.5729
funga	-11.5731
ch	-11.5763
-1]	-11.5771
line	-11.5774
lipoanza	-11.5778
kawa	-11.578
uawa	-11.5796
ashirika	-11.5813
pumzika	-11.5815
▁24,	-11.5817
▁tai	-11.5818
aham	-11.5825
ina	-11.5827
mbo	-11.5832
stahili	-11.5832
tion	-11.5859
imarisha	-11.5859
ume	-11.5863
▁Cham	-11.5872
ukwaa	-11.5881
nAna	-11.5898
▁Hil	-11.5932
furahi	-11.5937
▁kufukuz	-11.5949
he	-11.5951
▁16,	-11.5955
ekana	-11.5958
▁Ji	-11.5968
danganya	-11.5982
ref	-11.599
▁$3	-11.5991
nsi	-11.5992
▁kufadhili	-11.5997
kusanywa	-11.5998
jumbe	-11.6002
▁ilini	-11.6018
ikiwa	-11.602
mepotea	-11.6023
jisikie	-11.6024
ent	-11.6035
=&	-11.6035
yama	-11.6048
é	-11.6049
tatua	-11.6063
sahaulika	-11.6071
zalishaji	-11.6073
jificha	-11.6076
sasishwa	-11.6076
vyoathiri	-11.6079
▁kurekodi	-11.608
fanikisha	-11.608
pendeleo	-11.6081
chaguliwa	-11.6081
▁usafi	-11.6085
reheat	-11.6087
fereji	-11.6087
▁_____	-11.6089
istari	-11.6089
halisia	-11.609
▁mfuko	-11.609
ampeni	-11.6091
▁mtaala	-11.6091
▁Kadi	-11.6091
lmond	-11.6093
▁Gandhi	-11.6093
▁Gettysburg	-11.6093
▁Jumanne	-11.6093
▁kaskazini	-11.6093
▁nyundo	-11.6093
▁Holden	-11.6093
▁Muunganisho	-11.6093
▁Mwaminifu	-11.6093
▁Ubelgiji	-11.6093
▁Vijana	-11.6093
▁Vinci	-11.6093
▁brashi	-11.6093
▁kaunta	-11.6093
▁maelekezo	-11.6093
▁mavuno	-11.6093
▁mizunguko	-11.6093
▁mwafaka	-11.6093
▁vimbunga	-11.6093
andamana	-11.6093
▁Nobel	-11.6093
▁Ufikiaji	-11.6093
▁kiubunifu	-11.6093
▁wazuri	-11.6093
▁Idara	-11.6093
▁lafudhi	-11.6093
▁nyuzinyuzi	-11.6093
▁werevu	-11.6093
▁Parmesan	-11.6093
▁gridi	-11.6093
▁kusahihisha	-11.6093
▁Elmer	-11.6093
▁isiyohamishika	-11.6093
▁kusini	-11.6093
▁malazi	-11.6093
▁muuzaji	-11.6093
Utamaduni	-11.6093
▁console	-11.6093
▁Chanzo	-11.6093
▁paprika	-11.6093
▁coronavirus	-11.6093
▁turbine	-11.6093
▁2016	-11.6093
right	-11.6093
▁masikio	-11.6093
Sahani	-11.6093
▁mwenzake	-11.6093
▁pakiti	-11.6093
▁raha	-11.6093
▁kidemokrasia	-11.6093
▁kicheko	-11.6093
▁iliyoboreshwa	-11.6093
▁masimulizi	-11.6093
alikwa	-11.6093
▁ulivuma	-11.6094
▁Magonjwa	-11.6094
▁anaerobic	-11.6094
▁mbinguni	-11.6094
▁Utulivu	-11.6094
▁kuponi	-11.6094
▁maandamano	-11.6094
▁pochi	-11.6094
▁zinazozalishwa	-11.6094
▁udanganyifu	-11.6094
▁kuchaji	-11.6095
▁heshi	-11.6095
▁maboresho	-11.6095
▁Kofia	-11.6095
▁kuongezwa	-11.6095
▁iliyopikwa	-11.6095
kandamiza	-11.6095
▁yanayobadilika	-11.6095
▁inayokosekana	-11.6096
▁mazito	-11.6096
▁kuambukiza	-11.6096
▁oveni	-11.6097
▁kujitenga	-11.6097
▁usajili	-11.6097
▁ulianz	-11.6097
▁hawaja	-11.6097
▁kulindwa	-11.6097
mfanyabiashara	-11.6097
patikane	-11.6097
▁kitamathali	-11.6098
▁upesi	-11.6098
▁kujiandikisha	-11.6098
▁upishi	-11.6098
▁kuondolewa	-11.6098
▁vinavyopatikana	-11.6099
▁kuziba	-11.6099
▁wataalam	-11.6099
tional	-11.61
▁zinazobadilika	-11.6101
▁kujumuishwa	-11.6101
ikadi	-11.6101
▁anakimbia	-11.6101
▁Mwili	-11.6101
▁kushughulikiwa	-11.6102
▁mabawa	-11.6102
▁kuwasilishwa	-11.6102
▁kufasiriwa	-11.6103
▁Yoga	-11.6103
▁akaruka	-11.6104
▁uifanye	-11.6104
Wenyewe	-11.6105
▁pembeni	-11.6106
▁uelewaji	-11.6106
▁hufuata	-11.6107
▁kukubaliana	-11.6108
▁kutiririka	-11.6108
tetemek	-11.6108
idole	-11.6109
▁kijijini	-11.6109
▁unaolenga	-11.611
aladi	-11.611
▁kubinafsishwa	-11.6111
gharimu	-11.6112
^3	-11.6113
nakubali	-11.6114
▁kujaribiwa	-11.6114
▁unaojulikana	-11.6116
▁mila	-11.6117
▁Kujitolea	-11.6117
tumishi	-11.6117
eleweka	-11.6121
▁nyay	-11.6122
▁sa	-11.6122
▁kalamu	-11.6125
▁kitanda	-11.6125
▁zabibu	-11.6125
▁Berlin	-11.6125
▁nyangumi	-11.6125
▁Frank	-11.6125
▁vumbi	-11.6125
▁vicheko	-11.6125
▁sentimita	-11.6125
▁kamusi	-11.6126
▁kuelimisha	-11.6126
▁Hofu	-11.6127
onster	-11.6127
▁bunge	-11.6127
▁mhimili	-11.6127
▁Washirika	-11.6127
▁Kupanga	-11.6127
▁profesa	-11.6129
▁anagrams	-11.6131
▁uovu	-11.6133
▁kuangaza	-11.6136
▁kuonyeshwa	-11.6136
▁Baadaye	-11.6138
ahakama	-11.6139
▁huundwa	-11.6139
katili	-11.6139
▁Nile	-11.6139
▁amevaa	-11.614
▁Alisema	-11.6141
tabasamu	-11.6144
▁tag	-11.6146
tunzi	-11.6152
▁kufa	-11.6152
▁inahitajika	-11.6152
ekodi	-11.6156
▁aliandika	-11.6158
▁Kuandik	-11.6159
▁inapatikana	-11.6163
mwomba	-11.6163
▁Hatu	-11.6164
nPaka	-11.6166
ty	-11.6168
+1]	-11.6173
▁aliendelea	-11.6173
▁huishi	-11.6179
▁Spring	-11.618
▁Mradi	-11.6181
▁shupavu	-11.6181
▁Godfather	-11.6181
▁Pizza	-11.6181
▁palindrome	-11.6181
▁Pesa	-11.6181
▁mdalasini	-11.6181
▁husafiri	-11.6182
▁Mfuko	-11.6182
▁Home	-11.6182
pokelewa	-11.6182
▁Tai	-11.6183
▁zama	-11.619
-1)	-11.6191
▁Zi	-11.6193
▁anagram	-11.6195
▁nilifanya	-11.6196
▁akilini	-11.6201
undi	-11.6205
nakuja	-11.6207
kondo	-11.6209
▁yapi	-11.6211
ozi	-11.6215
uhamasish	-11.6219
hakikish	-11.6221
▁unapata	-11.6226
awi	-11.6228
▁Tume	-11.6252
fuatayo	-11.6256
▁Alifurahi	-11.6257
▁Fik	-11.6257
▁Bo	-11.626
▁Barabara	-11.6262
▁dogo	-11.6262
▁pop	-11.6264
▁30,	-11.6268
enus	-11.627
▁4)	-11.6277
▁reverse	-11.6282
▁limeku	-11.6286
naotaka	-11.6289
▁haun	-11.6295
▁mashariki	-11.6296
tokeo	-11.6298
elekeza	-11.6316
▁ta	-11.6317
nga	-11.6326
8.	-11.6345
▁salamu	-11.6355
▁ute	-11.6357
▁kuyafany	-11.6362
▁Uku	-11.6363
ssi	-11.6377
▁madai	-11.6389
▁uvu	-11.6397
▁kusimb	-11.6398
chawi	-11.6401
▁god	-11.6406
▁Aliji	-11.6408
▁Samahani	-11.6414
▁bongo	-11.6415
▁Hakuwa	-11.6424
qu	-11.6429
▁Uhifadhi	-11.6445
▁on	-11.6461
▁IT	-11.6462
Habari	-11.6465
angalie	-11.6468
amani	-11.6469
▁jumuishi	-11.6469
Alice	-11.6469
▁kinge	-11.6491
semi	-11.6498
▁Kudhibiti	-11.6504
▁ninafurahi	-11.6505
atio	-11.6509
Android	-11.6514
inia	-11.6521
ers	-11.6523
mbiu	-11.6529
Athari	-11.653
shirikiwa	-11.6532
maneno	-11.6533
kujifunza	-11.6533
▁Muktadha	-11.6534
safu	-11.6535
ics	-11.6536
our	-11.6538
moyo	-11.6541
▁Sahihi	-11.6542
▁1990	-11.6544
ndogo	-11.6549
isipo	-11.6558
▁wawe	-11.6559
heshimiwa	-11.6561
rika	-11.6566
natoa	-11.6575
▁inayoangazi	-11.6593
▁zima	-11.6595
lishiriki	-11.6596
▁Pik	-11.6598
▁inayoleng	-11.6599
able	-11.6611
▁mapi	-11.6615
▁tembea	-11.6624
mpeleka	-11.6624
▁jengo	-11.6627
▁Ita	-11.6628
▁gia	-11.6628
tathmini	-11.6632
3)	-11.6637
tasaidia	-11.666
my	-11.6674
kuwepo	-11.6678
likaa	-11.6689
▁2019.	-11.6692
Na	-11.6698
ant	-11.6702
lezi	-11.6705
▁Ra	-11.6713
siliana	-11.6721
ey	-11.6736
▁utani	-11.6738
kate	-11.674
▁uliyo	-11.6742
▁alifik	-11.675
kali	-11.6751
zingatiwa	-11.6761
jaji	-11.6776
▁Pet	-11.6787
6,	-11.6801
jengo	-11.6811
▁niko	-11.6815
▁Ar	-11.682
▁17,	-11.6835
rc	-11.6845
▁inawakilish	-11.6847
▁zinafa	-11.6848
▁Walipo	-11.6854
▁$100	-11.6858
▁unaozingati	-11.6881
end	-11.6883
▁Ca	-11.6888
shuka	-11.6921
lisha	-11.6933
11	-11.6938
▁...	-11.6941
▁lst	-11.6956
▁main	-11.6964
pate	-11.6968
▁inawa	-11.6974
furahisha	-11.6974
▁kusali	-11.6977
ith	-11.699
▁hurejele	-11.6998
lazimisha	-11.7017
:<	-11.7026
iba	-11.7026
yunyiza	-11.7034
▁wanayo	-11.7045
inasikika	-11.7061
ukumu	-11.7069
▁vilivyokatwa	-11.707
▁Tangu	-11.7071
▁Way	-11.7077
geuka	-11.7081
wanja	-11.7082
oti	-11.7087
▁kinachofuata	-11.7087
▁jeshi	-11.7088
azungumzo	-11.7088
buga	-11.7088
▁kuingilia	-11.7089
asuala	-11.7089
nem	-11.709
fuatiliaji	-11.709
ustani	-11.709
▁Sara	-11.7091
huba	-11.7092
uhudi	-11.7092
Kielelezo	-11.7093
Photosynthesis	-11.7093
▁Algorit	-11.7093
▁Arizona	-11.7093
▁Barcelona	-11.7093
▁Hisabati	-11.7093
▁Kennedy	-11.7093
▁Kivumishi	-11.7093
▁Mediterania	-11.7093
▁Strawberry	-11.7093
▁Vietnam	-11.7093
▁Vimbunga	-11.7093
▁Vinginevyo	-11.7093
▁dhamana	-11.7093
▁farasi	-11.7093
▁hafifu	-11.7093
▁hypothesis	-11.7093
▁jordgubbar	-11.7093
▁kanisa	-11.7093
▁kiroho	-11.7093
▁kujifunzia	-11.7093
▁maegesho	-11.7093
▁nyangavu	-11.7093
▁photosynthesis	-11.7093
▁quinoa	-11.7093
▁risasi	-11.7093
▁strawberry	-11.7093
▁vibambo	-11.7093
▁volkeno	-11.7093
’	-11.7093
▁Mandarin	-11.7093
▁tishu	-11.7093
▁unyevunyevu	-11.7093
▁endIndex	-11.7093
▁kimakosa	-11.7093
▁neuron	-11.7093
▁viambatisho	-11.7093
shirt	-11.7093
▁limerick	-11.7093
▁nondo	-11.7093
▁mwanasiasa	-11.7093
click	-11.7093
screen	-11.7093
▁begi	-11.7093
▁sasisho	-11.7093
▁Kifedha	-11.7093
▁Kiuchumi	-11.7093
▁Photoshop	-11.7093
▁mafua	-11.7093
▁sebule	-11.7093
▁ufundishaji	-11.7093
▁kilichokatwa	-11.7093
▁Malengo	-11.7093
▁boksi	-11.7093
▁upatano	-11.7093
▁Sabuni	-11.7093
▁mianzi	-11.7093
▁Turing	-11.7093
▁mzinga	-11.7093
▁mkao	-11.7093
▁densi	-11.7093
▁shambulio	-11.7093
▁vichanganyike	-11.7093
▁Matengenezo	-11.7093
▁Vegas	-11.7093
▁warsha	-11.7093
▁Uvumilivu	-11.7093
▁zikiwemo	-11.7093
▁3/4	-11.7093
▁mbolea	-11.7093
▁mguu	-11.7093
▁mmenyuko	-11.7093
▁msamaha	-11.7093
▁Gates	-11.7093
▁podikasti	-11.7093
▁mwanariadha	-11.7093
▁algorithmic	-11.7093
▁mapigano	-11.7093
▁Kihindi	-11.7094
▁jiwe	-11.7094
▁babu	-11.7094
▁ukosoaji	-11.7094
▁ukamilifu	-11.7094
▁alibweka	-11.7094
▁Jim	-11.7094
▁vichujio	-11.7094
▁Kupumua	-11.7094
▁Orange	-11.7094
▁Bunge	-11.7094
▁makopo	-11.7094
▁kitambo	-11.7094
▁mkondo	-11.7095
▁ukarabati	-11.7095
▁Wiki	-11.7095
▁madarakani	-11.7095
▁tiba	-11.7095
▁kizazi	-11.7095
▁mbichi	-11.7095
▁Usanifu	-11.7095
fichuliwa	-11.7095
▁iliyofichwa	-11.7095
▁tumbo	-11.7096
▁Hema	-11.7096
▁kujumlisha	-11.7096
▁vinavyowezekana	-11.7096
▁maganda	-11.7096
▁uliowekwa	-11.7096
▁haiwezekani	-11.7096
▁meusi	-11.7096
▁Mgombea	-11.7096
▁yasiyozidi	-11.7097
▁ukusanyaji	-11.7097
▁mpishi	-11.7097
patikanaji	-11.7097
mechan	-11.7097
▁kilichotolewa	-11.7097
▁AWS	-11.7097
▁ubaridi	-11.7097
▁Urithi	-11.7097
▁2-3	-11.7098
VR	-11.7098
▁baraka	-11.7098
tunavyowasiliana	-11.7099
▁unaofuata	-11.7099
▁Majibu	-11.7099
▁ukoko	-11.7099
▁kuchanganyikiwa	-11.7099
▁mwituni	-11.7099
▁kuficha	-11.7099
▁kunyonya	-11.7099
▁atashinda	-11.7099
▁Kodi	-11.71
▁kuheshim	-11.71
▁Wakala	-11.71
▁kuimarika	-11.71
▁ofisini	-11.71
▁Jam	-11.71
▁kuchoka	-11.7101
▁Mipang	-11.7101
nKifungu	-11.7102
▁unashughulikia	-11.7102
▁unaotumiwa	-11.7102
▁ukali	-11.7102
▁ninayopenda	-11.7102
▁nimepata	-11.7103
▁kukamilishwa	-11.7103
▁kustawi	-11.7104
▁vyoo	-11.7105
▁kuhatarisha	-11.7107
▁midia	-11.7107
▁amana	-11.7107
ikabili	-11.7108
▁upote	-11.7108
lahi	-11.7109
▁aiskrimu	-11.7109
▁----------	-11.7111
▁kutaja	-11.7113
▁kuthibitishwa	-11.7113
▁kunipa	-11.7114
▁kunyesha	-11.7115
▁isiyoonekana	-11.7116
▁kustahimili	-11.7117
▁kusambazwa	-11.7117
▁Samani	-11.7118
▁chatbots	-11.7118
▁inayoongezeka	-11.7118
▁TV	-11.7119
▁kubeba	-11.7119
▁Shahada	-11.712
▁France	-11.712
nMtu	-11.7121
▁(1)	-11.7122
▁Mama	-11.7123
nums	-11.7124
▁ikawa	-11.7127
▁Kauli	-11.7128
▁Matatizo	-11.7128
▁Zabibu	-11.7128
▁majeraha	-11.7128
▁Jupita	-11.7129
▁mchangamfu	-11.7129
▁Mawingu	-11.7129
▁RNA	-11.7129
▁hupim	-11.7129
▁uondoaji	-11.713
▁Peru	-11.713
▁Utata	-11.713
▁ugawaji	-11.713
▁makataa	-11.713
uingili	-11.7131
▁machoni	-11.7132
▁yanavyo	-11.7132
▁Majina	-11.7132
▁Urahisi	-11.7132
▁pauni	-11.7133
▁Kupumzika	-11.7137
▁Mkate	-11.7138
tunzwa	-11.7139
▁wahamiaji	-11.714
alimu	-11.7142
▁0.5	-11.7144
ion	-11.7146
▁inanyesha	-11.7148
▁tunda	-11.715
najadili	-11.7152
peana	-11.7153
▁kujengwa	-11.716
▁kuamka	-11.7162
▁kukomesh	-11.7162
▁50.	-11.7164
▁piano	-11.7164
▁inayojadili	-11.7167
▁kikoa	-11.7168
nMada	-11.7169
tegemezi	-11.7181
isitu	-11.7186
▁Roh	-11.7188
▁washirika	-11.7188
▁Msingi	-11.719
▁Mwanaume	-11.719
▁RAM	-11.719
▁Mapato	-11.7191
▁mshahara	-11.7194
▁ambatani	-11.72
ografia	-11.7203
uongeze	-11.7208
▁Kukimbia	-11.7208
▁wamefanya	-11.7208
________________	-11.7214
▁Amazoni	-11.7221
▁alikula	-11.7221
siwe	-11.7222
ali	-11.7222
▁viko	-11.7223
▁Chem	-11.7231
nne	-11.724
40	-11.7244
▁Fun	-11.7251
▁magharibi	-11.7254
▁NULL	-11.7254
▁Oksijeni	-11.7254
▁viambat	-11.7255
▁Kaanga	-11.7255
▁hapana	-11.7255
▁Uvumbuzi	-11.7259
Linda	-11.7261
▁Kuishi	-11.7265
ongozi	-11.7268
5.	-11.7272
plit	-11.7279
jisalimisha	-11.728
▁kilo	-11.7283
▁zinazofany	-11.7284
▁Ukiwa	-11.7286
taja	-11.7293
▁Hummingbird	-11.7297
▁kumiliki	-11.73
▁Po	-11.7305
▁jinsia	-11.7315
liweza	-11.7316
▁makusudi	-11.7319
▁Anwani	-11.7319
▁number	-11.732
▁Va	-11.7333
Ma	-11.7339
▁VA	-11.7343
ngetumia	-11.7343
▁Vipenge	-11.7349
mi	-11.7351
▁Iki	-11.7352
̦̦̦̦̦̦̦̦̦̦̦̦̦̦̦̦	-11.7354
futa	-11.7355
furushi	-11.7359
ima	-11.7365
tambulisha	-11.7366
co	-11.7373
zee	-11.7376
▁var	-11.7377
▁mia	-11.7388
kengeu	-11.7391
3.	-11.7394
12	-11.74
44	-11.742
▁haip	-11.7437
aeneo	-11.7453
be	-11.7466
ium	-11.7475
gonga	-11.7486
▁kuorodhesh	-11.7489
haribika	-11.7491
over	-11.7493
gawanyika	-11.7513
ce	-11.7515
▁yange	-11.7535
▁Jiwe	-11.7536
kokotoa	-11.7543
vyozidi	-11.7554
chukia	-11.7556
uma	-11.7557
75	-11.7561
▁it	-11.7568
Q	-11.7568
Nambari	-11.7569
ha	-11.7571
vami	-11.7574
▁Kufikiri	-11.7577
▁tunavyo	-11.7579
Gari	-11.758
Teknolojia	-11.7581
Mbwa	-11.7583
▁index	-11.7584
hamira	-11.7589
natumiwa	-11.7589
▁6:	-11.761
tazamo	-11.7612
uto	-11.7615
wanachama	-11.7631
mwitu	-11.7631
mwamba	-11.7632
tarehe	-11.7632
sort	-11.7633
Mwanafunzi	-11.7633
kimya	-11.7635
▁pan	-11.7635
jumla	-11.7635
Upendo	-11.7637
▁mag	-11.7637
ngapi	-11.7638
Chakula	-11.764
Roboti	-11.7641
Mtandao	-11.7643
huduma	-11.7643
▁[5,	-11.7644
juu	-11.7645
nomino	-11.7645
▁mwenza	-11.7645
chanya	-11.7646
picha	-11.7647
Siku	-11.7647
jizoez	-11.7649
▁akipiga	-11.765
mwezi	-11.7671
ahihisha	-11.7674
▁Kupungu	-11.7674
tic	-11.7681
9,	-11.7687
naotafuta	-11.7692
ens	-11.7702
karatasi	-11.7704
kubaliana	-11.7707
▁toast	-11.7715
oresha	-11.772
oksidi	-11.7735
aasisi	-11.7758
▁ulivyo	-11.7761
▁Inapo	-11.7777
▁72	-11.7791
jihusisha	-11.7799
navyoingiliana	-11.7806
▁3]	-11.785
▁Zilizo	-11.785
▁alio	-11.7855
▁nacho	-11.7871
imiza	-11.7876
▁kiko	-11.7877
tikisa	-11.7891
fichwa	-11.7896
▁nilipokuw	-11.79
▁_______	-11.7906
vinjari	-11.791
tafakari	-11.7914
afisa	-11.792
oro	-11.7931
▁Kutu	-11.7935
▁cos	-11.7939
▁Co	-11.7939
odi	-11.7945
gia	-11.7946
ionekan	-11.7947
▁aliwa	-11.7953
▁Micha	-11.7958
kitazama	-11.7966
▁hariri	-11.7971
▁hutoka	-11.7976
22	-11.7977
ari	-11.7978
pigwa	-11.7979
▁Ala	-11.7987
▁Cha	-11.799
tishwa	-11.7998
▁CG	-11.7999
▁long	-11.8005
jasiriamali	-11.8013
▁Onge	-11.8014
zingatie	-11.8017
▁upi	-11.8018
mishe	-11.8021
geni	-11.8022
▁huni	-11.8028
▁ninaipend	-11.8031
chor	-11.8038
▁Mali	-11.8042
▁kuchuki	-11.8043
▁milio	-11.8046
kita	-11.8055
15	-11.8057
▁uhakiki	-11.8063
▁umeridhi	-11.8064
natazamia	-11.8071
ungua	-11.8082
▁Tuma	-11.8089
tani	-11.8098
ambi	-11.8101
kosekana	-11.8116
▁kupenda	-11.8116
bit	-11.8135
ambie	-11.8135
sikiti	-11.8143
ambatan	-11.8148
▁bi	-11.8161
huri	-11.8161
00,	-11.817
hangaika	-11.8186
tenganishwa	-11.8186
akinisha	-11.8189
▁Sev	-11.8196
zalishwa	-11.8197
aapulo	-11.8198
wizi	-11.8198
fululizo	-11.8199
pangilio	-11.82
itayarish	-11.8201
▁sol	-11.8201
trix	-11.8201
hatarisha	-11.8202
emokrasia	-11.8202
▁ufuatili	-11.8203
ungumza	-11.8203
▁Robo	-11.8203
iondok	-11.8203
puppy	-11.8204
▁kibao	-11.8204
▁Mockingbird	-11.8204
▁Syria	-11.8204
▁amfibia	-11.8204
▁besiboli	-11.8204
▁heksadesimali	-11.8204
▁tenisi	-11.8204
▁thermodynamics	-11.8204
kabidhi	-11.8204
tahadharish	-11.8204
▁Florida	-11.8204
▁Larry	-11.8204
▁Methali	-11.8204
▁MongoDB	-11.8204
▁Norway	-11.8204
▁Protini	-11.8204
▁React	-11.8204
▁Tafakari	-11.8204
▁Uaminifu	-11.8204
▁cafe	-11.8204
▁ghorofa	-11.8204
▁glucose	-11.8204
▁glukosi	-11.8204
▁haradali	-11.8204
▁huluki	-11.8204
▁kalsiamu	-11.8204
▁kuhalalisha	-11.8204
▁kujumuika	-11.8204
▁mabonde	-11.8204
▁mwenendo	-11.8204
▁prism	-11.8204
▁subira	-11.8204
▁udereva	-11.8204
▁ukumbi	-11.8204
▁visukuku	-11.8204
▁̦̦̦̦̦̦̦̦̦̦̦̦̦	-11.8204
▁Ishara	-11.8204
▁mateso	-11.8204
▁parsley	-11.8204
▁Sokwe	-11.8204
▁ucheleweshaji	-11.8204
▁Maziwa	-11.8204
▁Umma	-11.8204
▁mawindo	-11.8204
▁mechi	-11.8204
▁havitumiki	-11.8204
▁vanila	-11.8204
teseka	-11.8204
▁fremu	-11.8204
▁sifuri	-11.8204
▁jazz	-11.8204
▁zambarau	-11.8204
▁fujo	-11.8204
▁Fals	-11.8204
▁LED	-11.8204
▁chetu	-11.8204
▁sindano	-11.8204
▁Fursa	-11.8204
▁amino	-11.8204
▁jiografia	-11.8204
▁24/7	-11.8204
▁Vitafunio	-11.8204
▁vikao	-11.8204
▁derivati	-11.8204
phone	-11.8204
▁limao	-11.8204
piganwa	-11.8204
▁haifai	-11.8204
▁maandalizi	-11.8204
▁mandharinyuma	-11.8204
▁meupe	-11.8204
▁unakoenda	-11.8204
▁matajiri	-11.8204
▁chip	-11.8204
▁antioxidants	-11.8204
▁uvimbe	-11.8204
▁ufugaji	-11.8204
▁upangishaji	-11.8204
▁wanasiasa	-11.8204
▁juma	-11.8204
mulika	-11.8204
▁Ushuru	-11.8204
▁turubai	-11.8204
zuiliwa	-11.8204
▁usiosimamiwa	-11.8204
▁1969	-11.8204
▁Ufungu	-11.8204
▁mshtuko	-11.8205
▁1980	-11.8205
▁Black	-11.8205
▁mhalifu	-11.8205
▁kulevya	-11.8205
▁Azimio	-11.8205
▁onyo	-11.8205
▁uliopikwa	-11.8205
▁uliofichwa	-11.8205
▁utandawazi	-11.8205
▁kukatwa	-11.8205
▁sawasawa	-11.8205
jue	-11.8205
▁yasiyofaa	-11.8205
▁migahawa	-11.8205
▁wakiimba	-11.8205
▁likiwaka	-11.8206
▁tambi	-11.8206
▁inavyoendelea	-11.8206
▁tisa	-11.8206
▁Matumaini	-11.8206
▁mikate	-11.8206
▁kujilinda	-11.8206
▁Hisa	-11.8206
){	-11.8207
▁tufe	-11.8207
▁Jeff	-11.8207
LAN	-11.8207
▁hauhitaji	-11.8207
▁mtamu	-11.8207
▁mfukoni	-11.8207
▁Adams	-11.8207
▁Aidha	-11.8207
▁kuvaliwa	-11.8207
▁Lily	-11.8208
▁kuukuu	-11.8208
▁kupanuka	-11.8208
▁zinazolingana	-11.8208
▁ushirika	-11.8208
▁alikubali	-11.8209
▁puto	-11.8209
▁manan	-11.8209
▁uelewano	-11.8209
janja	-11.8209
▁inayolingana	-11.821
▁kurusha	-11.821
▁roller	-11.8211
▁kingo	-11.8211
▁basil	-11.8211
▁povu	-11.8211
▁Milky	-11.8211
▁inayohusika	-11.8212
onjo	-11.8212
ushuhud	-11.8212
▁Kutafakari	-11.8212
▁imewekwa	-11.8212
▁kushuhudiwa	-11.8213
▁utumwa	-11.8213
▁kupendezwa	-11.8213
▁cheo	-11.8213
▁kufurahiya	-11.8214
▁Usawa	-11.8214
▁kujipanga	-11.8214
▁vidhibiti	-11.8214
▁kuchakatwa	-11.8215
▁tart	-11.8215
▁Taka	-11.8216
▁inayoongoza	-11.8216
▁inayobadilika	-11.8217
▁Uongozi	-11.822
▁kimap	-11.8221
▁vilivyopewa	-11.8221
user	-11.8221
▁Chaguzi	-11.8222
▁viwakilishi	-11.8222
▁kumeta	-11.8222
▁ameshinda	-11.8223
7,	-11.8224
▁zinapatikana	-11.8224
▁kujivunia	-11.8224
iver	-11.8226
▁mre	-11.8226
wanamume	-11.8227
▁akicheza	-11.8228
▁Am	-11.8228
timiza	-11.8228
▁inavutia	-11.8228
▁Kutembea	-11.8229
▁Anna	-11.8229
▁inalingana	-11.823
▁chumbani	-11.8231
▁kuthaminiwa	-11.8231
▁mikononi	-11.8234
▁wanandoa	-11.8235
▁nyara	-11.8235
▁unadhani	-11.8235
▁Rose	-11.8236
▁arifa	-11.8236
▁Kubadilika	-11.8237
▁Kujua	-11.8239
▁hekalu	-11.8241
kisia	-11.8242
▁Mtandaoni	-11.8243
▁else	-11.8244
▁fahari	-11.8244
▁ubinadamu	-11.8244
▁World	-11.8244
▁Kilimo	-11.8244
▁Video	-11.8244
▁Kangaroo	-11.8244
▁labda	-11.8244
▁Ardhi	-11.8244
▁kitendawili	-11.8244
▁Nov	-11.8244
▁Good	-11.8244
▁Kitendo	-11.8246
▁ikiwezekana	-11.8247
ingle	-11.8248
▁Msimu	-11.8252
▁kuchapishwa	-11.8253
▁Jenna	-11.8255
▁wagombea	-11.8257
ept	-11.8258
shtushwa	-11.8263
▁Lee	-11.8268
▁fani	-11.8273
▁Mhudumu	-11.8274
ororo	-11.8274
▁Em	-11.8275
▁vichafuzi	-11.8276
▁kuwalinda	-11.8276
▁anaishi	-11.8285
▁nika	-11.8289
▁Jo	-11.8289
▁waliji	-11.8304
mewekwa	-11.831
▁Sherehe	-11.8312
Ushindi	-11.8313
▁Smart	-11.8314
▁Nguruwe	-11.8314
▁Jennifer	-11.8314
▁Ladha	-11.8314
▁Node	-11.8314
▁NASA	-11.8314
▁senti	-11.8315
▁Brokoli	-11.8315
▁wanaishi	-11.8316
▁wanakijiji	-11.8319
▁Uchoraji	-11.832
▁Fuat	-11.8321
tendo	-11.8323
fikiriwa	-11.8325
hifadhiwa	-11.8326
▁kuendeshwa	-11.833
▁kufahamish	-11.8332
▁2021.	-11.8338
char	-11.8338
row	-11.834
▁Rap	-11.8343
▁YA	-11.8343
fadhiliwa	-11.8351
adri	-11.8352
▁Ame	-11.8359
▁Wako	-11.836
▁kutathminiwa	-11.836
asuku	-11.8363
▁86	-11.8363
▁huzalish	-11.8365
▁kucha	-11.8365
hanjo	-11.8366
▁kuvi	-11.837
▁ule	-11.8376
inua	-11.8384
▁wajasiriamali	-11.8385
▁Histogram	-11.8386
▁Salamu	-11.8386
▁Burudani	-11.8386
▁Taswira	-11.8386
▁pengine	-11.8387
▁kufaa	-11.8397
▁Mari	-11.8399
▁kudhoofi	-11.8402
▁Fom	-11.8412
▁zinazotumi	-11.8415
uk	-11.8417
amesimama	-11.8417
badilishaji	-11.8418
▁Pembe	-11.842
mia	-11.8422
▁Meny	-11.8424
changanua	-11.8426
jui	-11.8436
▁ajali	-11.8452
fisa	-11.8452
sumbua	-11.8455
chochewa	-11.8455
jiendesha	-11.8473
;<	-11.8478
natatizika	-11.8494
pakwa	-11.8497
nadhani	-11.8506
▁Kiti	-11.8509
yofanana	-11.8509
▁Kubuni	-11.8513
pikwa	-11.8517
▁aliyoku	-11.8519
chanua	-11.8521
▁ua	-11.8521
▁kushirikiwa	-11.8528
hesabi	-11.8528
▁Adventure	-11.8533
punguzwa	-11.854
kumbukwa	-11.8547
▁linalowez	-11.8547
safishaji	-11.8555
ang	-11.8557
▁unataka	-11.8567
▁1-2	-11.8567
▁mael	-11.8568
▁Alika	-11.8573
new	-11.8574
mpenda	-11.858
ily	-11.8582
Shati	-11.8587
kimbilia	-11.86
▁Nilifurahi	-11.8605
▁π	-11.8607
sahihi	-11.8617
▁Or	-11.8618
nP	-11.8626
▁Inayo	-11.8629
fadhili	-11.8636
sm	-11.8639
By	-11.8649
▁150	-11.8651
▁Tang	-11.8651
▁87	-11.8655
yotengenezwa	-11.8661
pendeza	-11.8661
▁walionyesh	-11.8669
mejifunza	-11.8671
iki	-11.8676
ary	-11.8681
▁inachunguz	-11.8682
nI	-11.8685
▁Chamb	-11.8689
chomoza	-11.8697
aramu	-11.871
eza	-11.871
▁lika	-11.8717
▁22,	-11.8718
les	-11.8726
▁do	-11.8728
▁washauri	-11.8734
▁tegemezi	-11.8735
▁mapit	-11.8737
▁kuuliz	-11.8743
33	-11.8766
▁Mlo	-11.877
fanyia	-11.8773
▁90,	-11.878
▁inavyowez	-11.8783
naopatikana	-11.8794
▁Har	-11.8796
▁paa	-11.8805
▁(1	-11.8807
▁BP	-11.8807
4)	-11.8809
add	-11.881
jitokeza	-11.8813
▁tendo	-11.8816
shirikiana	-11.8826
style	-11.883
bea	-11.8831
words	-11.8831
▁sort	-11.8836
ran	-11.8838
▁inayounganish	-11.8863
print	-11.8863
index	-11.8865
Muktadha	-11.8867
refu	-11.887
tafanya	-11.8871
▁Aki	-11.8872
hiari	-11.8873
▁Kim	-11.8874
Mbweha	-11.8879
▁imetu	-11.8883
Leo	-11.8885
▁uma	-11.8887
▁hutum	-11.8888
hati	-11.8889
ho	-11.8889
Faida	-11.8892
Kompyuta	-11.8892
kichwa	-11.8893
zawadi	-11.8895
baba	-11.8896
▁mar	-11.8897
▁semi	-11.8901
bei	-11.8902
▁wangeweza	-11.8902
▁panga	-11.8904
▁kujipa	-11.8906
iga	-11.8908
q	-11.8911
furahiya	-11.8912
▁75	-11.892
alijawa	-11.8926
▁uya	-11.8929
RD	-11.893
puuza	-11.894
▁Alipoku	-11.8941
Nimefurahi	-11.8944
▁95	-11.8949
▁25.	-11.8959
png	-11.8969
up	-11.8972
▁ukito	-11.8986
▁Ho	-11.8992
kiendelea	-11.8995
▁NA	-11.8996
urahisisha	-11.9013
▁2000	-11.9033
7)	-11.9038
▁Ru	-11.9041
▁Mag	-11.9043
per	-11.9056
alipenda	-11.9062
▁26	-11.9078
embetatu	-11.9079
▁kil	-11.9086
assic	-11.9092
age	-11.9092
▁kuzipa	-11.9093
▁inahusish	-11.9101
▁10:	-11.9105
ashio	-11.9111
naendelea	-11.9111
▁Gi	-11.9112
▁10.:	-11.9119
tio	-11.912
▁hayaja	-11.9122
▁37	-11.913
kubali	-11.9135
▁(2	-11.9149
▁unaowa	-11.9167
aga	-11.9167
▁fahamu	-11.9168
onyeshe	-11.917
unger	-11.917
fy	-11.9178
pinda	-11.92
▁7]	-11.9204
fukuza	-11.9211
▁wanazo	-11.922
mamia	-11.922
gonjwa	-11.9227
vuta	-11.9235
▁gumu	-11.9246
utusaidia	-11.9255
▁huji	-11.9262
▁huamu	-11.927
raka	-11.9274
▁Me	-11.928
5,000	-11.9286
fanyikazi	-11.929
93	-11.9292
tengenezaji	-11.9294
kabilian	-11.9294
▁21.	-11.9295
▁tuki	-11.9296
buni	-11.93
▁400	-11.9302
CO	-11.9307
sukum	-11.931
unga	-11.9319
,500	-11.9327
obby	-11.9328
ioni	-11.9333
auzo	-11.9343
ate	-11.9354
igwa	-11.9354
▁mat	-11.936
▁Cass	-11.9369
julishe	-11.9378
▁inafuati	-11.9384
▁En	-11.9395
unzi	-11.9396
▁kifun	-11.9396
simamiwa	-11.9402
hibitisha	-11.9412
abasamu	-11.9413
ushikaman	-11.9422
.:2	-11.9426
elekezwa	-11.9426
imeunganishwa	-11.9428
chakata	-11.9432
lisoma	-11.9438
pimwa	-11.944
element	-11.9441
▁Ne	-11.9445
sanisinuru	-11.9446
kaguzi	-11.9446
otuba	-11.9447
▁miungu	-11.9449
tekelezaji	-11.945
abla	-11.9452
ue	-11.9453
▁Shakespeare	-11.9453
intelligence	-11.9453
artificial	-11.9454
script	-11.9454
▁$500	-11.9454
Gundua	-11.9454
▁Picasso	-11.9454
▁Renaissance	-11.9454
▁Waterloo	-11.9454
▁bayoanuwai	-11.9454
▁cryptocurrency	-11.9454
▁jekundu	-11.9454
▁reptilia	-11.9454
̥	-11.9454
▁Alaska	-11.9454
▁Asubuhi	-11.9454
▁Buchanan	-11.9454
▁Colorado	-11.9454
▁Falcon	-11.9454
▁Madison	-11.9454
▁Mapendekezo	-11.9454
▁Nahau	-11.9454
▁Salinger	-11.9454
▁Voldemort	-11.9454
▁Zebaki	-11.9454
▁chemchemi	-11.9454
▁desturi	-11.9454
▁kumalizika	-11.9454
▁mwembamba	-11.9454
▁nadhifu	-11.9454
▁sokwe	-11.9454
▁usaili	-11.9454
▁vanilla	-11.9454
▁chura	-11.9454
▁kulungu	-11.9454
▁mwaloni	-11.9454
▁mwerevu	-11.9454
▁Neuron	-11.9454
▁Carolina	-11.9454
▁Mizani	-11.9454
▁Sahara	-11.9454
▁kibodi	-11.9454
▁lettuce	-11.9454
▁open	-11.9454
▁kitabia	-11.9454
▁mashimo	-11.9454
▁celery	-11.9454
▁Shujaa	-11.9454
▁Pepe	-11.9454
▁vifupisho	-11.9454
▁swichi	-11.9454
▁Twain	-11.9454
▁Poland	-11.9454
▁Majaribio	-11.9454
▁Maombi	-11.9454
▁makombora	-11.9454
▁nyati	-11.9454
ubofy	-11.9454
▁Kijerumani	-11.9454
▁Muuzaji	-11.9454
▁kipanya	-11.9454
▁Zohali	-11.9454
▁vipaumbele	-11.9454
▁omelette	-11.9454
▁feta	-11.9454
▁Electr	-11.9454
▁Nigeria	-11.9454
▁sorted	-11.9454
roman	-11.9454
▁peaches	-11.9454
▁inavyohitajika	-11.9454
▁mwasiliani	-11.9454
▁mchapakazi	-11.9454
wood	-11.9454
▁vyura	-11.9454
iduo	-11.9454
▁Misheni	-11.9454
▁madokezo	-11.9454
▁haitumiki	-11.9454
▁Games	-11.9454
jirudia	-11.9454
▁Austria	-11.9454
▁kifalsafa	-11.9454
▁uzembe	-11.9454
▁ushairi	-11.9454
▁majedwali	-11.9454
▁player	-11.9454
decimal	-11.9454
lanta	-11.9454
▁madaraka	-11.9454
▁Jimbo	-11.9454
bebeka	-11.9454
▁Iris	-11.9455
▁tairi	-11.9455
▁Nyasi	-11.9455
▁kandanda	-11.9455
▁yanayotiririka	-11.9455
▁maada	-11.9455
▁Pongo	-11.9455
▁yakipiga	-11.9455
▁unaomzunguka	-11.9455
▁zinazouzwa	-11.9455
select	-11.9455
▁1960	-11.9455
▁1984	-11.9455
▁kinachohitajika	-11.9455
▁Sukari	-11.9455
▁unayopenda	-11.9455
▁ufasaha	-11.9455
▁Kukasirika	-11.9455
▁Knight	-11.9455
▁utaifa	-11.9455
▁lever	-11.9456
▁Amani	-11.9456
▁Ustahimilivu	-11.9456
▁ikihitajika	-11.9456
▁msuguano	-11.9456
▁iliyoangaziwa	-11.9456
▁iliyosagwa	-11.9456
▁kinachowezekana	-11.9457
▁malisho	-11.9457
numbers	-11.9457
▁vilivyowekwa	-11.9457
▁funguo	-11.9457
▁Ford	-11.9457
▁ubinafsi	-11.9458
▁viwanja	-11.9458
▁unaofanana	-11.9458
▁Kijan	-11.9458
▁wanaohusika	-11.9458
▁uliopangwa	-11.9458
▁Inge	-11.9458
jane	-11.9458
▁kibaya	-11.9458
▁mioyo	-11.9459
▁Kuhoji	-11.9459
▁biti	-11.9459
▁kuvumbua	-11.9459
▁kishairi	-11.9459
▁ushirikishwaji	-11.9459
mini	-11.9459
▁anayetarajiwa	-11.946
▁zinazohusika	-11.946
agizwa	-11.946
▁yanayosimamiwa	-11.9461
zozo	-11.9461
▁isiyotarajiwa	-11.9461
▁Sir	-11.9461
▁(16	-11.9461
▁ziwani	-11.9462
▁ukutani	-11.9462
▁nikitembea	-11.9462
▁Kazik	-11.9462
▁kustarehesha	-11.9462
pekua	-11.9462
common	-11.9463
▁zinazosimamiwa	-11.9463
▁Johnson	-11.9463
▁iliyopendekezwa	-11.9463
▁kulinganishwa	-11.9464
(255)	-11.9464
Nenosiri	-11.9464
irisi	-11.9464
▁kukwe	-11.9465
▁kuwinda	-11.9465
▁yasiyojulikana	-11.9466
▁Brazili	-11.9466
amera	-11.9468
price	-11.9468
▁kuhesabi	-11.9468
sys	-11.9468
pinde	-11.9468
romat	-11.9469
▁kukatika	-11.9469
▁hula	-11.947
▁uamu	-11.947
▁Mwanamume	-11.947
▁kupikwa	-11.9471
ajukumu	-11.9471
▁Sisi	-11.9472
Num	-11.9472
▁Inatu	-11.9473
▁___	-11.9473
▁kugonga	-11.9473
alkia	-11.9475
▁Spishi	-11.9475
▁mmiliki	-11.9475
▁kilima	-11.9477
▁kuketi	-11.9477
▁unaotokana	-11.9479
customer	-11.948
▁hulipa	-11.948
▁kumwagili	-11.9483
vuma	-11.9485
▁unapita	-11.9485
ster	-11.9487
▁unaoonekana	-11.9487
nKitabu	-11.9489
▁Wam	-11.9491
opher	-11.9491
▁Alikubali	-11.9492
▁Meja	-11.9492
▁kite	-11.9493
▁aerobic	-11.9494
▁kuongozwa	-11.9494
▁80%	-11.9495
[2]	-11.9496
▁Model	-11.9496
▁algorithms	-11.9497
▁alizaliwa	-11.9499
▁Akaunti	-11.95
▁Argentina	-11.95
▁Cloud	-11.95
▁Dhoruba	-11.95
▁Hedgehog	-11.95
▁Kitunguu	-11.95
▁Obama	-11.95
▁Wasiwasi	-11.95
▁broccoli	-11.95
▁jarida	-11.95
▁infographic	-11.95
▁zika	-11.95
▁Stratus	-11.95
▁North	-11.95
▁Farasi	-11.95
▁kulazimisha	-11.95
▁Ameri	-11.9502
▁unang	-11.9502
▁Word	-11.9503
▁duma	-11.9504
▁halija	-11.9504
▁kuchemka	-11.9509
▁wazimu	-11.951
ad	-11.9511
▁Kuzaliwa	-11.9516
nMbwa	-11.952
▁Kudumu	-11.9522
▁kumwag	-11.9525
▁Jeshi	-11.9525
▁Salama	-11.9526
▁kinachofanya	-11.9527
▁uzingatia	-11.9529
▁kukabili	-11.9531
▁kuogopa	-11.9531
▁walianz	-11.9533
jenzi	-11.9535
▁Kuokoa	-11.9536
25,	-11.9537
▁wapinzani	-11.9538
Bibi	-11.9539
▁4.5	-11.9542
▁(3)	-11.9543
uoka	-11.9543
▁hutafut	-11.955
▁akitoa	-11.9552
▁kugeuka	-11.9557
▁wazungumzaji	-11.9557
nBidhaa	-11.9559
▁Tunapo	-11.9562
▁aliogopa	-11.9562
▁nyani	-11.9563
mpenzi	-11.9564
atarajio	-11.9574
order	-11.9575
▁ilitolewa	-11.9578
▁kuathiriwa	-11.9578
▁jamaa	-11.9578
▁Mgahawa	-11.9579
▁Theluji	-11.9579
▁Chumba	-11.958
▁White	-11.958
▁kusitawi	-11.9582
▁Pu	-11.9583
nAliku	-11.9585
lla	-11.9586
▁vikiwa	-11.9592
takiwa	-11.9595
▁War	-11.9595
▁193	-11.9596
ainish	-11.9602
ptop	-11.9609
▁Er	-11.9634
▁CA	-11.9639
ndari	-11.9639
▁Unafikiri	-11.9645
▁zulia	-11.9646
eneo	-11.9651
▁Kuzingatia	-11.9654
shangaa	-11.966
▁ngurumo	-11.966
▁62	-11.9661
▁Celsius	-11.9662
▁wanne	-11.9677
nest	-11.9679
geuza	-11.968
8)	-11.9684
▁300	-11.9692
ets	-11.9693
vil	-11.9694
lipishwa	-11.9694
▁mtete	-11.9696
▁Omb	-11.9703
▁yalisababish	-11.9709
tikiswa	-11.9711
▁Maliz	-11.9716
(0,	-11.9716
▁(3,	-11.9719
▁Anafurahi	-11.9739
▁adui	-11.9744
vunjika	-11.9746
lengwa	-11.9748
▁uingi	-11.9754
▁IP	-11.9756
kiuka	-11.9757
atiza	-11.9759
stawi	-11.9766
news	-11.9778
▁kutete	-11.9781
▁hushinda	-11.9787
▁ub	-11.9792
▁ulipo	-11.9796
▁kule	-11.98
▁imeandikwa	-11.9805
▁vyu	-11.9806
▁waigizaji	-11.9815
▁kabila	-11.9826
let	-11.9829
78	-11.9831
kumbatia	-11.9832
21	-11.9856
-2)	-11.9859
ufanya	-11.986
▁walifurahi	-11.988
▁Nimekuw	-11.9889
▁limeja	-11.9893
▁maw	-11.9896
▁$400	-11.9897
endeshi	-11.9907
kunywa	-11.9914
oma	-11.9921
▁Mar	-11.9924
vumilia	-11.9933
▁point	-11.9949
▁lilipo	-11.9953
▁23,	-11.9966
▁Natumai	-11.9971
oka	-11.9972
zidisha	-11.9983
imarishwa	-11.9992
fiki	-11.9993
▁let	-11.9999
ple	-12.0001
▁(6	-12.0011
ubi	-12.0018
▁panda	-12.0022
rudia	-12.0035
nder	-12.0037
ajimbo	-12.0047
▁imegawany	-12.0047
13	-12.0061
thi	-12.0073
▁ameji	-12.0077
meme	-12.0077
okali	-12.0081
DA	-12.0085
▁anaamini	-12.0087
litoka	-12.0091
▁add	-12.0092
mshiriki	-12.0101
▁wanga	-12.0106
3:	-12.0117
ioksidi	-12.0123
▁Ko	-12.0123
▁alikata	-12.0128
Ina	-12.013
▁urudi	-12.0148
▁Musta	-12.0152
idadi	-12.0163
▁hutathmini	-12.0164
▁kutenganish	-12.0164
▁$4	-12.0174
suluhisha	-12.0175
kunja	-12.018
▁44	-12.0184
mizi	-12.0194
random	-12.0196
kaji	-12.0202
ale	-12.0206
9)	-12.0218
ruhusiwa	-12.0236
js	-12.0236
▁ameja	-12.0236
▁Unge	-12.0241
eusi	-12.0243
simbwa	-12.0246
7:	-12.0253
umikia	-12.0255
nyunyiza	-12.0262
▁towe	-12.027
▁kuchomo	-12.0277
katika	-12.0287
kato	-12.0289
use	-12.029
uti	-12.0293
ripotiwa	-12.0296
kweli	-12.0297
elezewa	-12.0301
ML	-12.0302
toweka	-12.0304
mkasi	-12.0304
vuli	-12.0306
jumuishi	-12.0306
orodhesha	-12.0307
value	-12.0312
Elimu	-12.0319
Ndege	-12.0319
▁ndiz	-12.032
Ingawa	-12.0321
kitenzi	-12.0321
Dunia	-12.0322
tha	-12.0323
habari	-12.0324
bilioni	-12.0324
wiki	-12.0324
80	-12.0327
maisha	-12.0328
ling	-12.0331
kupa	-12.0332
mati	-12.0334
neno	-12.0337
ema	-12.034
Ninapend	-12.0343
tabirika	-12.0343
▁52	-12.0344
Data	-12.0348
(2,	-12.0353
LE	-12.0355
ow	-12.0357
▁al	-12.0359
▁Ag	-12.0374
▁31	-12.0375
nodi	-12.0377
ono	-12.0377
chuma	-12.0387
ipenda	-12.0395
nafuata	-12.0402
semo	-12.0409
Kula	-12.041
res	-12.0411
nguruma	-12.0412
for	-12.0414
igo	-12.0422
mwa	-12.0424
CD	-12.0438
wake	-12.0441
▁utapat	-12.0444
▁gcd	-12.0447
▁aliyo	-12.0453
▁Gawa	-12.0463
▁star	-12.0474
itumia	-12.0476
tafsiri	-12.0484
[5,	-12.0485
▁Ap	-12.051
nR	-12.0525
ation	-12.0525
1.1	-12.0526
▁kuwaka	-12.0529
am	-12.0532
wafanya	-12.0545
▁as	-12.055
▁huangaz	-12.0554
inabadilisha	-12.0574
ity	-12.0589
fi	-12.0594
all	-12.0606
▁kija	-12.0607
zima	-12.062
▁upitish	-12.0636
tengenezea	-12.0639
▁USA	-12.0642
▁nilicho	-12.0645
▁Mito	-12.0661
ewa	-12.0672
▁kujaz	-12.0674
▁miliki	-12.0683
andra	-12.0693
▁kumbuka	-12.0694
42	-12.0701
pisha	-12.0701
ment	-12.0706
10,	-12.0715
duka	-12.0717
azama	-12.0718
▁hufany	-12.0727
▁se	-12.0727
ongo	-12.0745
chakatwa	-12.0751
▁Niko	-12.0751
rest	-12.0755
▁To	-12.0759
ie	-12.0769
gie	-12.0771
date	-12.0773
EC	-12.0777
▁Ruth	-12.0777
tazamia	-12.078
9.	-12.0784
wasilish	-12.0789
▁whisk	-12.0792
▁Sur	-12.0792
▁iliyoand	-12.0793
guswa	-12.0812
▁cheese	-12.0818
▁sil	-12.0819
▁kufuli	-12.0819
zinduliwa	-12.0826
▁hawakuwa	-12.0826
rundi	-12.0832
100	-12.0832
▁Bot	-12.0832
▁Safi	-12.0839
sherehekea	-12.084
wamu	-12.0847
taathiri	-12.0848
hitimish	-12.0848
▁42	-12.0852
dict	-12.0855
sisimua	-12.0858
dadisi	-12.0861
▁wenza	-12.0864
tawanyika	-12.0865
ogeza	-12.0867
kamilishwa	-12.0868
isri	-12.0868
▁kufasiri	-12.0868
enezwa	-12.0869
bofya	-12.0871
singizi	-12.0871
▁hubadilish	-12.0873
▁System	-12.0874
adhimish	-12.0874
▁dessert	-12.0875
shahara	-12.0877
penye	-12.0878
tifaki	-12.0879
inafuata	-12.0879
izuizi	-12.0879
▁ndoa	-12.0879
▁majumba	-12.0879
domo	-12.0879
atangazo	-12.088
ikono	-12.088
inyago	-12.0882
▁kusita	-12.0882
elekeo	-12.0882
▁Darwin	-12.0882
▁Bayesian	-12.0882
▁hypot	-12.0882
▁Count	-12.0882
▁NBA	-12.0882
address	-12.0882
strasse	-12.0882
stratus	-12.0882
tengeneze	-12.0882
▁Cinderella	-12.0882
▁Computing	-12.0882
▁Denmark	-12.0882
▁Endelevu	-12.0882
▁Guinea	-12.0882
▁Hemingway	-12.0882
▁Mchele	-12.0882
▁Michigan	-12.0882
▁Midwest	-12.0882
▁Nafaka	-12.0882
▁Neptune	-12.0882
▁Rubik	-12.0882
▁TensorFlow	-12.0882
▁Ugavi	-12.0882
▁Vivumishi	-12.0882
▁Waingereza	-12.0882
▁Zuckerberg	-12.0882
▁ankara	-12.0882
▁bukini	-12.0882
▁cheche	-12.0882
▁coaster	-12.0882
▁computing	-12.0882
▁cryptography	-12.0882
▁dosari	-12.0882
▁hudhurungi	-12.0882
▁hyperplane	-12.0882
▁kibwagizo	-12.0882
▁kisintaksia	-12.0882
▁kriptografia	-12.0882
▁kudumishwa	-12.0882
▁kukohoa	-12.0882
▁kupindukia	-12.0882
▁kusikojulikana	-12.0882
▁kusomeka	-12.0882
▁majuto	-12.0882
▁mapunguzo	-12.0882
▁mawasilisho	-12.0882
▁mekundu	-12.0882
▁mipira	-12.0882
▁mpevu	-12.0882
▁mzeituni	-12.0882
▁riziki	-12.0882
▁rutuba	-12.0882
▁sitroberi	-12.0882
▁tambarare	-12.0882
▁tashihisi	-12.0882
▁thawabu	-12.0882
▁uraibu	-12.0882
▁vijito	-12.0882
▁wasanii	-12.0882
▁gitaa	-12.0882
▁Armstrong	-12.0882
▁Greenland	-12.0882
▁kipenyo	-12.0882
▁mbovu	-12.0882
▁tempArray	-12.0882
▁uandamani	-12.0882
muungano	-12.0882
▁Mashuhuri	-12.0882
▁Wikipedia	-12.0882
▁tiger	-12.0882
▁Darwinism	-12.0882
▁Panama	-12.0882
▁Mwingiliano	-12.0882
▁kukanyaga	-12.0882
▁Beijing	-12.0882
▁obiti	-12.0882
GUI	-12.0882
▁bonde	-12.0882
VPN	-12.0882
▁peari	-12.0882
▁Ryan	-12.0882
▁linatua	-12.0882
▁mashtaka	-12.0882
▁5-10	-12.0882
▁heliamu	-12.0883
tofautishwa	-12.0883
town	-12.0883
▁$2.50	-12.0883
▁Huzuni	-12.0883
848	-12.0883
▁kimuundo	-12.0883
▁uhamishaji	-12.0883
▁Kiotomatiki	-12.0883
▁mizigo	-12.0883
▁Oak	-12.0883
▁matone	-12.0883
▁batili	-12.0883
flake	-12.0883
▁Cumulus	-12.0883
▁feni	-12.0883
jiepush	-12.0883
▁nyote	-12.0883
▁pikiniki	-12.0883
▁ugomvi	-12.0883
▁potasiamu	-12.0883
▁kutafutia	-12.0883
▁Bridge	-12.0883
▁Roth	-12.0883
▁konda	-12.0883
▁1989	-12.0883
▁Punde	-12.0883
▁friji	-12.0883
▁udukuzi	-12.0883
▁besi	-12.0883
▁kukaguliwa	-12.0883
▁unyumbufu	-12.0883
▁kiutawala	-12.0883
▁miwani	-12.0883
▁mgawany	-12.0883
▁ukaribu	-12.0883
ington	-12.0883
▁2013	-12.0883
▁kisasi	-12.0883
▁tamthilia	-12.0883
▁piramidi	-12.0884
▁West	-12.0884
▁ecommerce	-12.0884
▁kuambukizwa	-12.0884
ukta	-12.0884
▁kuingiliwa	-12.0884
▁Peter	-12.0884
▁kupimika	-12.0884
▁maembe	-12.0884
▁mtendaji	-12.0884
▁Shirikisho	-12.0884
▁kiburi	-12.0884
▁usioidhinishwa	-12.0884
▁maony	-12.0884
▁uanzishaji	-12.0884
▁mwekezaji	-12.0884
▁Hakujua	-12.0884
▁sour	-12.0884
▁fah	-12.0884
▁Fred	-12.0884
▁hashtag	-12.0885
▁1950	-12.0885
zeti	-12.0885
▁aliyefaulu	-12.0885
▁Adamu	-12.0885
▁isiyosimamiwa	-12.0885
▁shimo	-12.0885
▁1/3	-12.0885
▁vinyume	-12.0886
▁Pine	-12.0886
▁linawaka	-12.0886
bariki	-12.0886
▁unaotiririka	-12.0886
▁Lab	-12.0886
▁usiofaa	-12.0886
▁Upeo	-12.0886
▁anayefaa	-12.0887
('	-12.0887
▁isiyofaa	-12.0887
▁uzazi	-12.0887
▁kitandani	-12.0887
▁noti	-12.0887
▁iliyoshirikiwa	-12.0887
▁Kupima	-12.0887
▁Yule	-12.0887
▁mdadisi	-12.0887
▁silinda	-12.0888
▁usuli	-12.0888
▁ufikivu	-12.0888
times	-12.0888
▁Kuajiri	-12.0888
▁kujadiliana	-12.0888
▁shaba	-12.0888
▁inalindwa	-12.0888
tambulika	-12.0888
▁kufadhaika	-12.0889
▁unene	-12.0889
▁20%	-12.0889
▁Laur	-12.0889
▁inayoakisi	-12.0889
anduku	-12.089
▁Kisasa	-12.089
▁kupona	-12.089
▁unavyotaka	-12.089
onekani	-12.0891
pishana	-12.0891
▁unayohitaji	-12.0891
▁jangwani	-12.0891
▁ulifanyika	-12.0891
▁msimamizi	-12.0891
▁zimewekwa	-12.0892
capti	-12.0892
msukosuko	-12.0892
▁inayometa	-12.0892
▁Inaaminika	-12.0892
▁ujue	-12.0892
bits	-12.0893
▁unaobadilika	-12.0894
▁Mkusanyiko	-12.0895
▁You	-12.0895
▁kumzuia	-12.0895
▁uigaji	-12.0896
▁mhudumu	-12.0896
jadala	-12.0896
▁inayotarajiwa	-12.0896
▁zinahitajika	-12.0896
▁kukuzwa	-12.0897
▁kumshinda	-12.0898
▁imetengenezwa	-12.0898
▁yanayoonekana	-12.0898
fish	-12.0898
▁umeongezeka	-12.0898
▁akiruka	-12.0899
rup	-12.09
nyoo	-12.09
dumishe	-12.0901
2-	-12.0901
▁uratibu	-12.0901
▁kileleni	-12.0901
▁utofautishaji	-12.0902
▁kupuuza	-12.0902
▁Huko	-12.0902
▁ikiongezeka	-12.0902
▁Av	-12.0902
▁inasimamia	-12.0903
▁uasi	-12.0903
▁wakizungumza	-12.0903
▁hema	-12.0903
▁Martin	-12.0903
ollo	-12.0904
▁itaku	-12.0904
▁iliyojengwa	-12.0905
▁mwem	-12.0905
▁uliundwa	-12.0906
▁kuheshimiwa	-12.0907
▁pake	-12.0907
▁kutabasamu	-12.0908
▁sandwichi	-12.0908
▁kujiendesha	-12.0908
▁huzalishwa	-12.0908
▁ukiendelea	-12.0908
kano	-12.0909
▁iliyopatikana	-12.0909
▁unaopatikana	-12.091
uta	-12.091
rusi	-12.091
▁Soka	-12.0912
▁alitabasamu	-12.0912
▁kusogea	-12.0915
▁hadhi	-12.0916
herehekea	-12.0916
pishi	-12.0917
▁wanafamilia	-12.0917
▁yaliyopo	-12.0918
▁unaoitwa	-12.0919
▁haihitaji	-12.0919
▁alika	-12.092
toaji	-12.0921
▁kutengenezea	-12.0922
-2	-12.0923
▁hupiga	-12.0923
peperusha	-12.0923
▁hununua	-12.0924
▁(5	-12.0925
▁wahalifu	-12.0925
▁kwaheri	-12.0926
liogopa	-12.0926
ndef	-12.0927
▁kikanda	-12.0928
▁harusi	-12.0929
1><	-12.0929
▁Treni	-12.0932
zy	-12.0932
umu	-12.0934
▁wepesi	-12.0935
▁yaliyowekwa	-12.0936
▁Mwonekano	-12.0936
▁Texas	-12.0936
▁Arthur	-12.0936
▁Madrid	-12.0936
▁Wolf	-12.0936
▁Zoezi	-12.0936
▁Magharibi	-12.0936
▁Zero	-12.0936
▁JSON	-12.0936
▁bendera	-12.0936
▁maxVal	-12.0936
yoendeshwa	-12.0936
▁Karanga	-12.0936
▁Ushahidi	-12.0936
changi	-12.0938
▁Spot	-12.0939
EN	-12.094
▁Wageni	-12.0941
▁Ro	-12.0941
▁Malipo	-12.0941
▁kufifia	-12.0942
▁Kongo	-12.0943
▁akikimbia	-12.0943
nayobinafsishwa	-12.0943
▁Tiba	-12.0944
▁kufanyika	-12.0945
▁Ombi	-12.0945
▁isiyobadilika	-12.0945
▁Mone	-12.0947
▁kufunika	-12.0948
▁wanunuzi	-12.0954
▁hyperboli	-12.0954
▁likiwa	-12.0959
sidi	-12.096
▁antena	-12.096
▁rom	-12.0962
▁mwilini	-12.0963
▁kusahau	-12.097
liyoandikwa	-12.0971
▁inakuja	-12.0976
▁Mario	-12.0977
▁kichwani	-12.098
▁hisani	-12.0986
tungwa	-12.0989
washwa	-12.0991
kurejeshe	-12.0993
osta	-12.0993
▁kifung	-12.0996
▁kisa	-12.0996
▁Taa	-12.1005
▁wasambazaji	-12.101
▁uchunguz	-12.1012
wasilishwa	-12.1021
▁unaosababisha	-12.1023
page	-12.1023
▁maca	-12.1028
▁shingo	-12.1029
▁Twiga	-12.1029
▁Nafsi	-12.1029
▁Likizo	-12.1029
wezo	-12.1032
3%	-12.1034
▁anatumia	-12.1035
▁Haja	-12.1036
iweka	-12.1037
▁van	-12.1042
▁ufiki	-12.1043
▁350	-12.1043
shio	-12.1044
▁inaongezeka	-12.1044
endelezwa	-12.1046
▁alisoma	-12.1051
wavutia	-12.1054
▁ikito	-12.1054
▁uhitaji	-12.1061
tovu	-12.1062
sikilizaji	-12.1066
abc	-12.1067
▁inayofanya	-12.1073
▁ch	-12.1076
▁kuliwa	-12.1086
▁Mad	-12.1087
tungi	-12.1096
▁nimefurahi	-12.1098
tive	-12.1098
▁dog	-12.1099
rn	-12.1109
▁Mw	-12.111
▁next	-12.1111
▁root	-12.1125
▁Masharti	-12.1125
▁Kesho	-12.1126
▁inaitwa	-12.1126
▁Umbali	-12.1128
▁ilim	-12.1139
▁Niki	-12.1141
▁aliend	-12.1146
▁NY	-12.1151
elezo	-12.1152
CI	-12.1155
▁wachawi	-12.1163
▁Oh	-12.1183
ilipili	-12.1187
oby	-12.1188
▁inataka	-12.1198
▁Uta	-12.1201
▁68	-12.1209
----------------	-12.1212
olewa	-12.1216
▁Basi	-12.1221
▁SVM	-12.1223
▁Watch	-12.1227
wili	-12.1248
▁Mo	-12.1251
▁Jinsia	-12.1252
▁ga	-12.1254
▁unani	-12.1255
▁iliundwa	-12.1256
vua	-12.1259
▁pro	-12.1264
kiri	-12.1277
▁Kusimami	-12.1282
ise	-12.1285
▁utup	-12.1292
funguliwa	-12.1299
00.	-12.13
lea	-12.1307
sifu	-12.131
25	-12.131
tumike	-12.1316
tupwa	-12.132
▁huimarish	-12.132
▁ham	-12.1321
▁maskini	-12.1324
lirudi	-12.1325
▁Jill	-12.1327
nasimama	-12.1329
26,	-12.1333
▁unategeme	-12.1335
▁My	-12.1339
swaki	-12.1353
▁kanda	-12.1368
▁wakili	-12.1381
kubalika	-12.1385
▁cur	-12.1385
▁alito	-12.1391
tter	-12.1398
▁tunapo	-12.1398
angaziwa	-12.1399
▁re	-12.1399
ain	-12.1401
▁Bang	-12.1404
dIn	-12.1407
▁mwend	-12.1414
▁zinazozungumz	-12.1418
nayohitaji	-12.1422
19	-12.1424
▁IPv	-12.1424
▁uim	-12.143
▁node	-12.1433
▁Ver	-12.1447
weke	-12.1447
ju	-12.145
▁SaaS	-12.1451
▁anaji	-12.1454
▁itawa	-12.1458
▁hushiriki	-12.1459
zifanya	-12.1464
▁isi	-12.147
usisit	-12.1474
▁Paki	-12.1474
fikiwa	-12.1494
▁Bar	-12.1498
▁Kubadilisha	-12.1517
vuka	-12.1525
utangaman	-12.1531
▁wapiga	-12.1538
ndo	-12.1541
▁End	-12.1549
▁Unga	-12.155
ln	-12.1551
Wana	-12.1551
▁kukunj	-12.1553
jitegemea	-12.1553
ngojea	-12.1555
▁tuka	-12.1567
▁Ben	-12.1572
▁unaoku	-12.1572
▁uongo	-12.1579
▁Fa	-12.1583
nayoanza	-12.1585
mtazama	-12.1586
enya	-12.1596
kanda	-12.1599
-19.	-12.1612
uala	-12.1616
zama	-12.1619
▁[4,	-12.1622
tes	-12.1628
kuona	-12.1631
anamu	-12.1633
kopa	-12.164
tetea	-12.1644
tusaidia	-12.1646
sal	-12.1666
ajabu	-12.1668
nywa	-12.167
▁Tor	-12.1671
mes	-12.1673
0).	-12.1678
chimba	-12.1692
mpigi	-12.17
elea	-12.1706
▁wanavyofanya	-12.1711
▁kuepu	-12.1711
roni	-12.1721
kubwa	-12.1728
▁taja	-12.1729
▁yanaonekana	-12.1735
▁haziku	-12.1747
▁taji	-12.1747
kuhimiz	-12.1748
kinga	-12.175
winda	-12.1767
▁5.:	-12.1772
▁tor	-12.1774
▁0.0	-12.1774
▁umeathiri	-12.1774
▁Huend	-12.1774
iamini	-12.1787
lindi	-12.1788
▁waliyo	-12.1796
▁huta	-12.1797
livyokuwa	-12.1797
du	-12.1814
▁ukim	-12.1837
0.	-12.1837
imepata	-12.1838
▁madawa	-12.1841
ibua	-12.1845
Alikimbi	-12.1846
▁viki	-12.1861
article	-12.1865
▁100,	-12.1865
lan	-12.1867
▁tunayo	-12.1874
shughulikiwa	-12.1875
ome	-12.1894
▁imeboresh	-12.1897
▁unaosababish	-12.1899
▁kulipiz	-12.1904
**	-12.1913
Maelezo	-12.1916
{	-12.1917
Ingizo	-12.1918
14	-12.1924
Hello	-12.1924
IPv	-12.1946
bongo	-12.1953
imefanya	-12.1956
π	-12.1957
Safu	-12.196
▁198	-12.1961
ette	-12.1963
8%	-12.1963
Samahani	-12.1963
▁inayowa	-12.1964
▁Nadha	-12.1965
Uhifadhi	-12.1967
nene	-12.1976
Mwanamke	-12.1977
tch	-12.1977
fit	-12.1979
Tufaha	-12.198
liendesha	-12.198
Mafanikio	-12.1981
Safari	-12.1981
Serikali	-12.1981
baridi	-12.1982
Mazingira	-12.1983
Hotel	-12.1983
Ndizi	-12.1984
mazingira	-12.1985
Asante	-12.1985
baadaye	-12.1985
▁Ny	-12.1986
Hifadhi	-12.1986
▁umeon	-12.1986
Bob	-12.1986
Gharama	-12.1987
Google	-12.1987
Mabadiliko	-12.1987
Uingereza	-12.1987
Huduma	-12.1987
bidhaa	-12.1988
uzuri	-12.1988
bluu	-12.1988
kutoka	-12.1989
Wakati	-12.1989
nguvu	-12.1989
kitabu	-12.1989
Akili	-12.1991
Jana	-12.1992
Ene	-12.1992
ifuko	-12.1993
umeme	-12.1993
stream	-12.1995
▁unarudi	-12.1995
La	-12.1999
yeye	-12.2006
▁7:	-12.2007
maeneo	-12.2016
safisha	-12.2017
▁Mswa	-12.2018
▁linapoku	-12.2026
kaanga	-12.2026
rekebisha	-12.2028
16	-12.2038
Go	-12.2043
nafaa	-12.2047
lichukua	-12.2072
okolewa	-12.2074
▁maba	-12.2074
hutumiwa	-12.2074
wezesh	-12.2075
anaji	-12.2076
dio	-12.2082
ger	-12.2089
nufaisha	-12.209
▁anazo	-12.2098
▁Hen	-12.2099
fikisha	-12.21
▁Popo	-12.2112
sasisha	-12.2113
ker	-12.2116
taji	-12.2131
ser	-12.2135
nchi	-12.2139
--------------	-12.2141
utengeneze	-12.2146
▁alifung	-12.215
col	-12.2151
▁ufany	-12.2155
▁bo	-12.2156
Mhusika	-12.216
▁IoT	-12.2161
onya	-12.2168
[4,	-12.2174
pendi	-12.2182
hello	-12.2185
▁-2	-12.2185
pendezwa	-12.2198
zu	-12.2211
▁Kukata	-12.2215
un	-12.2216
▁ala	-12.2218
▁ilipo	-12.2227
rais	-12.2228
achana	-12.2249
fe	-12.2249
ol	-12.225
julikani	-12.2252
ipe	-12.2258
▁Wit	-12.2264
riki	-12.2272
▁88	-12.228
▁(&	-12.228
▁5%	-12.2289
tambu	-12.2293
▁CO	-12.2297
etemek	-12.2314
umia	-12.2316
▁Maha	-12.2322
chapishaji	-12.2322
tambuliwa	-12.2323
55	-12.2324
ishwa	-12.2325
linzi	-12.2328
▁Ches	-12.2334
upo	-12.2336
▁che	-12.2344
port	-12.2361
▁walivyo	-12.2361
sse	-12.2363
nyi	-12.2369
▁MA	-12.237
sayansi	-12.237
nakijiji	-12.2375
bb	-12.2379
▁mati	-12.2381
apa	-12.2384
elezwa	-12.2384
vyotarajiwa	-12.2388
shindi	-12.2392
▁(3	-12.2392
▁ikitu	-12.2396
▁Chom	-12.2405
▁Kuta	-12.2406
unaomba	-12.2407
=5	-12.2418
taalamu	-12.2423
ish	-12.2447
skari	-12.2449
uzi	-12.2451
ngahewa	-12.2455
▁unayo	-12.2456
▁anavyo	-12.2457
trim	-12.2458
▁kusaidi	-12.2462
83	-12.2463
▁It	-12.2464
ombora	-12.2472
▁walizo	-12.2475
▁uhalisi	-12.2475
dhoofish	-12.2481
▁Kand	-12.2488
+3	-12.2494
▁laha	-12.2503
▁Enz	-12.2505
▁Kas	-12.2505
sagwa	-12.2507
jiuliza	-12.2507
itudo	-12.2509
inama	-12.2512
rejeshwa	-12.252
una	-12.2523
gome	-12.2524
▁kuchafu	-12.2527
▁73	-12.2528
tomatiki	-12.2529
kusanyiko	-12.253
tangatanga	-12.2531
somwa	-12.2531
atiti	-12.2531
▁virutubish	-12.2533
▁tuwe	-12.2534
hamasishwa	-12.2534
jumuishwa	-12.2535
mesimama	-12.2539
choraji	-12.2539
▁oven	-12.2541
shirikishwaji	-12.2541
naomba	-12.2542
nyogovu	-12.2542
teuzi	-12.2542
erufi	-12.2543
bofyo	-12.2543
iungo	-12.2544
aonyesho	-12.2544
aktaba	-12.2544
asuluhisho	-12.2544
iradi	-12.2545
ashambulizi	-12.2545
ongezi	-12.2545
fuatano	-12.2545
imedhamiri	-12.2546
rekebishaji	-12.2547
dimu	-12.2547
struct	-12.2547
aiskeli	-12.2547
sindikwa	-12.2547
▁pori	-12.2547
▁4}{3}	-12.2547
kiwemo	-12.2548
zoezi	-12.2548
▁elektroni	-12.2548
ukizi	-12.2549
Number	-12.2549
▁ujumuish	-12.2549
▁class	-12.2549
Commerce	-12.2549
anze	-12.2549
automation	-12.2549
▁kichaka	-12.2549
argv	-12.2549
wikipedia	-12.2549
▁Ijumaa	-12.2549
▁Quantum	-12.2549
▁Runner	-12.2549
▁Technologies	-12.2549
▁Ureno	-12.2549
▁dinosaur	-12.2549
▁quadratic	-12.2549
▁uliopeanwa	-12.2549
Republican	-12.2549
dimensional	-12.2549
ichefuchefu	-12.2549
largest	-12.2549
nTaarifa	-12.2549
nyamazishwa	-12.2549
pumbavu	-12.2549
▁Atlantiki	-12.2549
▁Avengers	-12.2549
▁Avenue	-12.2549
▁Caulfield	-12.2549
▁Cheche	-12.2549
▁Chokoleti	-12.2549
▁Congress	-12.2549
▁Corleone	-12.2549
▁Delhi	-12.2549
▁Eiffel	-12.2549
▁FIFA	-12.2549
▁Hawk	-12.2549
▁Intel	-12.2549
▁Ireland	-12.2549
▁Isaac	-12.2549
▁Janeiro	-12.2549
▁Jumapili	-12.2549
▁Jupiter	-12.2549
▁Kimbunga	-12.2549
▁Kisovieti	-12.2549
▁Massachusetts	-12.2549
▁Mchicha	-12.2549
▁Michelangelo	-12.2549
▁Mississippi	-12.2549
▁Msongamano	-12.2549
▁Munich	-12.2549
▁Philadelphia	-12.2549
▁Raspberry	-12.2549
▁Rowling	-12.2549
▁Tolkien	-12.2549
▁Ufungaji	-12.2549
▁Uranus	-12.2549
▁Wuhan	-12.2549
▁Yangtze	-12.2549
▁cholesterol	-12.2549
▁dizeli	-12.2549
▁endorphins	-12.2549
▁kigawanyaji	-12.2549
▁kihisabati	-12.2549
▁kisemantiki	-12.2549
▁kizushi	-12.2549
▁krimu	-12.2549
▁kunyongwa	-12.2549
▁kuzorota	-12.2549
▁lemur	-12.2549
▁malenge	-12.2549
▁marehemu	-12.2549
▁middleIndex	-12.2549
▁miktadha	-12.2549
▁minyororo	-12.2549
▁miungano	-12.2549
▁mkunjufu	-12.2549
▁mozzarella	-12.2549
▁noodles	-12.2549
▁pundamilia	-12.2549
▁slaidi	-12.2549
▁tasnifu	-12.2549
▁tawahudi	-12.2549
▁trapezoid	-12.2549
▁trivia	-12.2549
▁uandikishaji	-12.2549
▁uhamaji	-12.2549
▁ukomunisti	-12.2549
▁upatanifu	-12.2549
▁usiogope	-12.2549
▁vichocheo	-12.2549
▁vichungi	-12.2549
▁vinaigrette	-12.2549
▁vipepeo	-12.2549
▁wasilianifu	-12.2549
▁zeituni	-12.2549
▁zucchini	-12.2549
left	-12.2549
Σ	-12.2549
▁Adhabu	-12.2549
▁Eyre	-12.2549
▁Ottawa	-12.2549
▁Rings	-12.2549
▁Tamaa	-12.2549
▁closest	-12.2549
▁fairies	-12.2549
▁itakayo	-12.2549
▁kutoelewana	-12.2549
▁linapotua	-12.2549
▁mabwawa	-12.2549
▁mkoba	-12.2549
▁uvunjaji	-12.2549
password	-12.2549
zungusha	-12.2549
▁Fasihi	-12.2549
▁gradient	-12.2549
▁lahajedwali	-12.2549
▁makisio	-12.2549
atmeal	-12.2549
world	-12.2549
▁Huruma	-12.2549
▁NoSQL	-12.2549
▁fukwe	-12.2549
▁likitua	-12.2549
▁tartness	-12.2549
▁wafuasi	-12.2549
▁kupindapinda	-12.2549
▁ubeti	-12.2549
▁wivu	-12.2549
▁Orwell	-12.2549
▁raundi	-12.2549
▁yanayokufaa	-12.2549
▁1789	-12.2549
kulu	-12.2549
▁Heliamu	-12.2549
▁Maskini	-12.2549
▁tamko	-12.2549
▁vyetu	-12.2549
▁Houston	-12.2549
▁balsamu	-12.2549
▁cilantro	-12.2549
▁redio	-12.2549
▁Kimarekani	-12.2549
▁Road	-12.2549
▁BigCommerce	-12.2549
▁Wilson	-12.2549
▁ngumi	-12.2549
istine	-12.2549
▁matuta	-12.2549
▁Rebe	-12.2549
▁fimbo	-12.2549
▁blueberries	-12.2549
▁tindikali	-12.2549
▁Kiwanda	-12.2549
▁kikokotoo	-12.2549
▁bondi	-12.2549
▁aibu	-12.2549
▁dira	-12.2549
▁majarida	-12.2549
▁wanakoenda	-12.2549
▁rose	-12.2549
▁Edward	-12.2549
span	-12.2549
▁Miami	-12.2549
▁ishirini	-12.2549
String	-12.2549
▁iliyotelekezwa	-12.2549
▁kupakua	-12.2549
▁Lebo	-12.2549
ibada	-12.2549
▁masanduku	-12.2549
▁mtambuka	-12.2549
▁Bacon	-12.255
▁ufungaji	-12.255
hadaa	-12.255
adilifu	-12.255
▁dengu	-12.255
▁Philip	-12.255
▁uunganisho	-12.255
▁Basil	-12.255
▁uvukizi	-12.255
▁protoni	-12.255
▁uchangamano	-12.255
▁squirrel	-12.255
▁uliosambazwa	-12.255
AMA	-12.255
▁vidakuzi	-12.255
▁Fair	-12.255
▁1940	-12.255
WWF	-12.255
▁mabom	-12.255
▁Uholanzi	-12.255
▁Uturuki	-12.255
▁lawn	-12.255
itoweo	-12.255
▁uorodhesh	-12.255
tunzaji	-12.255
▁2011	-12.255
▁Prince	-12.255
▁viamba	-12.255
▁miduara	-12.255
▁Utah	-12.255
▁tochi	-12.255
▁taulo	-12.255
▁vilivyofichwa	-12.255
▁analogi	-12.255
▁mvamizi	-12.255
▁Isiyochukuliwa	-12.2551
▁mwenzako	-12.2551
▁utume	-12.2551
▁mtayarishaji	-12.2551
▁kusindika	-12.2551
▁mashabiki	-12.2551
▁utoto	-12.2551
▁mwimbaji	-12.2551
colors	-12.2551
annie	-12.2551
▁1939	-12.2551
▁lisilotarajiwa	-12.2551
▁ubaini	-12.2551
▁utayarishaji	-12.2551
▁unayolenga	-12.2551
▁kihemko	-12.2551
▁mitosis	-12.2551
▁kuyafikia	-12.2551
▁yaliyofanywa	-12.2551
▁Alipokaribia	-12.2552
▁&#39;)&#39;	-12.2552
▁Ukristo	-12.2552
▁dhima	-12.2552
▁mangapi	-12.2552
▁inapobidi	-12.2552
▁kiwewe	-12.2552
▁______	-12.2552
idth	-12.2552
▁kujihamasisha	-12.2552
▁vitufe	-12.2552
▁mzazi	-12.2552
▁kikweli	-12.2552
▁1865	-12.2552
shabiki	-12.2553
▁inayokubalika	-12.2553
▁zisizofaa	-12.2553
▁inayotambulika	-12.2553
▁kustaafu	-12.2553
_123	-12.2553
▁Ray	-12.2553
▁unayofanya	-12.2553
▁yanayozunguka	-12.2553
▁msimulizi	-12.2553
▁Salmon	-12.2553
▁kupelekwa	-12.2554
▁iliyopunguzwa	-12.2554
▁wanaofaa	-12.2554
▁iliyopigwa	-12.2554
▁Hadi	-12.2554
▁kuhukumu	-12.2554
▁mchoraji	-12.2554
▁mtazamaji	-12.2554
▁uliofanywa	-12.2554
▁chord	-12.2554
▁yanayotokea	-12.2554
calculate	-12.2555
two	-12.2555
▁isti	-12.2555
▁lilitokea	-12.2555
labu	-12.2555
▁kuvuna	-12.2555
▁Utatuzi	-12.2555
▁Kipimo	-12.2555
▁Jiko	-12.2556
Ki	-12.2556
▁3000	-12.2556
▁kurukaruka	-12.2556
▁haiba	-12.2556
▁texture	-12.2556
▁Tunayo	-12.2556
▁huipa	-12.2556
▁ndugu	-12.2556
▁uliounganishwa	-12.2556
erra	-12.2556
▁kigumu	-12.2556
▁pink	-12.2556
▁kubweka	-12.2556
▁kutayarishwa	-12.2556
▁kuongea	-12.2556
▁3.14	-12.2557
▁usiotarajiwa	-12.2557
insert	-12.2557
▁wakiruka	-12.2557
▁yanayopatikana	-12.2557
▁zinazometa	-12.2557
▁viwe	-12.2558
▁kipa	-12.2558
▁mlozi	-12.2558
▁wanaimba	-12.2558
▁Mhasibu	-12.2558
▁matamu	-12.2559
▁stah	-12.2559
▁kuchunguzwa	-12.2559
▁kujithamini	-12.2559
▁alicheka	-12.256
▁asante	-12.256
▁Axi	-12.256
▁zilizotolewa	-12.256
▁iliyochomwa	-12.2561
▁viini	-12.2561
▁uonyeshe	-12.2561
▁hufifia	-12.2561
▁Vile	-12.2561
▁akitarajia	-12.2561
▁Kutoweka	-12.2561
▁mitaani	-12.2561
▁walipiga	-12.2562
▁ujanja	-12.2562
▁Kushuka	-12.2562
▁kusemwa	-12.2562
wanavyowasiliana	-12.2563
▁chinichini	-12.2563
▁2004	-12.2563
▁pun	-12.2563
▁Toby	-12.2564
▁vishawishi	-12.2564
▁kiwi	-12.2564
▁Hatarini	-12.2565
▁Nne	-12.2565
▁mga	-12.2565
▁Main	-12.2565
nSwali	-12.2565
▁iliyofuata	-12.2565
▁cod	-12.2565
▁pine	-12.2566
▁Mkubwa	-12.2566
▁Kuimarisha	-12.2566
wanahisa	-12.2567
▁inayoonyeshwa	-12.2567
▁Hill	-12.2567
▁kunde	-12.2567
▁kufunguliwa	-12.2568
▁milimani	-12.2568
▁humeta	-12.2568
▁koo	-12.2568
atar	-12.2568
▁mgus	-12.2568
▁nilizo	-12.2569
▁yanahusiana	-12.2571
▁linaloendelea	-12.2571
tazamaji	-12.2572
▁Toast	-12.2572
▁hufuatilia	-12.2574
salimia	-12.2574
▁inayoingia	-12.2574
▁amekwama	-12.2575
▁inayokuja	-12.2575
▁ikoje	-12.2576
nHadithi	-12.2576
reversed	-12.2576
▁uone	-12.2577
▁ikiendelea	-12.2577
▁zinazoonyeshwa	-12.2578
▁kusafirishwa	-12.2578
▁kuumia	-12.2579
▁kuchaguliwa	-12.258
▁unahitajika	-12.2581
▁akisafiri	-12.2581
▁lango	-12.2583
▁mamba	-12.2583
▁mchem	-12.2583
▁upand	-12.2584
odor	-12.2584
▁waliishi	-12.2584
▁kuzungumzia	-12.2585
▁(4	-12.2587
eval	-12.2588
▁Wape	-12.259
simba	-12.259
▁kurekodiwa	-12.2592
▁Wale	-12.2592
▁kuota	-12.2592
▁wamepata	-12.2592
▁anayeanza	-12.2593
▁kuiwek	-12.2593
▁kuhitajika	-12.2594
itambo	-12.2595
▁heka	-12.2595
▁Kuunganisha	-12.2597
ubble	-12.2597
chota	-12.2598
liyobinafsishwa	-12.2598
▁wakitafuta	-12.2599
▁kuzaa	-12.2599
dau	-12.2599
▁mado	-12.2599
▁kujitos	-12.26
▁KK	-12.2602
nde	-12.2602
▁unaohitaji	-12.2604
anishi	-12.2606
▁Sea	-12.2608
metameta	-12.2608
▁vitani	-12.2609
nMaelezo	-12.2609
=3	-12.2609
imulia	-12.261
▁Jangwa	-12.261
karibisha	-12.2612
▁Ngome	-12.2612
▁Siasa	-12.2613
▁smart	-12.2613
▁masika	-12.2613
▁python	-12.2613
▁salutation	-12.2613
▁Alhamisi	-12.2613
▁Autism	-12.2613
▁Januari	-12.2613
▁Venezuela	-12.2613
▁Uondoaji	-12.2613
▁Seattle	-12.2613
▁Mwenyekiti	-12.2613
▁mrembo	-12.2613
▁yajayo	-12.2613
▁biolojia	-12.2613
▁Blogu	-12.2613
▁Chile	-12.2613
▁Kielezi	-12.2614
▁upanga	-12.2614
▁alini	-12.2614
▁mwenyekiti	-12.2614
▁Ndogo	-12.2614
▁Ice	-12.2615
▁58	-12.2615
▁kujijali	-12.2616
▁kari	-12.2616
▁Peni	-12.2617
▁Ukarimu	-12.2617
▁kutamani	-12.2618
▁unaotaka	-12.2618
▁Inapendeza	-12.2618
▁Alipofika	-12.2618
▁USD	-12.2619
▁poly	-12.262
▁Ajira	-12.2621
▁Mdogo	-12.2621
lishangaa	-12.2622
▁Pande	-12.2622
/2021	-12.2623
▁vilivyopo	-12.2623
py	-12.2623
▁Anasoma	-12.2626
ocker	-12.2627
▁tweets	-12.2629
+5	-12.2629
▁mwenyeji	-12.263
▁Dham	-12.2631
▁2010	-12.2633
▁140	-12.2633
natokea	-12.2633
dunda	-12.2634
kuwezesha	-12.2634
ttic	-12.2634
▁inashikilia	-12.2635
▁umefanya	-12.2636
▁wasom	-12.2641
alette	-12.2641
nGari	-12.2641
unaolingana	-12.2644
▁uchagu	-12.2645
▁plt	-12.2645
▁zabuni	-12.2647
▁zisi	-12.2648
▁anaelewa	-12.2648
▁alipofika	-12.2649
▁isiyojulikana	-12.2652
▁matunz	-12.2653
jengew	-12.2657
▁Usio	-12.2658
▁Sina	-12.2659
trop	-12.266
▁Ju	-12.2664
[1,	-12.2669
▁Bab	-12.2671
ach	-12.2671
▁Nje	-12.2671
▁unatumika	-12.2672
Id	-12.2673
▁bain	-12.2673
▁kusafirish	-12.2673
nApple	-12.2674
▁132	-12.2676
Kusafisha	-12.2678
▁Quin	-12.2683
▁kunge	-12.2684
▁nijisikie	-12.2685
▁shindani	-12.2686
upatikana	-12.2686
▁kuachili	-12.2689
▁25%	-12.269
rends	-12.269
vyosonga	-12.2695
Plant	-12.2698
ins	-12.27
ted	-12.2705
anaonekana	-12.2707
▁200)	-12.2709
red	-12.2711
▁kara	-12.2712
▁ujaribu	-12.2718
▁74	-12.2718
▁inaendeshwa	-12.2722
▁Chatu	-12.2724
▁OOP	-12.2725
▁Polepole	-12.2725
▁Fox	-12.2725
▁Iliyo	-12.2725
▁amilifu	-12.2726
▁ilitokea	-12.2726
unyonya	-12.2729
▁wanasema	-12.2733
▁uhisi	-12.2737
▁Ninaelewa	-12.2738
umaini	-12.274
▁walinzi	-12.274
▁thym	-12.2744
▁pe	-12.2746
▁zinazosababish	-12.2746
▁Halo	-12.2751
▁Be	-12.2753
0,	-12.2761
▁baf	-12.2763
▁(1,	-12.2769
35	-12.2775
talazimika	-12.2776
\")	-12.2778
yakati	-12.2783
▁walengwa	-12.2784
▁77	-12.2788
mbw	-12.2793
tabiriwa	-12.2793
▁toke	-12.2793
▁0.2	-12.2797
▁pau	-12.28
nF	-12.2808
tetemeka	-12.281
▁mbaazi	-12.281
▁uje	-12.2831
▁twiga	-12.2841
▁sqrt	-12.2841
▁Sitiari	-12.2841
▁CPU	-12.2841
▁Wanyamapori	-12.2841
▁Huto	-12.2842
ormula	-12.2849
ai	-12.285
▁Haya	-12.2851
▁poli	-12.2852
limu	-12.2856
Kuanzishwa	-12.2858
liuliz	-12.2859
Wasilisha	-12.2864
tamu	-12.2866
▁cu	-12.2867
▁kola	-12.2881
vunja	-12.2881
▁alishangaz	-12.2882
▁No	-12.2892
napita	-12.2892
▁82	-12.2903
▁Ata	-12.2904
▁49	-12.2911
kusaidieje	-12.2917
Nime	-12.2922
gozi	-12.2927
1>	-12.2936
▁WA	-12.2939
ex	-12.2946
▁kemia	-12.2956
bana	-12.2956
▁startIndex	-12.2959
Sport	-12.296
50	-12.2967
▁PM	-12.2974
▁Baye	-12.2977
andaliw	-12.298
ab	-12.2984
▁upa	-12.3002
▁to	-12.3005
anisha	-12.3006
dar	-12.3008
band	-12.301
▁iliyojeng	-12.3011
JI	-12.3013
]))	-12.3019
umegundua	-12.3022
▁kuhitimish	-12.3024
▁alijiku	-12.3032
6.	-12.3039
nk	-12.3046
▁shanga	-12.3047
▁simulizi	-12.3079
[\\	-12.308
ele	-12.3086
TI	-12.309
era	-12.3097
▁inakubali	-12.3104
▁ar	-12.3115
▁Uwe	-12.3128
▁inarudi	-12.3144
▁SE	-12.3154
8:	-12.3173
sajili	-12.3177
▁hui	-12.3186
▁inasaidi	-12.3195
▁Hotel	-12.3197
tika	-12.3204
▁Kuji	-12.3207
gandishwa	-12.3214
▁Is	-12.3222
▁ninacho	-12.3225
arusi	-12.3225
▁Al	-12.3242
rejeshaji	-12.3246
==	-12.3247
stor	-12.3247
▁Kurudi	-12.3249
ametoka	-12.325
▁hujaz	-12.3254
spir	-12.3258
mji	-12.3275
▁Unape	-12.3275
▁Sant	-12.3292
▁Wengi	-12.3298
rus	-12.3309
▁Chaj	-12.3323
▁Vipi	-12.3324
rejelewa	-12.3324
▁alitambu	-12.3338
ive	-12.3339
▁Tamk	-12.3341
land	-12.3354
aggin	-12.336
uonekan	-12.3363
▁hufafanu	-12.3366
ite	-12.338
fuat	-12.3381
▁linalohusish	-12.3384
▁9]	-12.3388
▁Kif	-12.3388
pr	-12.3392
▁Ly	-12.3397
kuelezeaje	-12.3403
ondolewa	-12.3408
ofu	-12.3416
▁kika	-12.3421
▁Qu	-12.3422
kuweka	-12.3435
lijadili	-12.3449
isiyo	-12.3454
px	-12.3461
wani	-12.3479
▁Sh	-12.3481
kwe	-12.3482
kusanyaji	-12.3483
nger	-12.3486
▁unaozidi	-12.3486
ile	-12.3489
▁Geo	-12.3495
angazwa	-12.351
▁inayom	-12.3512
▁hugawany	-12.3522
ipimo	-12.3526
chapishwa	-12.3531
▁___________	-12.3535
choka	-12.3547
linganishwa	-12.3549
itazamo	-12.3562
iva	-12.3563
time	-12.3567
▁lami	-12.3568
lipu	-12.3569
fikiri	-12.357
chungu	-12.3573
126	-12.3582
▁kushambuli	-12.3582
kipenda	-12.3587
▁walinunua	-12.3588
▁ts	-12.359
napoanguka	-12.3594
kivuma	-12.3607
lipofika	-12.3609
▁hayata	-12.3609
kulia	-12.3614
naenda	-12.3627
[7,	-12.363
ukiwa	-12.3636
gr	-12.3646
don	-12.3655
def	-12.3671
shikamana	-12.3672
▁kuvu	-12.3679
ablo	-12.368
ym	-12.368
▁end	-12.3703
izazi	-12.3706
)-	-12.3706
tac	-12.373
nium	-12.3731
▁rock	-12.3747
tegeme	-12.3752
▁Urejesh	-12.376
▁Inasem	-12.3767
▁umeboresh	-12.3769
os	-12.3772
ungependa	-12.3775
gusa	-12.3775
heshim	-12.3782
hauku	-12.3784
om	-12.3798
mesoma	-12.3805
em	-12.3809
ibadilisha	-12.3817
▁inani	-12.3821
najua	-12.3821
08	-12.3824
toke	-12.3825
mwon	-12.3829
▁(2,	-12.3831
shaji	-12.3831
▁akim	-12.3837
nahimizwa	-12.384
'	-12.3844
mita	-12.3849
rubi	-12.3854
▁Pre	-12.3856
gizo	-12.3856
nja	-12.3857
Anga	-12.3862
ijumuish	-12.3863
takatifu	-12.3866
output	-12.3868
YE	-12.3871
Ishi	-12.3874
▁____	-12.3883
kutumia	-12.3886
ting	-12.3889
isi	-12.389
▁sili	-12.3893
utofautiana	-12.3893
wende	-12.3897
nIna	-12.3901
▁kukufaham	-12.3904
media	-12.391
Kitabu	-12.3921
▁upatanish	-12.3921
Kitu	-12.3924
gurudumu	-12.3925
Sentensi	-12.3927
simulizi	-12.3932
Mtu	-12.3935
maskini	-12.3938
°	-12.3942
▁kujiwek	-12.3944
node	-12.3948
chu	-12.3949
▁Fre	-12.3954
Jill	-12.3955
kabila	-12.3956
Adventure	-12.3957
var	-12.3958
nch	-12.3962
0%	-12.3963
salamu	-12.3964
rekodiwa	-12.3965
▁aliwahi	-12.3967
Wahusika	-12.3969
▁kisafisha	-12.3969
Ndoto	-12.3973
programu	-12.3976
kilomita	-12.3978
84	-12.3978
Urafiki	-12.3981
Maoni	-12.3981
Jedwali	-12.3982
radius	-12.3983
riba	-12.3983
ubao	-12.3984
Jumla	-12.3985
sasa	-12.3985
wakati	-12.3985
digrii	-12.3986
Kweli	-12.3986
Mfano	-12.3988
iacha	-12.3988
dakika	-12.3989
fizikia	-12.3989
maandishi	-12.399
usiku	-12.399
mawazo	-12.399
rangi	-12.399
matokeo	-12.3991
nukuu	-12.3992
undo	-12.3992
▁Wing	-12.3994
kiasi	-12.3995
Jack	-12.3996
anuwai	-12.3996
utendaji	-12.3997
ifurushi	-12.4002
Kiwango	-12.4005
kesha	-12.4012
Kila	-12.4013
▁hauja	-12.4015
koma	-12.4017
hai	-12.4026
ky	-12.4028
900	-12.4034
Mimi	-12.4035
▁anam	-12.4039
▁10%.	-12.4054
ph	-12.4059
Mvu	-12.4067
▁he	-12.4077
▁walicho	-12.408
est	-12.408
▁wapanda	-12.4091
▁Jok	-12.4103
▁ulija	-12.4104
▁usikiliz	-12.4113
kinywa	-12.4115
upata	-12.4122
saidie	-12.4124
Mary	-12.4127
upoteza	-12.414
▁inaku	-12.4144
▁kustaajabi	-12.4147
embe	-12.4154
hoji	-12.4159
kimeta	-12.4159
▁alitembe	-12.4161
▁wanashiriki	-12.4163
ngumu	-12.4164
tenganisha	-12.4169
▁unaju	-12.4173
0)\	-12.4187
▁con	-12.4191
▁anayepend	-12.4193
30	-12.4199
mezidi	-12.42
kivinjari	-12.4204
▁$7	-12.4211
fuatiliwa	-12.4217
ok	-12.4227
ajiri	-12.4233
naelezea	-12.4234
saa	-12.4235
▁viamb	-12.4239
▁40.	-12.424
▁Mak	-12.4246
▁109	-12.4255
bembeleza	-12.4259
wezekani	-12.4261
ray	-12.4273
▁65	-12.4276
ac	-12.4278
atoke	-12.428
kubaliwa	-12.4284
▁We	-12.4292
nathamini	-12.4297
▁zinazoonyesh	-12.4302
▁Nilipo	-12.4307
▁blue	-12.4312
▁viwi	-12.4314
usu	-12.4318
▁tang	-12.4318
▁Kura	-12.4324
sto	-12.4334
vumbuzi	-12.4334
▁196	-12.4336
shtakiwa	-12.4346
meza	-12.4349
ufaa	-12.4353
▁10)	-12.4354
▁Dai	-12.4357
sambazaji	-12.4361
dhuru	-12.4373
▁Kisi	-12.4378
Duk	-12.4388
64	-12.4405
her	-12.4409
tazam	-12.4419
▁kuyapa	-12.4423
nyeza	-12.4431
▁alizo	-12.4436
ern	-12.4436
WE	-12.4443
23	-12.4446
najisikia	-12.4447
ir	-12.4451
ime	-12.4452
▁sijawa	-12.4453
▁zinazozingati	-12.4454
▁Paw	-12.4456
▁Christ	-12.4457
ipa	-12.4458
▁0.	-12.4459
pedi	-12.4465
▁Mchang	-12.4466
ntena	-12.4469
asomo	-12.4472
ons	-12.4475
▁sufuri	-12.4476
upu	-12.4476
▁Kuny	-12.4477
▁kugeuz	-12.4479
ast	-12.4486
▁Steve	-12.4488
china	-12.4488
▁Utofauti	-12.4496
winkle	-12.4499
tangulia	-12.4503
▁viole	-12.4504
ambulisha	-12.4506
rithi	-12.451
mefungwa	-12.4514
hindi	-12.4529
▁masa	-12.453
nunuliwa	-12.4531
semwa	-12.4532
doe	-12.4533
[2,	-12.4533
chemka	-12.4533
imarika	-12.4534
lon	-12.4534
linganisho	-12.4535
▁Tenga	-12.4536
haribifu	-12.4538
islamu	-12.4539
▁Adam	-12.4539
▁modal	-12.454
▁hedgehog	-12.4541
chujio	-12.4541
fikivu	-12.4542
staarabu	-12.4542
sumbufu	-12.4542
chongaji	-12.4542
suli	-12.4542
hemko	-12.4543
himili	-12.4543
akubaliano	-12.4543
saada	-12.4543
pimaji	-12.4544
tahiniwa	-12.4544
bichi	-12.4544
▁Huwa	-12.4544
aboresho	-12.4544
aumivu	-12.4544
teremko	-12.4544
anyoya	-12.4544
▁Wanacham	-12.4545
watayarish	-12.4545
image	-12.4545
0-9	-12.4547
▁kuwasili	-12.4547
▁crisp	-12.4547
word	-12.4547
unduki	-12.4547
▁Bubble	-12.4547
olekuli	-12.4548
ampuli	-12.4548
katoliki	-12.4548
adhira	-12.4548
nyonge	-12.4548
ashibodi	-12.4548
▁peach	-12.4549
▁Mwenza	-12.4549
▁Carbon	-12.4549
▁Peach	-12.4549
manufacturing	-12.4549
mask	-12.4549
▁classic	-12.4549
pplication	-12.4549
upload	-12.4549
▁mareje	-12.4549
function	-12.4549
▁homofoni	-12.4549
Usiogope	-12.4549
econdHighest	-12.4549
pinduliwa	-12.4549
requency	-12.4549
submit	-12.4549
→	-12.4549
▁Alligator	-12.4549
▁AlphaGo	-12.4549
▁Bezos	-12.4549
▁Bioanuwai	-12.4549
▁Bluetooth	-12.4549
▁Bonaparte	-12.4549
▁Chrome	-12.4549
▁Collins	-12.4549
▁Copacabana	-12.4549
▁Dewey	-12.4549
▁Dolphin	-12.4549
▁Edison	-12.4549
▁Firefox	-12.4549
▁Fleming	-12.4549
▁INTEGER	-12.4549
▁Jenerali	-12.4549
▁Jordgubbar	-12.4549
▁Jumatano	-12.4549
▁Kalamu	-12.4549
▁Kekulé	-12.4549
▁Kiarabu	-12.4549
▁Mafuriko	-12.4549
▁Meksiko	-12.4549
▁Merge	-12.4549
▁Metropolitan	-12.4549
▁Monroe	-12.4549
▁Outlook	-12.4549
▁Parachichi	-12.4549
▁Silaha	-12.4549
▁SmartBat	-12.4549
▁Ukomunisti	-12.4549
▁Yosemite	-12.4549
▁Zuhura	-12.4549
▁cheddar	-12.4549
▁cogging	-12.4549
▁crackers	-12.4549
▁filimbi	-12.4549
▁glavu	-12.4549
▁hexagon	-12.4549
▁higherNumber	-12.4549
▁isiyokolea	-12.4549
▁isokaboni	-12.4549
▁jeraha	-12.4549
▁kabambe	-12.4549
▁kikohozi	-12.4549
▁kufundishia	-12.4549
▁kuheshimiana	-12.4549
▁kuhuzunisha	-12.4549
▁kutekelezeka	-12.4549
▁miinuko	-12.4549
▁mtawalia	-12.4549
▁mwandamani	-12.4549
▁saruji	-12.4549
▁scallions	-12.4549
▁shamrashamra	-12.4549
▁sinepsi	-12.4549
▁spicy	-12.4549
▁tafrija	-12.4549
▁timilifu	-12.4549
▁usanisi	-12.4549
▁utimilifu	-12.4549
▁vijidudu	-12.4549
▁vimulimuli	-12.4549
▁vitongoji	-12.4549
▁viuavijasumu	-12.4549
▁volkano	-12.4549
▁wasikivu	-12.4549
▁zukini	-12.4549
+-------+	-12.4549
sentence	-12.4549
▁ARPANET	-12.4549
▁Dick	-12.4549
▁Kapte	-12.4549
▁Susan	-12.4549
▁boolean	-12.4549
▁msiba	-12.4549
▁vielezi	-12.4549
▁viunganishi	-12.4549
▁voltage	-12.4549
▁zombie	-12.4549
▁&#39;*&#39;	-12.4549
▁(2019)	-12.4549
▁Blueberry	-12.4549
▁Flutter	-12.4549
▁Kumbuk	-12.4549
▁mtangulizi	-12.4549
▁Democratic	-12.4549
▁Diego	-12.4549
▁Kilatini	-12.4549
▁apocalyptic	-12.4549
▁mshale	-12.4549
boreka	-12.4549
dhulumiwa	-12.4549
▁Hollywood	-12.4549
▁kimahesabu	-12.4549
▁makofi	-12.4549
▁mfupa	-12.4549
▁uwashe	-12.4549
▁walnuts	-12.4549
▁3-5	-12.4549
▁kibaolojia	-12.4549
▁mwangalizi	-12.4549
▁uponyaji	-12.4549
▁Chapel	-12.4549
▁Nanasi	-12.4549
▁afuataye	-12.4549
▁juicy	-12.4549
▁mpweke	-12.4549
▁Island	-12.4549
▁Outro	-12.4549
▁grill	-12.4549
▁kimahaba	-12.4549
▁Mbio	-12.4549
▁jeans	-12.4549
▁kuthawabisha	-12.4549
▁ghafi	-12.4549
▁kupitiwa	-12.4549
-1000	-12.4549
▁Turtle	-12.4549
▁nikeli	-12.4549
▁calculus	-12.4549
▁kebo	-12.4549
▁manati	-12.4549
▁vifar	-12.4549
▁REST	-12.4549
▁vodka	-12.4549
▁Usimbaji	-12.4549
▁alasiri	-12.4549
▁jog	-12.4549
▁kabichi	-12.4549
▁Uswizi	-12.4549
hopi	-12.4549
▁saitoplazimu	-12.4549
▁vipofu	-12.4549
▁Karibi	-12.4549
▁unayoomba	-12.4549
')\">	-12.4549
smith	-12.4549
Mpokeaji	-12.4549
UBI	-12.4549
ealthcare	-12.4549
▁nimonia	-12.4549
▁2020-1-	-12.4549
▁wino	-12.4549
▁Mechi	-12.4549
▁viputo	-12.4549
▁classical	-12.4549
▁saketi	-12.4549
profit	-12.4549
▁Monica	-12.4549
▁kibayometriki	-12.4549
▁kambo	-12.4549
▁chafya	-12.4549
▁misumari	-12.4549
content	-12.4549
▁Vuli	-12.4549
▁kuzuiwa	-12.4549
▁Wazungu	-12.4549
▁usawaziko	-12.4549
▁unachopenda	-12.4549
▁Mabingwa	-12.455
▁misukosuko	-12.455
▁kunyunyizia	-12.455
▁Olivia	-12.455
▁pseudocode	-12.455
▁mdudu	-12.455
▁rula	-12.455
Brown	-12.455
▁Fiction	-12.455
▁ozoni	-12.455
▁Imani	-12.455
▁Kibinafsi	-12.455
▁uondo	-12.455
Motisha	-12.455
document	-12.455
▁Bush	-12.455
▁yaliyolengwa	-12.455
▁Web	-12.455
▁ukandamizaji	-12.455
▁kifasihi	-12.455
▁haijachelewa	-12.455
▁unajimu	-12.455
▁Jazz	-12.455
▁zilizoboreshwa	-12.455
suluhishi	-12.455
▁1776	-12.455
▁jeusi	-12.455
▁Dell	-12.455
▁lori	-12.455
)?	-12.455
▁kunus	-12.455
▁uliomzunguka	-12.455
▁1995	-12.455
▁mpatanishi	-12.455
▁vilivyochakatwa	-12.455
▁Rocky	-12.455
▁yaliyohitajika	-12.455
▁uliogandishwa	-12.455
▁zilizosambazwa	-12.455
▁kilichosagwa	-12.455
▁kukariri	-12.4551
UTC	-12.4551
▁vinyago	-12.4551
▁Taylor	-12.4551
▁Makuu	-12.4551
▁mstahimilivu	-12.4551
▁upunguzaji	-12.4551
▁Hasa	-12.4551
▁mtukufu	-12.4551
nSeti	-12.4551
▁vilivyopiganwa	-12.4551
▁kuteka	-12.4551
▁taabu	-12.4551
▁kuyeyush	-12.4551
lower	-12.4551
▁mshumaa	-12.4551
▁wanavyojifunza	-12.4551
▁kidiplomasia	-12.4551
bow	-12.4551
▁$50	-12.4551
▁mtaani	-12.4551
▁swan	-12.4552
▁jiko	-12.4552
▁makato	-12.4552
▁ulinganifu	-12.4552
▁Will	-12.4552
▁kushauriana	-12.4552
▁ujamaa	-12.4552
▁unaokubalika	-12.4552
▁linalokosekana	-12.4552
▁mnunuzi	-12.4552
▁Sandwich	-12.4552
▁40%	-12.4552
▁1973	-12.4552
▁vitendakazi	-12.4552
▁Ndimu	-12.4552
MIT	-12.4552
▁1992	-12.4552
▁hashi	-12.4552
kimbiza	-12.4553
▁(1+	-12.4553
▁linachomoza	-12.4553
▁Cind	-12.4553
▁mhasibu	-12.4553
▁igizo	-12.4553
▁huchanganyika	-12.4553
▁migawanyiko	-12.4553
▁Zima	-12.4553
▁Venus	-12.4553
▁ukabaila	-12.4553
▁spika	-12.4553
eural	-12.4554
▁lililojaa	-12.4554
▁RGB	-12.4554
▁Nodi	-12.4554
▁flip	-12.4554
▁Jikoni	-12.4554
▁waliofanikiwa	-12.4554
▁Mioyo	-12.4554
▁viraka	-12.4554
dufu	-12.4554
▁2005	-12.4554
hou	-12.4555
▁iliyopinda	-12.4555
▁unaorudiwa	-12.4555
▁kuudhi	-12.4555
▁kufyonzwa	-12.4555
▁iliyochapishwa	-12.4555
▁unaendeleaje	-12.4555
▁inapoongezeka	-12.4555
▁pongezi	-12.4556
▁ngeni	-12.4556
▁uchumba	-12.4556
▁linalokua	-12.4556
▁hurekebisha	-12.4556
▁Fit	-12.4556
▁Spaghetti	-12.4556
▁inapoendelea	-12.4556
▁kihesabu	-12.4557
▁vinavyozunguka	-12.4557
nHaraka	-12.4557
▁kinachotokea	-12.4557
▁inayounga	-12.4557
▁kujitambulisha	-12.4557
▁iliyopotea	-12.4557
pakia	-12.4557
▁kifurushi	-12.4557
ingiliano	-12.4557
▁lililoandikwa	-12.4557
▁Vito	-12.4558
sheni	-12.4558
▁King	-12.4558
▁hazihitaji	-12.4558
▁kulemewa	-12.4558
▁iliyoyeyuka	-12.4558
▁kiwandani	-12.4558
back	-12.4558
▁Jeans	-12.4559
▁kilichotokea	-12.4559
▁Wasimamizi	-12.4559
▁zilizojaa	-12.4559
teketeza	-12.4559
dundo	-12.4559
▁Uislamu	-12.4559
nAlisema	-12.456
▁shambani	-12.456
▁kukwama	-12.456
▁kupuuzwa	-12.456
▁zinafanana	-12.456
▁umepita	-12.456
▁wanaoongoza	-12.456
▁50%	-12.456
▁lisilojulikana	-12.456
▁sonnet	-12.456
▁ukivuma	-12.456
▁Mwanafalsafa	-12.4561
banwa	-12.4561
▁Milele	-12.4561
idakuzi	-12.4561
▁kutiririsha	-12.4561
ounce	-12.4561
▁kuidhinisha	-12.4562
▁Sawe	-12.4562
▁aljebra	-12.4562
▁Thai	-12.4563
▁hukaa	-12.4563
▁yanapo	-12.4563
▁iliyotumiwa	-12.4563
▁maze	-12.4563
▁&#39;(&#39;	-12.4563
▁kisichojulikana	-12.4564
min	-12.4564
▁SMS	-12.4564
▁Njaa	-12.4565
isiyozuilika	-12.4565
▁kutetemeka	-12.4565
▁zinazozunguka	-12.4565
Ingia	-12.4565
▁unavyohitaji	-12.4566
▁kupakia	-12.4566
▁zinazochangia	-12.4566
▁wanacheza	-12.4566
hack	-12.4566
gawi	-12.4567
▁huinuka	-12.4567
▁lenyewe	-12.4567
▁kidhibiti	-12.4567
▁CV	-12.4567
▁ufuta	-12.4567
▁zinategemea	-12.4568
▁730	-12.4569
nFilamu	-12.4569
nManeno	-12.4569
kriketi	-12.457
oyage	-12.457
▁visu	-12.457
koa	-12.4571
▁iliyoenea	-12.4571
▁ulioongezeka	-12.4571
▁hakija	-12.4572
Kwaheri	-12.4572
▁itaongezeka	-12.4572
▁mitaji	-12.4572
▁wanazohitaji	-12.4572
▁kinawezekana	-12.4573
▁inayowakilisha	-12.4573
▁abiria	-12.4573
▁yanapatikana	-12.4573
▁ameishi	-12.4574
▁Visi	-12.4574
▁mbal	-12.4575
▁ukamilish	-12.4575
▁ninachohitaji	-12.4575
▁kinachoonekana	-12.4576
▁250	-12.4576
yeupe	-12.4576
▁uende	-12.4576
▁ovyo	-12.4577
▁isiyoisha	-12.4577
ikoni	-12.4577
raba	-12.4578
▁fon	-12.4578
▁mwog	-12.4578
▁anayezungumza	-12.4578
▁nadra	-12.4578
robots	-12.4578
Fikia	-12.4578
▁hop	-12.4579
▁umejifunza	-12.4579
▁$8	-12.458
▁kujitokeza	-12.458
▁kuvami	-12.4582
▁kinachotumika	-12.4583
nOrodha	-12.4583
▁Mchawi	-12.4583
▁std	-12.4583
Kutumia	-12.4584
naitwa	-12.4584
▁machozi	-12.4584
iliyotangulia	-12.4585
▁inatofautiana	-12.4585
▁halita	-12.4585
▁nimechoka	-12.4587
shono	-12.4588
▁inawaka	-12.4589
▁Mpe	-12.4589
▁ilizinduliwa	-12.4589
▁imekamilika	-12.459
▁papa	-12.4591
▁10,000	-12.4591
▁Viti	-12.4591
Of	-12.4591
▁cy	-12.4591
▁chuoni	-12.4592
▁akichunguza	-12.4593
▁kuahidi	-12.4594
▁hubadilishwa	-12.4594
▁imeweka	-12.4594
▁kuzidiwa	-12.4595
▁kuhitimu	-12.4596
▁Tamu	-12.4596
barikiwa	-12.4599
▁.-.	-12.46
▁mwajiri	-12.46
▁taco	-12.4601
▁wir	-12.4601
▁BK	-12.4601
▁inafanikiwa	-12.4603
dozi	-12.4603
sikike	-12.4604
▁(5)	-12.4604
▁Bur	-12.4604
jumuishaji	-12.4605
(10)	-12.4606
▁Kutangaza	-12.4607
▁yalitokea	-12.4608
panuliwa	-12.4608
ault	-12.4609
▁lipi	-12.4609
nSentensi	-12.461
▁zinaendelea	-12.461
▁inayozalish	-12.4611
▁uwanjani	-12.4612
▁Git	-12.4612
▁wawindaji	-12.4612
▁Sonic	-12.4613
▁Mfum	-12.4614
▁179	-12.4614
▁Ende	-12.4614
▁amechelewa	-12.4616
Tech	-12.4617
▁nimemaliza	-12.4619
daiwa	-12.462
cmp	-12.4621
nzu	-12.4621
idhaa	-12.4622
▁utatu	-12.4623
▁hutupa	-12.4625
yoongozwa	-12.4626
amuru	-12.4626
eller	-12.4626
▁Sushi	-12.4628
▁ghushi	-12.4629
▁steak	-12.4629
▁Njiwa	-12.4629
▁Sodiamu	-12.4629
▁TCP	-12.4629
▁mnyororo	-12.4629
▁Ubaguzi	-12.4629
▁secondSmallest	-12.4629
▁Nyoka	-12.4629
▁Televisheni	-12.4629
▁Nyimbo	-12.4629
▁Louis	-12.4629
▁Thailand	-12.4629
▁ATP	-12.4629
▁Gmail	-12.4629
▁Ethan	-12.4629
▁akisoma	-12.4629
▁Laptop	-12.4629
▁mRNA	-12.4629
▁AAGGA	-12.463
▁petal	-12.4631
▁XP	-12.4631
▁Jackson	-12.4631
desh	-12.4632
▁Ofis	-12.4632
▁Victor	-12.4636
▁810	-12.4637
▁kupenya	-12.4638
▁inavyoonekana	-12.4639
erson	-12.464
▁Usoni	-12.4641
▁Wind	-12.4642
▁Rio	-12.4644
▁jijini	-12.4645
▁kununuliwa	-12.4645
▁humo	-12.4646
▁1861	-12.4646
▁set	-12.4647
▁63	-12.4647
▁inayotoa	-12.465
▁Brit	-12.465
▁kutawala	-12.4652
▁chatu	-12.4652
▁Najua	-12.4653
▁mitini	-12.4657
▁uelekez	-12.4658
▁unaandika	-12.4659
▁Her	-12.4664
▁inadhani	-12.4666
▁Heshim	-12.4667
▁Kulala	-12.4667
▁waliopo	-12.467
▁kufulia	-12.4671
▁Hous	-12.4672
uhalali	-12.4673
idisha	-12.4673
ates	-12.4674
▁Tikiti	-12.4674
▁bao	-12.4675
nAlice	-12.4678
ngazia	-12.4679
▁anajua	-12.468
nWana	-12.4684
▁Ushauri	-12.4686
nMvu	-12.4686
▁isom	-12.4688
▁Ilini	-12.4688
safirishaji	-12.469
▁sija	-12.469
▁Yana	-12.4691
+1	-12.4692
▁alibaki	-12.4696
▁kupo	-12.4699
▁anasema	-12.47
enye	-12.4703
koko	-12.4703
▁Andre	-12.4704
▁yanatofautiana	-12.4705
▁Mazing	-12.4713
tunavyoingiliana	-12.4716
▁mazing	-12.4717
mbi	-12.4718
idha	-12.4721
85	-12.4725
ou	-12.4727
panua	-12.4729
▁Vyu	-12.473
▁kuhimizwa	-12.4733
▁Pe	-12.4734
JR	-12.474
▁likawa	-12.4741
▁Aliend	-12.4741
▁huanzi	-12.4741
upangisha	-12.4741
▁Emp	-12.4747
chelewesha	-12.4749
vyofikiri	-12.475
▁Jitu	-12.4755
▁kinajumuisha	-12.4756
chell	-12.4756
ficha	-12.4757
▁pini	-12.476
▁vimiminik	-12.4761
▁gha	-12.4761
tego	-12.4762
▁tukufu	-12.4768
▁Masoko	-12.4768
▁celsius	-12.4768
▁Kubali	-12.477
▁Ushairi	-12.477
▁muamala	-12.477
▁Vegan	-12.4771
▁hip	-12.4772
▁Uhalifu	-12.4772
▁^	-12.4772
▁kutum	-12.4775
▁tete	-12.4778
Sum	-12.478
wakabili	-12.4784
▁mke	-12.4786
▁Kupamba	-12.4789
▁wanatumia	-12.4791
mwita	-12.4795
aratibu	-12.48
ageuzi	-12.4809
▁wasikilizaji	-12.4814
▁Prime	-12.4815
▁sushi	-12.4825
▁Mf	-12.4826
▁tunao	-12.4827
▁kuti	-12.4834
▁3.2	-12.4838
aiwezekani	-12.4839
penyeza	-12.4844
▁Mon	-12.4847
imeathiri	-12.4851
▁misa	-12.4851
(*	-12.4856
],\"	-12.4858
▁jen	-12.4859
▁kuisha	-12.4864
▁Bana	-12.4865
ngefanya	-12.4878
▁41	-12.4881
▁Badili	-12.4882
▁mta	-12.4886
kuu	-12.4887
▁Uvu	-12.4888
▁uvut	-12.4891
▁Wat	-12.4899
tofa	-12.4899
Ajali	-12.49
▁kopo	-12.4904
utu	-12.4908
▁rubani	-12.4913
▁kunya	-12.4913
aijulikani	-12.4915
kinzan	-12.4917
▁50,	-12.4918
▁alisiki	-12.4919
brus	-12.4921
▁Gop	-12.4922
123	-12.4923
▁size	-12.4924
vac	-12.4927
▁Vifun	-12.4929
oxy	-12.4934
pasuka	-12.4936
▁kinavyo	-12.4941
▁Imetu	-12.4941
umbo	-12.4945
▁kurudiwa	-12.495
▁mwao	-12.495
▁ninao	-12.4957
▁unaona	-12.4959
kuruhusu	-12.4961
▁watumwa	-12.4962
▁kungoj	-12.4963
▁(23	-12.4969
uwekwa	-12.497
04	-12.497
▁anatoa	-12.4976
div	-12.4984
zungumzaji	-12.4986
kuzwa	-12.4988
▁375.	-12.4989
▁uchangany	-12.4991
curren	-12.4994
eta	-12.4995
rusha	-12.4995
joto	-12.4996
▁Life	-12.4999
▁For	-12.5008
▁mabega	-12.501
▁37,	-12.501
simu	-12.5013
ipendi	-12.5018
jipinda	-12.502
sti	-12.5021
lao	-12.5025
39	-12.5028
▁unahakikisha	-12.503
▁koni	-12.5041
▁Niliend	-12.5044
nX	-12.5045
mevutiwa	-12.5056
▁inapendekez	-12.5057
▁Chur	-12.5059
▁kip	-12.5062
▁AM	-12.5063
likamilisha	-12.5063
▁ANN	-12.5065
litatua	-12.507
▁wakipiga	-12.5082
kitoa	-12.5084
▁wahitimu	-12.5086
▁(4)	-12.5093
AC	-12.5096
eke	-12.5097
rasa	-12.5101
▁36	-12.5105
way	-12.5108
▁yanaendelea	-12.5113
▁Alexand	-12.5116
320	-12.5117
anatoka	-12.5122
▁Alitembe	-12.5126
▁vy	-12.5132
lar	-12.5132
6)	-12.5133
▁kuka	-12.5133
kabal	-12.5134
▁Ex	-12.5134
NT	-12.5142
▁zipo	-12.5144
▁56	-12.5151
tegemewa	-12.5163
▁wakija	-12.5164
▁App	-12.5164
▁Con	-12.5165
tuliza	-12.518
▁ninavyo	-12.518
imesaidia	-12.5181
▁anavyoweza	-12.5186
▁Unao	-12.5187
utumika	-12.5189
Kusho	-12.5202
38	-12.5212
▁gurudumu	-12.5214
▁Pip	-12.5216
▁AC	-12.5218
EH	-12.5218
▁alipiga	-12.5228
▁Per	-12.5232
▁ukat	-12.5234
▁Husababish	-12.5235
32.	-12.5241
anidi	-12.5242
▁zinazosaidia	-12.5242
nasema	-12.5244
▁Ce	-12.5255
lisema	-12.5261
▁aliku	-12.5263
-3,	-12.5271
haja	-12.5274
ata	-12.5276
/11	-12.5276
mzunguka	-12.5282
▁hupang	-12.5301
umb	-12.5316
meng	-12.5326
low	-12.5328
▁sta	-12.5329
▁hange	-12.5336
CAI	-12.5344
Hazi	-12.5345
▁huna	-12.5346
▁Huja	-12.5357
4%	-12.5357
▁100.:	-12.5357
▁Hello	-12.5368
4(	-12.537
ase	-12.5372
upa	-12.5377
kuzunguka	-12.5381
▁vipoke	-12.5384
▁kufu	-12.5384
ngia	-12.5385
nHi	-12.5388
gio	-12.5391
Kosa	-12.5393
▁Fu	-12.5412
▁(202	-12.5414
▁Uhakiki	-12.5415
bic	-12.5425
memaliza	-12.5428
▁ikim	-12.5432
ainishaji	-12.5438
omoni	-12.5442
tendewa	-12.545
▁200.	-12.5451
▁unahimiz	-12.5456
▁mah	-12.5459
▁100)	-12.546
▁Ever	-12.5473
24	-12.5473
▁80,	-12.5484
▁anakumbuk	-12.5486
kumbusho	-12.5488
mshinda	-12.5488
ishaji	-12.5491
▁zinazotoka	-12.5491
fli	-12.5496
▁anatembe	-12.5497
▁Nya	-12.5504
nenosiri	-12.5515
▁kunufai	-12.5516
▁fi	-12.5517
yingine	-12.5519
▁Abi	-12.5528
▁inayofu	-12.5533
▁tunacho	-12.5534
LA	-12.5539
blo	-12.5545
▁&#39;&#39;	-12.5546
▁yanayohusish	-12.5552
eka	-12.5552
sia	-12.5552
AD	-12.5566
▁Sitawa	-12.5576
odo	-12.5582
▁Men	-12.5585
▁$1,	-12.5587
▁kinafa	-12.5594
▁Kuchom	-12.5597
tor	-12.56
▁Wanapo	-12.5602
▁Haiku	-12.5604
akipita	-12.5604
iaji	-12.5607
tarudi	-12.5618
napendeza	-12.5624
imi	-12.5643
▁sc	-12.5646
▁kutochuku	-12.565
ever	-12.5653
waliwa	-12.567
gee	-12.5671
▁40,	-12.5672
lika	-12.568
▁style	-12.5686
▁words	-12.5686
ilikuwa	-12.5695
fuo	-12.5696
pato	-12.5703
rahisi	-12.5707
▁Car	-12.5707
unasa	-12.5708
ifu	-12.5708
PR	-12.5711
▁md	-12.5714
Sija	-12.5715
▁love	-12.5726
hand	-12.5738
5%.	-12.5746
itaacha	-12.575
ujenga	-12.5751
▁KW	-12.5753
api	-12.5758
ulinda	-12.5762
43	-12.5763
▁linafa	-12.5767
nNime	-12.5774
▁Fer	-12.579
angle	-12.5798
izio	-12.5798
liendelea	-12.5802
▁Kuhifadhi	-12.5805
aka	-12.5811
enne	-12.5812
last	-12.5816
erry	-12.5823
▁-3	-12.5826
▁hamira	-12.5827
ney	-12.5828
huisha	-12.5836
▁mte	-12.5837
▁likito	-12.584
zazi	-12.584
▁hudhibiti	-12.5847
sambazwa	-12.5872
ding	-12.5872
▁wanafikiri	-12.5872
nTuna	-12.5874
▁haju	-12.5882
wasaidia	-12.5882
95	-12.5883
likimbia	-12.5883
ongeze	-12.5888
ony	-12.5893
72	-12.5893
▁kus	-12.5901
Baada	-12.5909
▁kutili	-12.5919
▁unapohitaji	-12.5921
+2)	-12.5936
▁bas	-12.5936
▁linahusish	-12.5941
▁unataraji	-12.5943
▁Kuni	-12.5952
▁Maw	-12.5962
etri	-12.597
▁per	-12.5972
▁unaathiri	-12.5976
nyanyu	-12.5982
37	-12.5992
ans	-12.6003
▁rasi	-12.6005
▁(9	-12.6007
▁Ng	-12.6009
_______________	-12.6022
lly	-12.6023
uvaa	-12.6028
mefanya	-12.6028
elewi	-12.6029
▁imeto	-12.6034
su	-12.6039
jione	-12.6045
▁ilija	-12.6049
▁umewek	-12.6059
▁Ungan	-12.6069
himu	-12.608
ext	-12.6087
pau	-12.6092
▁HTTPS	-12.6094
ut	-12.6099
▁Kiwi	-12.6113
▁alikuta	-12.6114
▁kuratibi	-12.6117
ca	-12.612
▁mit	-12.6121
Be	-12.613
naelewa	-12.613
pima	-12.6132
silimia	-12.6136
▁Kuendele	-12.6143
ifanyike	-12.6151
{4	-12.6155
jiweke	-12.6158
nAlikimbi	-12.6158
uingiliana	-12.6159
62	-12.6161
changanyikiwa	-12.6162
fugwa	-12.617
500	-12.6173
▁kas	-12.6173
61	-12.6174
▁Nyum	-12.6175
nakutana	-12.6185
{2,	-12.6189
nHali	-12.6191
itambulisho	-12.6202
▁11)	-12.6204
iza	-12.6213
▁my	-12.6213
▁Fro	-12.6216
doro	-12.622
▁@	-12.6238
engine	-12.624
bul	-12.624
idge	-12.6243
tawahi	-12.625
Ca	-12.6265
masi	-12.6266
▁hatuta	-12.6269
waelimisha	-12.6283
▁umesiki	-12.6301
▁scala	-12.6303
bus	-12.6304
▁huvunj	-12.6305
Miti	-12.6308
▁7)	-12.631
▁1-2.	-12.6316
asili	-12.6317
▁walioathiri	-12.6317
bar	-12.6319
mp	-12.6324
halali	-12.6329
▁Par	-12.633
PM	-12.6335
nufaik	-12.6335
funza	-12.6335
Wit	-12.6336
dy	-12.6336
scor	-12.6339
▁huhamish	-12.6343
▁inakua	-12.6348
▁usiowez	-12.6351
▁kukiuk	-12.6351
▁yanaenda	-12.6357
kuli	-12.636
john	-12.638
KI	-12.6382
chunguzwa	-12.6382
iita	-12.6384
4000	-12.6386
▁Kan	-12.6395
▁Pea	-12.6397
mic	-12.6398
IP	-12.6398
awadi	-12.6399
For	-12.6403
▁Poo	-12.6407
Nyanya	-12.641
Nyumba	-12.6411
Col	-12.6411
Kichwa	-12.6412
Furaha	-12.6415
vy	-12.6419
Ex	-12.642
Kazi	-12.6423
.:-	-12.6423
moto	-12.6424
uzwa	-12.6427
ANN	-12.6427
tters	-12.643
VA	-12.6432
pro	-12.6435
NA	-12.6436
tatokea	-12.6436
▁waendesha	-12.6437
startIndex	-12.6439
(4)	-12.644
Watch	-12.6447
adui	-12.6448
▁Tim	-12.645
binafsi	-12.6452
▁kutazam	-12.6452
▁($	-12.6453
tis	-12.646
Anwani	-12.6461
makusudi	-12.6462
number	-12.6463
mashariki	-12.6464
reverse	-12.6464
Mtihani	-12.6467
chart	-12.6467
oda	-12.6469
Jamii	-12.6469
dhaifu	-12.6469
2&	-12.647
Daktari	-12.6471
Keki	-12.6472
saikolojia	-12.6473
Karoti	-12.6474
Yohana	-12.6475
▁Dar	-12.6477
▁Jari	-12.6477
Mfanyakazi	-12.6477
find	-12.6477
Wanadamu	-12.6477
▁hufunik	-12.6478
▁Inapendekez	-12.648
thabiti	-12.6481
SEO	-12.6481
Japan	-12.6482
kutofautisha	-12.6482
Maandishi	-12.6483
nyepesi	-12.6483
Des	-12.6483
teknolojia	-12.6483
Sehemu	-12.6485
Mambo	-12.6485
kahawia	-12.6485
vijiko	-12.6485
mfumo	-12.6485
Tovuti	-12.6485
sheria	-12.6486
algorithm	-12.6486
Nyota	-12.6486
Mbadala	-12.6487
Ulimwengu	-12.6487
Vipengele	-12.6487
Afya	-12.6487
chembe	-12.6487
Nguvu	-12.6487
Biashara	-12.6488
shirikishi	-12.6488
Zaidi	-12.6488
machungwa	-12.6488
Marekani	-12.6489
kuvutia	-12.6489
mpya	-12.6489
mstari	-12.6489
vitabu	-12.6489
michezo	-12.6489
mistari	-12.649
Mfumo	-12.6492
▁Don	-12.6493
Usi	-12.6493
Kujifunza	-12.6493
▁Inachuku	-12.6494
Bei	-12.6494
CH	-12.6495
Tafadhali	-12.6496
New	-12.6497
▁Kar	-12.65
(100	-12.65
idhinisha	-12.6501
1/4	-12.6504
maili	-12.6508
njia	-12.651
Neno	-12.6513
kemia	-12.6513
ev	-12.6516
Asili	-12.6518
lio	-12.6522
Karibu	-12.6522
NE	-12.6526
▁baya	-12.6527
Mgonjwa	-12.6532
ations	-12.6535
nini	-12.655
seli	-12.655
nafuu	-12.6556
umi	-12.6561
igawanyiko	-12.6566
dhihirisha	-12.6569
▁Dal	-12.657
▁GH	-12.6574
▁Wasilish	-12.6574
▁fol	-12.658
natabiri	-12.6581
chumba	-12.6585
uke	-12.6586
angavu	-12.6593
omi	-12.6601
yoathiri	-12.6608
uzz	-12.661
Phone	-12.6614
aro	-12.6614
ible	-12.6621
ham	-12.6633
▁Kit	-12.6636
nDa	-12.664
changanyika	-12.6641
changamka	-12.6655
▁zinazosaidi	-12.6658
yozalishwa	-12.6658
ngi	-12.6658
imehusish	-12.666
bia	-12.6661
pigo	-12.6663
kiingia	-12.6664
yer	-12.6665
posonga	-12.6666
tupu	-12.6669
9.5	-12.6682
aulo	-12.6683
)/2	-12.6684
shima	-12.6686
han	-12.6693
cab	-12.6699
▁Peng	-12.67
▁zinatumi	-12.6709
hamishwa	-12.6721
idia	-12.6731
ize	-12.6731
xy	-12.6732
▁Kushiriki	-12.6737
SVM	-12.6737
ute	-12.6738
shukiwa	-12.6738
▁Rom	-12.674
▁mapa	-12.6743
anda	-12.6745
▁Cent	-12.6749
usha	-12.6752
ilele	-12.6753
naamua	-12.6755
liyeishi	-12.6757
mapenzi	-12.6761
aba	-12.6763
shujaa	-12.6767
sio	-12.677
HC	-12.6775
mografia	-12.6778
1[	-12.6787
lam	-12.6787
▁Atom	-12.6788
).:	-12.6789
sci	-12.6789
miminika	-12.679
▁375	-12.6793
ada	-12.6796
▁huchoche	-12.6801
lent	-12.6804
ery	-12.6808
▁uchungu	-12.6814
▁COU	-12.6815
ois	-12.6822
wafaa	-12.683
igawanya	-12.683
angazi	-12.6837
wazia	-12.6838
▁Ci	-12.6838
kifungu	-12.6838
pinzani	-12.684
onekan	-12.6841
kiona	-12.6841
\"></	-12.6844
▁banda	-12.6852
▁kuwafaham	-12.6852
Cal	-12.6859
fariji	-12.686
sababishi	-12.6865
eng	-12.6867
tiririko	-12.6867
▁2020?	-12.6868
100,	-12.6872
Mpendwa	-12.6874
▁EU	-12.6876
els	-12.688
▁Rock	-12.6887
tech	-12.6887
kaushwa	-12.6891
mhoji	-12.6893
nami	-12.6896
mw	-12.6897
maanish	-12.6899
nx	-12.6902
ibbo	-12.6907
lijawa	-12.6908
▁alisafiri	-12.6909
Link	-12.6909
hudumi	-12.692
▁Ol	-12.6922
green	-12.6925
endelee	-12.6927
katisha	-12.6929
Me	-12.6933
der	-12.6935
itambaa	-12.6936
nuwai	-12.6939
iPhone	-12.694
erobic	-12.6942
▁KU	-12.6943
cor	-12.6945
▁huingi	-12.6946
elele	-12.6948
karimu	-12.6954
ves	-12.6956
▁Blue	-12.6958
▁Saw	-12.6963
71	-12.6964
jifunz	-12.6965
anzilishi	-12.6966
haw	-12.6966
kukumbush	-12.6968
▁$6	-12.6969
▁kugeuk	-12.6978
▁kushangaz	-12.698
▁vichaka	-12.6981
Anapenda	-12.6981
▁Tru	-12.6984
▁EV	-12.6988
▁pik	-12.6994
lmasi	-12.6995
safa	-12.7001
ley	-12.7001
ff	-12.7001
rate	-12.7002
zipa	-12.7002
▁Pand	-12.7003
▁Rai	-12.7003
abaka	-12.7003
late	-12.7005
▁---	-12.7006
ous	-12.7008
▁sif	-12.7011
hasibu	-12.7011
PE	-12.7014
▁$80	-12.7014
▁57	-12.7016
▁Wars	-12.7017
aver	-12.7017
oketi	-12.7017
gua	-12.7022
▁roll	-12.7024
▁Alf	-12.7025
pachik	-12.703
utmeg	-12.703
▁sy	-12.7031
stahiki	-12.7031
FF	-12.7031
igiza	-12.7032
simamishwa	-12.7032
chambuliwa	-12.7032
engele	-12.7032
gram	-12.7033
ingetokea	-12.7034
▁mfum	-12.7034
nyamaza	-12.7036
umaku	-12.7038
Element	-12.7038
+2	-12.7038
▁mbu	-12.7039
abari	-12.7039
vutano	-12.704
zuilika	-12.704
harakisha	-12.7041
(255	-12.7041
amusi	-12.7041
▁Wood	-12.7041
ziba	-12.7041
saliti	-12.7041
kombozi	-12.7041
nyanyasaji	-12.7042
▁Tweet	-12.7043
huishaji	-12.7043
uuguzi	-12.7044
aandamano	-12.7044
ethane	-12.7044
chemraba	-12.7044
chuzi	-12.7044
olombia	-12.7045
legea	-12.7045
suguano	-12.7045
▁hit	-12.7045
amaduni	-12.7046
Health	-12.7046
diplomasia	-12.7046
▁ujan	-12.7046
arafuu	-12.7047
akafu	-12.7047
amthilia	-12.7047
hamisho	-12.7047
jiandikisha	-12.7047
▁amesafiri	-12.7047
amasha	-12.7047
quirrel	-12.7048
laaniwa	-12.7048
oronavirus	-12.7048
sawazishwa	-12.7048
▁machafu	-12.7048
▁kwingine	-12.7048
▁beri	-12.7049
science	-12.7049
thawabish	-12.7049
outube	-12.7049
▁Spider	-12.7049
remove	-12.7049
σ	-12.7049
duplicates	-12.7049
fibonacci	-12.7049
interest	-12.7049
▁Moscow	-12.7049
▁mililita	-12.7049
▁taksonomia	-12.7049
randint	-12.7049
▁Halloween	-12.7049
--+--	-12.7049
ABBA	-12.7049
Global	-12.7049
JIUNG	-12.7049
Nitrojeni	-12.7049
```	-12.7049
bubujika	-12.7049
dhabihu	-12.7049
jeruhiwa	-12.7049
sadikika	-12.7049
shangilia	-12.7049
sisitizwa	-12.7049
worth	-12.7049
±	-12.7049
è	-12.7049
▁25-30	-12.7049
▁29,029)	-12.7049
▁Amsterdam	-12.7049
▁Antaktika	-12.7049
▁Automation	-12.7049
▁BORA	-12.7049
▁Berkeley	-12.7049
▁Brexit	-12.7049
▁Cetacea	-12.7049
▁Cetartiodactyla	-12.7049
▁Cirrus	-12.7049
▁Curry	-12.7049
▁Development	-12.7049
▁Duplex	-12.7049
▁Eisenhower	-12.7049
▁Ekuado	-12.7049
▁Gothic	-12.7049
▁Hogwarts	-12.7049
▁Hospitali	-12.7049
▁HotJar	-12.7049
▁HoverTrike	-12.7049
▁Industries	-12.7049
▁Kategoria	-12.7049
▁Kemikali	-12.7049
▁Kikapu	-12.7049
▁Kiufundi	-12.7049
▁Kiunganishi	-12.7049
▁Krismasi	-12.7049
▁Luxembourg	-12.7049
▁Mizeituni	-12.7049
▁Mpito	-12.7049
▁Mvulana	-12.7049
▁Mzeituni	-12.7049
▁Nagasaki	-12.7049
▁Ngamia	-12.7049
▁Odyssey	-12.7049
▁Orlando	-12.7049
▁Penseli	-12.7049
▁Picchu	-12.7049
▁Pythagorean	-12.7049
▁Roosevelt	-12.7049
▁Runinga	-12.7049
▁Shark	-12.7049
▁Snapchat	-12.7049
▁Tahajia	-12.7049
▁Trojan	-12.7049
▁Tunisia	-12.7049
▁UEFA	-12.7049
▁Uhindu	-12.7049
▁Upungufu	-12.7049
▁Waaminifu	-12.7049
▁Wamasai	-12.7049
▁Wisconsin	-12.7049
▁ZEUS	-12.7049
▁ahueni	-12.7049
▁albamu	-12.7049
▁alphanumeric	-12.7049
▁antivirus	-12.7049
▁background	-12.7049
▁cauliflower	-12.7049
▁cayenne	-12.7049
▁chambray	-12.7049
▁chromosome	-12.7049
▁emoji	-12.7049
▁fantasia	-12.7049
▁favorite	-12.7049
▁genetics	-12.7049
▁hexadecimal	-12.7049
▁inayosomeka	-12.7049
▁isosceles	-12.7049
▁kibayolojia	-12.7049
▁kiimla	-12.7049
▁kimabavu	-12.7049
▁kimaumbile	-12.7049
▁kisirisiri	-12.7049
▁kiviwanda	-12.7049
▁kusitasita	-12.7049
▁kutokuelewana	-12.7049
▁maambukizo	-12.7049
▁malaria	-12.7049
▁marupurupu	-12.7049
▁mazimwi	-12.7049
▁membrane	-12.7049
▁mirija	-12.7049
▁mizuri	-12.7049
▁msikivu	-12.7049
▁mwanahisabati	-12.7049
▁njozi	-12.7049
▁origami	-12.7049
▁parrot	-12.7049
▁projectile	-12.7049
▁scalability	-12.7049
▁sponji	-12.7049
▁sulfuri	-12.7049
▁syntetisk	-12.7049
▁taipureta	-12.7049
▁tamthiliya	-12.7049
▁thrushes	-12.7049
▁ukomavu	-12.7049
▁umwagiliaji	-12.7049
▁unukuzi	-12.7049
▁urejeleaji	-12.7049
▁usikivu	-12.7049
▁vifuasi	-12.7049
▁wanablogu	-12.7049
▁wavulana	-12.7049
▁zilizosokotwa	-12.7049
ravioli	-12.7049
▁AirDrop	-12.7049
▁Bendera	-12.7049
▁Mlango	-12.7049
▁PowerPoint	-12.7049
▁Tyrell	-12.7049
▁UDP	-12.7049
▁drama	-12.7049
▁hidrokloriki	-12.7049
▁kijito	-12.7049
▁matairi	-12.7049
▁microwave	-12.7049
▁mpokeaji	-12.7049
▁uraia	-12.7049
Vipepeo	-12.7049
dondosh	-12.7049
fahamik	-12.7049
▁Beatles	-12.7049
▁Dijiti	-12.7049
▁Opere	-12.7049
▁Parasite	-12.7049
▁bonasi	-12.7049
▁hatuku	-12.7049
▁makongamano	-12.7049
▁mapatano	-12.7049
▁serial	-12.7049
▁torso	-12.7049
rudufu	-12.7049
▁(2018)	-12.7049
▁Baltic	-12.7049
▁kibanda	-12.7049
▁meow	-12.7049
▁tundu	-12.7049
Generative	-12.7049
OBE	-12.7049
histogram	-12.7049
itoshe	-12.7049
ruise	-12.7049
▁Denali	-12.7049
▁Dereva	-12.7049
▁Finya	-12.7049
▁Francis	-12.7049
▁Internet	-12.7049
▁Sinema	-12.7049
▁rukwama	-12.7049
Pixel	-12.7049
phase	-12.7049
▁Yaliyomo	-12.7049
▁magugu	-12.7049
▁Annie	-12.7049
▁Sudan	-12.7049
▁raspberries	-12.7049
▁samahani	-12.7049
▁Snack	-12.7049
▁Ngoma	-12.7049
esimali	-12.7049
▁hautumiki	-12.7049
▁jenereta	-12.7049
▁Macbeth	-12.7049
▁limau	-12.7049
▁llama	-12.7049
▁utayari	-12.7049
pinduka	-12.7049
▁Emmanuel	-12.7049
▁unalofurahia	-12.7049
▁Saikolojia	-12.7049
russia	-12.7049
▁Frid	-12.7049
▁Kemia	-12.7049
▁cider	-12.7049
▁gazeti	-12.7049
Future	-12.7049
▁Kimaadili	-12.7049
▁tortilla	-12.7049
▁ransomware	-12.7049
▁Kihistoria	-12.7049
▁Korea	-12.7049
▁gumba	-12.7049
icada	-12.7049
▁Kirai	-12.7049
▁Wetu	-12.7049
▁kimanda	-12.7049
well	-12.7049
▁shayiri	-12.7049
▁shrimp	-12.7049
▁Falls	-12.7049
fahrenheit	-12.7049
▁Alasiri	-12.7049
▁Dondoo	-12.7049
▁njiwa	-12.7049
llman	-12.7049
▁mug	-12.7049
▁matusi	-12.7049
▁uvumi	-12.7049
▁madampo	-12.7049
▁Madini	-12.7049
▁vitafun	-12.7049
▁magofu	-12.7049
▁unaokufaa	-12.7049
▁Jefferson	-12.7049
GDPR	-12.7049
▁kadibodi	-12.7049
▁1994	-12.7049
▁Gorilla	-12.7049
,7,9	-12.7049
ight	-12.7049
{20	-12.7049
▁chui	-12.7049
uctivi	-12.7049
▁viboko	-12.7049
▁JED	-12.7049
▁alfa	-12.7049
▁kibiolojia	-12.7049
▁kitakwimu	-12.7049
▁limezua	-12.7049
▁kiuno	-12.7049
ilizimika	-12.705
okozi	-12.705
▁omelet	-12.705
board	-12.705
▁seagull	-12.705
▁1942	-12.705
audio	-12.705
▁Wadudu	-12.705
▁Play	-12.705
▁sofa	-12.705
▁Drama	-12.705
▁buli	-12.705
▁ngono	-12.705
▁makaburi	-12.705
Nondo	-12.705
▁$3.00	-12.705
▁Bandari	-12.705
▁dashibodi	-12.705
▁XML	-12.705
ugh	-12.705
hold	-12.705
▁1.5	-12.705
▁magazeti	-12.705
▁magnesiamu	-12.705
▁meadow	-12.705
▁meiosis	-12.705
▁mihadhara	-12.705
▁mkandarasi	-12.705
▁Vichekesho	-12.705
▁Petro	-12.705
▁mshairi	-12.705
ipendayo	-12.705
▁Homo	-12.705
▁teksi	-12.705
incre	-12.705
▁Elite	-12.705
icott	-12.705
▁Fadhil	-12.705
▁Katherine	-12.705
sweet	-12.705
▁2014	-12.705
▁dumplings	-12.705
▁Athens	-12.705
▁Muigizaji	-12.705
username	-12.705
▁salio	-12.705
▁uimara	-12.705
▁zitakazo	-12.705
▁kuichakata	-12.705
▁transi	-12.705
▁chickpeas	-12.705
▁Kisu	-12.705
▁nahodha	-12.705
▁uharaka	-12.705
search	-12.705
▁vimelea	-12.705
▁mswa	-12.705
▁mitego	-12.705
hirizi	-12.705
▁mwenzi	-12.7051
▁Mtindi	-12.7051
▁Moshi	-12.7051
▁mwathirika	-12.7051
▁vijia	-12.7051
Type	-12.7051
▁Ponzi	-12.7051
▁kongamano	-12.7051
▁Back	-12.7051
Jisajili	-12.7051
▁Higg	-12.7051
▁minene	-12.7051
▁mikanda	-12.7051
▁Sarafu	-12.7051
▁kutapika	-12.7051
real	-12.7051
▁Curie	-12.7051
▁minyoo	-12.7051
▁Reptile	-12.7051
▁uliotambuliwa	-12.7051
▁ndoo	-12.7051
▁ziive	-12.7051
▁Hakimu	-12.7051
▁gamba	-12.7051
chett	-12.7051
▁maikrofoni	-12.7051
▁mascot	-12.7051
▁mpotevu	-12.7051
▁mwekundu	-12.7051
▁chote	-12.7051
▁yaliyodhibitiwa	-12.7051
▁zimetengan	-12.7051
▁iliyoambatishwa	-12.7051
▁iliyogatuliwa	-12.7051
▁perceptron	-12.7051
▁alikasirika	-12.7051
rgb	-12.7051
▁crispy	-12.7051
Brew	-12.7051
▁Raj	-12.7052
▁utungaji	-12.7052
▁kuokota	-12.7052
▁dro	-12.7052
▁vioo	-12.7052
item	-12.7052
▁Mashabiki	-12.7052
▁Waamerika	-12.7052
▁anayejitegemea	-12.7052
▁60%	-12.7052
vg	-12.7052
▁wakicheka	-12.7052
▁Upya	-12.7052
▁kujifurahisha	-12.7052
▁1-5	-12.7052
▁pakubwa	-12.7052
▁visivyofaa	-12.7052
▁kubembelezwa	-12.7052
▁mkeka	-12.7052
▁Super	-12.7052
space	-12.7052
▁tufurahie	-12.7052
▁iliyosawazishwa	-12.7052
▁mikali	-12.7052
RNN	-12.7052
▁ufisadi	-12.7052
▁uchochoro	-12.7053
▁iliyorekebishwa	-12.7053
▁kiada	-12.7053
laiti	-12.7053
▁kikabila	-12.7053
▁linazama	-12.7053
▁TED	-12.7053
▁aliyedhamiria	-12.7053
omething	-12.7053
▁East	-12.7053
ijiji	-12.7053
station	-12.7053
Watson	-12.7053
▁marathon	-12.7053
▁yaliyojaa	-12.7053
▁unaolengwa	-12.7053
▁Emma	-12.7053
▁amelala	-12.7053
alozi	-12.7054
▁15%	-12.7054
rehani	-12.7054
▁uliobinafsishwa	-12.7054
▁uzingatiaji	-12.7054
vikwa	-12.7054
▁tuliyo	-12.7054
▁nauli	-12.7054
▁Wahindi	-12.7054
▁$5000	-12.7054
▁-------	-12.7054
▁waliohudhuria	-12.7054
▁vinayeyuka	-12.7054
▁iliyojumuishwa	-12.7054
▁muuguzi	-12.7054
▁uchuj	-12.7054
▁zilizosindikwa	-12.7054
▁Nyani	-12.7055
▁67	-12.7055
Inayofuata	-12.7055
inywaji	-12.7055
▁Indo	-12.7055
▁havija	-12.7055
▁Machozi	-12.7055
▁ujifunz	-12.7055
▁SSL	-12.7055
▁1975	-12.7055
trans	-12.7055
▁uthubutu	-12.7055
▁usiyemjua	-12.7055
▁unaopinda	-12.7055
▁zinazoingiliana	-12.7055
▁maovu	-12.7055
▁Mapenzi	-12.7055
rejeleo	-12.7055
▁zinazokosekana	-12.7055
▁toy	-12.7055
▁tunayofanya	-12.7055
Kamwe	-12.7056
▁1775	-12.7056
▁kuihusu	-12.7056
▁Wakili	-12.7056
▁Mwekundu	-12.7056
▁pepo	-12.7056
▁mtahiniwa	-12.7056
WHO	-12.7056
▁lote	-12.7056
▁vijisehemu	-12.7056
▁Miller	-12.7056
▁tuanze	-12.7056
▁inayojirudia	-12.7056
▁yaliathiri	-12.7057
▁del	-12.7057
▁0.6	-12.7057
▁ndimu	-12.7057
▁Limao	-12.7057
▁kiwanja	-12.7057
▁usaliti	-12.7057
▁bafu	-12.7057
▁inavyotumika	-12.7057
stadi	-12.7057
▁kukusudia	-12.7057
▁11,000	-12.7058
▁sare	-12.7058
▁Mahusiano	-12.7058
▁kiume	-12.7058
▁kutosheka	-12.7058
▁umefanywa	-12.7058
▁Kea	-12.7058
▁Alto	-12.7058
▁isiyoaminika	-12.7058
▁aliyejitolea	-12.7058
images	-12.7058
entimita	-12.7058
▁kuisoma	-12.7058
nTabia	-12.7059
▁iliyoachwa	-12.7059
vitalu	-12.7059
nTembo	-12.7059
PPC	-12.7059
▁ziweze	-12.7059
otte	-12.7059
nMahali	-12.7059
▁inayoeleweka	-12.7059
▁haijulikani	-12.7059
▁uliofunzwa	-12.7059
▁Fara	-12.7059
▁kuoza	-12.706
▁Uhasibu	-12.706
▁bapa	-12.706
▁wanaocheza	-12.706
▁modali	-12.706
▁2022	-12.706
ttle	-12.706
▁(8,	-12.706
▁uhamisho	-12.706
▁Bird	-12.7061
▁wakishiriki	-12.7061
▁unaometa	-12.7061
▁404	-12.7061
▁kuthubutu	-12.7061
▁mfadhili	-12.7061
▁posta	-12.7061
nguko	-12.7061
▁ameva	-12.7061
eleaji	-12.7062
info	-12.7062
▁imepangwa	-12.7062
▁wanaotarajiwa	-12.7062
▁maapulo	-12.7062
▁uanze	-12.7062
▁unaohusika	-12.7062
▁desserts	-12.7062
▁yameongezeka	-12.7062
suit	-12.7062
▁mtupu	-12.7062
▁anagramu	-12.7062
▁Chora	-12.7063
▁yanacheza	-12.7063
▁unaopenda	-12.7063
▁RF	-12.7063
arufi	-12.7063
nazotumia	-12.7064
▁Ames	-12.7064
▁Nungu	-12.7064
Arrays	-12.7064
chonga	-12.7064
▁kuiondoa	-12.7064
gazi	-12.7064
▁zimejaa	-12.7064
▁mfereji	-12.7065
mudu	-12.7065
▁kuzu	-12.7065
▁Boy	-12.7066
3-4	-12.7066
▁Sikujua	-12.7066
▁kuchambuliwa	-12.7066
▁Upana	-12.7066
▁kupachik	-12.7066
▁imetolewa	-12.7066
tudio	-12.7066
▁unapoenda	-12.7066
▁huchaguliwa	-12.7066
Money	-12.7066
▁miit	-12.7066
▁unavyohisi	-12.7067
▁semina	-12.7067
ndoano	-12.7067
place	-12.7067
▁vido	-12.7067
▁kinachohusiana	-12.7067
▁ukipita	-12.7067
▁ikipita	-12.7067
▁anayepiga	-12.7068
▁dawati	-12.7068
▁chia	-12.7068
▁600)	-12.7068
▁yanahitajika	-12.7068
Okoa	-12.7069
▁kide	-12.7069
Imesifiwa	-12.7069
▁ulitokea	-12.7069
▁uzima	-12.7069
PO	-12.7069
post	-12.707
▁aliyepotea	-12.707
▁vipinga	-12.707
ucheza	-12.707
eric	-12.707
▁anayewajibika	-12.707
uziweke	-12.707
▁kurithi	-12.7071
▁1961	-12.7071
▁kukoma	-12.7071
▁unaopita	-12.7072
▁wanakimbia	-12.7072
Trans	-12.7072
▁38,	-12.7072
▁viunga	-12.7072
▁Davis	-12.7072
▁akitoka	-12.7073
▁kudhuru	-12.7073
▁utunzi	-12.7073
tatuzi	-12.7073
yokusanywa	-12.7073
▁($1	-12.7073
▁creamy	-12.7073
sela	-12.7074
▁anayetegemewa	-12.7074
▁Bata	-12.7074
jangili	-12.7075
wini	-12.7075
netiki	-12.7075
some	-12.7076
peperushwa	-12.7076
▁Ian	-12.7077
▁unaokuja	-12.7077
pie	-12.7077
▁tulicho	-12.7077
01	-12.7078
▁unalingana	-12.7078
▁mimba	-12.7078
sent	-12.7078
DGC	-12.7079
▁kumbi	-12.7079
▁lililotumika	-12.7079
▁yanayotumika	-12.7079
reki	-12.7079
▁kipo	-12.7079
▁kusimamishwa	-12.7079
▁itapanda	-12.708
▁kutawanyika	-12.708
▁Violet	-12.708
▁inayotoka	-12.7081
▁mdo	-12.7081
▁kufikirika	-12.7081
▁800)	-12.7081
Waridi	-12.7082
comb	-12.7082
▁amepote	-12.7082
▁uteng	-12.7083
▁kuimarishwa	-12.7083
▁umesoma	-12.7083
itambua	-12.7083
▁likiangaz	-12.7084
▁unafanywa	-12.7085
▁lililopewa	-12.7085
▁hatarishi	-12.7086
ock	-12.7086
▁kupinda	-12.7086
▁Kuimba	-12.7086
▁panapo	-12.7087
umba	-12.7088
llin	-12.7088
▁kuzitumia	-12.7089
ugawany	-12.709
▁kinachoonyesha	-12.709
bur	-12.709
▁vinavyojulikana	-12.7091
▁kiashiria	-12.7092
inayoishi	-12.7092
patter	-12.7093
▁Oliv	-12.7094
▁tulipo	-12.7095
▁uliotumika	-12.7095
▁kukumbatiana	-12.7096
edu	-12.7096
maliz	-12.7097
▁alistaajabi	-12.7097
▁huenea	-12.7098
▁kuwanufaisha	-12.7098
▁unatumiwa	-12.7098
PC	-12.7099
▁mako	-12.7099
▁kuipata	-12.71
umuisha	-12.7101
▁Nilipoku	-12.7101
OH	-12.7101
constr	-12.7101
▁Swan	-12.7102
▁Mengi	-12.7102
▁kushughulik	-12.7102
Cas	-12.7102
▁47	-12.7103
kilichohifadhiwa	-12.7103
▁wanaojulikana	-12.7104
▁anapokabili	-12.7106
▁State	-12.7106
▁itaonyesha	-12.7106
▁ungefanya	-12.7106
akifish	-12.7107
▁kupigi	-12.7107
▁anayejaribu	-12.7108
▁Lion	-12.7108
▁110	-12.7109
▁195	-12.7109
pin	-12.7109
cout	-12.711
▁100%	-12.711
gereza	-12.7113
CDC	-12.7113
▁su	-12.7114
▁Bing	-12.7116
▁DC	-12.7116
▁Misa	-12.7116
▁ameketi	-12.7117
▁kumuon	-12.7118
dos	-12.7118
ids	-12.7119
▁Ija	-12.712
tikisika	-12.712
▁mtoaji	-12.7123
▁});	-12.7126
▁ajenda	-12.7126
hover	-12.7126
▁umetumia	-12.7128
inals	-12.7129
nKitu	-12.7129
▁zinahusisha	-12.7129
zoni	-12.7131
▁wachuuzi	-12.7132
nAnga	-12.7133
▁hupanda	-12.7135
nastahili	-12.7136
▁kuuzwa	-12.7137
▁usiowajua	-12.7139
▁wavamizi	-12.7139
**2	-12.7142
Nimepata	-12.7142
+3)	-12.7142
▁kutishi	-12.7143
astronomia	-12.7143
▁mwani	-12.7143
▁kakao	-12.7144
hida	-12.7145
▁hukupa	-12.7145
▁anatazama	-12.7145
▁kiasili	-12.7146
▁fore	-12.7146
▁hulia	-12.7146
▁400)	-12.7146
key	-12.7147
endapo	-12.7147
ape	-12.7149
▁Kuchagua	-12.715
▁mtaa	-12.7151
▁Mkopo	-12.7151
▁Alipanga	-12.7152
▁watendaji	-12.7152
▁kuhaririwa	-12.7152
HCl	-12.7153
icing	-12.7153
▁fikira	-12.7154
▁Soft	-12.7154
▁Pasta	-12.7154
▁kukubaliwa	-12.7154
▁Goldfinch	-12.7154
▁Scotland	-12.7154
▁Gazeti	-12.7154
▁Jihadhari	-12.7154
▁processor	-12.7154
▁wembe	-12.7154
▁Upweke	-12.7154
▁Embe	-12.7154
▁dagaa	-12.7155
▁miavuli	-12.7155
▁oevu	-12.7155
▁Miguu	-12.7155
▁seen	-12.7155
▁mystring	-12.7155
▁curve	-12.7155
▁Power	-12.7155
koni	-12.7155
▁suruali	-12.7155
imetumika	-12.7156
▁Radi	-12.7156
▁ukawa	-12.7156
▁Mwanzoni	-12.7156
▁Hasira	-12.7159
▁biom	-12.716
▁Mgawanyiko	-12.7161
▁kuegemea	-12.7164
▁Air	-12.7164
▁kujiboresha	-12.7165
Ulichelewa	-12.7167
ibishaji	-12.7168
▁Tri	-12.7169
▁iliyofun	-12.717
▁tri	-12.717
bainishwa	-12.7172
rich	-12.7172
▁Net	-12.7172
say	-12.7172
uidhinish	-12.7174
▁kujib	-12.7176
sar	-12.7177
▁hubaki	-12.718
▁kinaendelea	-12.7182
▁mache	-12.7183
▁Stor	-12.7184
▁Maine	-12.7184
▁kupendwa	-12.7184
nyang	-12.7184
omboo	-12.7185
nathibitisha	-12.7187
uiainish	-12.7193
kumbatiana	-12.7193
▁Cardi	-12.7194
jani	-12.7195
▁Kul	-12.7196
Nimemaliza	-12.7199
unde	-12.72
nyim	-12.72
nTeknolojia	-12.72
▁even	-12.7202
▁125	-12.7206
▁Bell	-12.7206
▁atafuat	-12.7208
bonyez	-12.721
▁0.3	-12.721
▁kuajiriwa	-12.7212
akiota	-12.7214
▁kuwavutia	-12.7216
▁Lengwa	-12.7216
▁Pori	-12.7217
wanafalsafa	-12.7217
▁Duma	-12.7219
ware	-12.7221
59.	-12.7224
▁kukuta	-12.7224
mpu	-12.7226
▁Vifung	-12.7226
▁1000)	-12.723
▁alishangaa	-12.7231
▁niangalie	-12.7237
Pop	-12.7239
▁hupo	-12.7239
▁29.	-12.724
▁hutekelez	-12.7243
▁alivyokuwa	-12.7243
▁washukiwa	-12.7246
▁Sri	-12.7248
las	-12.725
▁changa	-12.7253
napple	-12.7254
▁kidi	-12.7254
▁kuk	-12.7257
▁unasaidia	-12.7261
stat	-12.7262
ofia	-12.7262
nakaribia	-12.7266
▁Clar	-12.727
▁aliweka	-12.7278
▁Kinga	-12.7283
omaji	-12.7285
▁Ke	-12.7286
▁Mika	-12.729
▁Ninafurahi	-12.729
▁kutarajiwa	-12.729
▁1-	-12.7291
▁Pol	-12.7295
ido	-12.7297
53	-12.7298
reg	-12.7302
nsulation	-12.7305
Toka	-12.7306
▁nipe	-12.7312
▁nijulishe	-12.7312
math	-12.7313
▁akaji	-12.7319
▁________.	-12.7322
▁Wil	-12.7323
▁177	-12.7323
chars	-12.7323
▁Fol	-12.7329
gar	-12.7329
▁ununu	-12.7332
(15	-12.7335
IC	-12.7336
▁Bra	-12.7339
▁nyuroni	-12.734
▁Falsafa	-12.734
▁Ukadiriaji	-12.734
▁`	-12.734
▁Object	-12.734
▁umetu	-12.7343
▁Matrix	-12.7344
llan	-12.7345
▁base	-12.7346
▁vamizi	-12.7347
▁chakavu	-12.7352
quation	-12.7353
iburi	-12.7355
▁linakadiri	-12.7356
rover	-12.7356
▁inabaki	-12.7357
▁vali	-12.7358
utum	-12.736
;2	-12.7367
▁ZA	-12.7367
aambukizi	-12.7374
chunguzi	-12.7377
OUP	-12.738
▁ataomb	-12.7383
5+	-12.7384
pictu	-12.7386
▁kamilifu	-12.7388
ifungue	-12.739
iliyobinafsishwa	-12.7392
▁nimeku	-12.7395
▁walaji	-12.7397
liwe	-12.7399
chosha	-12.7404
bisha	-12.7407
▁Drive	-12.7412
kumba	-12.7417
▁Tunato	-12.7422
▁Vut	-12.7423
▁Brand	-12.7423
lyn	-12.7423
▁Atomi	-12.7427
sc	-12.7427
ague	-12.7431
▁vifun	-12.7432
Life	-12.7433
▁imeku	-12.7438
650	-12.7444
ewe	-12.7459
ris	-12.7463
▁kute	-12.7466
HO	-12.7471
▁Mat	-12.7478
namwita	-12.7483
illie	-12.7489
waji	-12.749
▁Lin	-12.7499
▁Mc	-12.75
lice	-12.7501
▁Mwali	-12.7507
KE	-12.7508
▁98	-12.7509
-1,	-12.7519
old	-12.7521
pendana	-12.7524
-7	-12.7526
▁ste	-12.7527
kizunguka	-12.7531
▁kinu	-12.7531
▁first	-12.7534
▁leftIndex	-12.7534
▁rightIndex	-12.7534
▁kitten	-12.7534
▁kilichopak	-12.7535
▁mawi	-12.7536
▁hujambo	-12.7536
sor	-12.7545
▁LI	-12.7552
;4	-12.7554
wepo	-12.7555
▁kiganja	-12.7559
arif	-12.7562
▁MD	-12.7567
lizuka	-12.7568
▁85	-12.7571
if	-12.7573
▁kusitish	-12.7573
▁Mont	-12.7575
sawa	-12.7582
▁Night	-12.7583
dil	-12.7583
▁20)	-12.7585
▁Toy	-12.7587
pia	-12.7588
niweke	-12.7588
▁cat	-12.7595
▁akakubali	-12.7599
▁zinazopa	-12.7604
▁kuitwa	-12.761
▁Sc	-12.7613
▁waund	-12.7616
▁wakitazama	-12.7616
kikimbia	-12.7617
▁$4.	-12.762
eti	-12.762
▁havina	-12.7626
olate	-12.7628
Gu	-12.7635
AR	-12.7637
▁be	-12.764
▁kujulikana	-12.7642
▁Umekuwa	-12.7642
ard	-12.7643
▁Lina	-12.7645
aweze	-12.7649
ongest	-12.765
[1,2,3,4,5]	-12.7652
anywe	-12.7653
mbwe	-12.7661
▁$300	-12.7661
mchukia	-12.7668
▁Wanao	-12.7682
ian	-12.7686
kiti	-12.7687
;5	-12.769
Bron	-12.7692
▁bar	-12.7696
▁Pum	-12.7697
nakiliwa	-12.7699
how	-12.7699
▁niambie	-12.7706
Comp	-12.771
▁mhoji	-12.7711
Use	-12.7713
▁75,	-12.7713
▁Col	-12.7716
mebadilika	-12.7717
metulia	-12.7721
anarudi	-12.7722
ulete	-12.7725
kra	-12.7727
lu	-12.7727
jiunga	-12.7735
55.	-12.7739
neti	-12.775
rming	-12.7752
lizidi	-12.7753
=1	-12.7758
30.	-12.7759
▁Geu	-12.7767
763	-12.7768
▁(100	-12.7775
gel	-12.7776
miza	-12.7778
078	-12.7792
Kulinganisha	-12.7794
▁Donn	-12.7797
limpa	-12.7808
metambuliwa	-12.781
▁____.	-12.7812
▁iliyozunguk	-12.7815
2.25	-12.7821
▁6]	-12.7823
fla	-12.7824
▁akaend	-12.7829
▁Wazi	-12.7838
iunge	-12.7841
%.	-12.7842
shindana	-12.7845
▁inayomiliki	-12.7848
awia	-12.7849
start	-12.785
▁Aliju	-12.7852
iainish	-12.7858
▁Let	-12.7864
-9	-12.7865
OS	-12.7868
camp	-12.7872
piki	-12.7877
▁65.	-12.788
▁Tunatuma	-12.7884
RA	-12.7889
ind	-12.7891
▁utung	-12.7896
▁123	-12.7907
▁haup	-12.7908
mid	-12.7909
mfaa	-12.7909
-3)	-12.7911
▁run	-12.7917
▁Fur	-12.7918
orodheshwa	-12.7922
▁hauku	-12.7928
akionge	-12.7928
6%	-12.7929
Nchi	-12.7931
ngishwa	-12.7941
▁huchuj	-12.7942
▁'	-12.7946
Kuna	-12.7948
ista	-12.7954
tambulisho	-12.7954
meshindwa	-12.7958
68	-12.7963
▁Mars	-12.7971
▁Bangl	-12.7979
▁32,	-12.7979
▁zinazoongoz	-12.7979
▁Da	-12.798
▁ninayo	-12.7981
▁Anatembe	-12.7983
osine	-12.7983
▁Zinazo	-12.7987
ric	-12.8005
▁Mit	-12.8015
▁kujaa	-12.802
▁zinazosimami	-12.8029
▁akam	-12.8029
▁ulim	-12.803
angili	-12.8035
8,	-12.8042
▁Saru	-12.8044
narejelea	-12.8047
amechanganyikiwa	-12.8061
▁Ri	-12.8078
2%	-12.8087
▁yameathiri	-12.8087
watch	-12.8088
liyochomwa	-12.8102
ngehitaji	-12.8106
▁yameku	-12.8109
kuzi	-12.811
katwakatwa	-12.8111
toto	-12.8121
▁col	-12.8126
ipoe	-12.8128
Sawa	-12.8132
▁inayohifadhi	-12.8133
mfahamu	-12.8136
kapiga	-12.8137
:30	-12.815
▁55	-12.8158
▁ak	-12.8161
aler	-12.8166
wakaribisha	-12.8171
▁mno	-12.8172
▁$2,	-12.8173
▁kipim	-12.8175
Wacha	-12.8187
ower	-12.8196
ujitambua	-12.82
jikunja	-12.8203
vunjwa	-12.8211
▁mshirik	-12.8211
ance	-12.8216
▁unazingati	-12.8223
▁Wame	-12.8234
▁Dir	-12.8235
pic	-12.8235
gra	-12.8236
▁60.	-12.8241
ila	-12.8243
▁Kusaidi	-12.8252
metumika	-12.8255
ther	-12.8256
▁unasem	-12.8257
▁uliku	-12.826
kupeleka	-12.826
▁Imeja	-12.827
▁huvuti	-12.8274
lichelewa	-12.8281
uondoa	-12.8287
▁kureje	-12.8289
ose	-12.8294
-7,	-12.8296
66	-12.8298
erate	-12.8302
puuzwa	-12.8314
7.5	-12.832
indi	-12.8327
imeundwa	-12.8333
mtambua	-12.8337
1&	-12.8337
▁Ste	-12.8346
ogo	-12.8362
▁Alishanga	-12.8362
icheko	-12.8379
▁tempo	-12.838
owinda	-12.8383
sogeza	-12.8384
safishwa	-12.8398
abu	-12.8402
▁30.	-12.8418
gano	-12.8421
▁yanayofany	-12.8421
▁ilichukua	-12.8426
▁iliyopa	-12.8427
3,000	-12.843
kiongezeka	-12.8431
rafu	-12.8435
ishikilia	-12.8438
__&	-12.8442
shambulia	-12.8442
ving	-12.8447
▁Buni	-12.8447
akitabasamu	-12.8455
26	-12.8458
▁Ped	-12.8461
▁kunyunyiz	-12.8462
shu	-12.8469
▁inavyoonyesh	-12.8473
jenge	-12.8486
ism	-12.849
amefanya	-12.85
ihifadhi	-12.8503
▁$1.	-12.8513
tawi	-12.8519
shirika	-12.8531
▁Chang	-12.8533
▁curr	-12.8537
najivunia	-12.8538
▁kizim	-12.854
kwama	-12.8544
▁Imb	-12.8555
▁kushuhudi	-12.8565
umiza	-12.8572
tathminiwa	-12.858
samehe	-12.8584
nNata	-12.8594
75.	-12.8605
▁Pamb	-12.8606
rekebishwa	-12.8611
uweka	-12.8611
▁mkusany	-12.8616
1))	-12.8616
▁Lad	-12.8618
sugua	-12.8619
▁mwali	-12.8622
jitenga	-12.8637
ria	-12.8642
fungue	-12.8643
▁Marc	-12.8662
ell	-12.8668
▁Nilipig	-12.8669
▁alili	-12.8669
▁Char	-12.8671
,200	-12.8678
naishi	-12.8692
Fun	-12.8693
jiamini	-12.8699
mpata	-12.8702
▁unaye	-12.8703
adhimishwa	-12.8704
▁Bir	-12.8705
▁unaosaidi	-12.8706
changamsh	-12.8707
4:	-12.8713
jawa	-12.872
sub	-12.8721
car	-12.8721
eline	-12.8723
gal	-12.8725
▁uangali	-12.8735
kor	-12.874
watambulisha	-12.8745
175	-12.8746
meenda	-12.8746
▁alijito	-12.8751
afuatayo	-12.8753
sb	-12.8757
▁Kutekelez	-12.8762
▁Jadi	-12.8763
lindwa	-12.8774
▁alipoke	-12.8776
pogonga	-12.8785
angeweza	-12.8788
▁mapig	-12.8793
▁kiakrosti	-12.8793
kombo	-12.8794
mbili	-12.8795
iwezekane	-12.8795
oelekezwa	-12.8798
choma	-12.8799
▁Alim	-12.8799
uo	-12.8801
note	-12.8805
MP	-12.8805
▁Pac	-12.8805
onti	-12.8806
OCT	-12.8823
▁en	-12.883
site	-12.8831
79	-12.8831
kisogea	-12.8835
▁Eri	-12.884
▁Nyingi	-12.8851
aswa	-12.8851
▁Bas	-12.8877
mwezesha	-12.888
ija	-12.8883
futwa	-12.889
▁Mata	-12.8894
enti	-12.8895
▁Alipigan	-12.8905
ral	-12.892
imu	-12.8924
lojia	-12.8925
napoanza	-12.8926
unataka	-12.8927
sign	-12.8936
▁Dra	-12.8943
▁nitakuwa	-12.8944
safirishwa	-12.8945
▁walikubali	-12.895
▁show	-12.895
jitos	-12.8955
▁vye	-12.8959
fupishwa	-12.896
anaenda	-12.8962
▁$20	-12.8965
▁watahitaji	-12.8965
▁Kik	-12.8969
hata	-12.8971
▁yatatu	-12.8976
ochi	-12.8978
imeboreshwa	-12.8984
panuka	-12.8995
▁ilitu	-12.8996
tosa	-12.9004
▁anacho	-12.901
▁Jipa	-12.9012
natumia	-12.9014
▁1990.	-12.9014
Ang	-12.902
)(	-12.9025
apamban	-12.9026
▁akatok	-12.9033
net	-12.9034
▁19]	-12.9041
ered	-12.9042
▁unaowak	-12.9055
pokaribia	-12.9057
sus	-12.9068
▁Alisom	-12.9068
ign	-12.9069
=2	-12.9074
▁Raf	-12.908
▁33	-12.908
stic	-12.9083
zidishi	-12.9084
▁Lig	-12.9098
aft	-12.9098
▁Maumb	-12.9104
ega	-12.9109
nJ	-12.9113
uhuri	-12.9124
rit	-12.9132
GC	-12.9135
pangishi	-12.9138
▁az	-12.9154
bano	-12.9161
▁ph	-12.9164
kusukuma	-12.9166
vo	-12.9174
▁yaweze	-12.9176
Ente	-12.9176
▁ungewez	-12.9184
▁unayem	-12.9193
other	-12.9194
,000.	-12.9198
gombana	-12.9216
meweka	-12.9226
34	-12.9231
nik	-12.9233
▁sh	-12.9236
sikitisha	-12.924
tategemea	-12.9242
ction	-12.9248
Mi	-12.9255
ift	-12.926
mbia	-12.9262
ongea	-12.9262
upunguza	-12.9285
▁Real	-12.9301
OT	-12.931
ndani	-12.9312
naathiri	-12.9314
rade	-12.9316
▁inaripoti	-12.9319
jini	-12.932
nasoma	-12.9323
56	-12.9323
hasi	-12.9323
ud	-12.9328
▁Lak	-12.9329
▁kuziwek	-12.933
namba	-12.9337
natumika	-12.9337
badilishana	-12.9341
mm	-12.9351
▁Mor	-12.9351
den	-12.9351
alimpa	-12.9352
ajengo	-12.9353
napochomwa	-12.9354
▁280	-12.936
ease	-12.9361
67	-12.9363
watazama	-12.9365
7-	-12.9366
alitoka	-12.9372
Make	-12.9372
tajwa	-12.9394
▁Wate	-12.9395
▁Linalo	-12.9402
jithamini	-12.9403
eleka	-12.9407
63	-12.9414
In	-12.942
▁uchuku	-12.9421
▁12.5	-12.9428
gan	-12.9434
beb	-12.945
kiliwa	-12.9455
idae	-12.9457
▁Dr	-12.946
jadiliwa	-12.9467
▁1800	-12.947
ndika	-12.9478
ingie	-12.9478
▁tur	-12.9481
harakati	-12.9488
sonan	-12.949
reme	-12.9497
Nita	-12.9508
umwagika	-12.9511
ech	-12.9521
chuja	-12.9522
▁Anapo	-12.9523
▁unafuat	-12.9533
▁8:	-12.9538
apy	-12.9539
▁ulianzish	-12.954
▁alimw	-12.9542
▁Ulio	-12.9556
▁CaC	-12.9559
PEND	-12.9569
fyonza	-12.9572
▁Mapi	-12.9575
▁haukuwez	-12.9578
.:7	-12.958
rrison	-12.9587
Code	-12.9587
athari	-12.9593
2.7	-12.9593
changanuliw	-12.9596
▁1.0	-12.9601
sikio	-12.9603
21,	-12.9605
Dai	-12.9609
ist	-12.9613
▁Pr	-12.9616
beta	-12.9617
▁Dw	-12.9619
▁Poli	-12.962
akupenda	-12.9622
▁linalotumi	-12.9634
lifurahia	-12.964
▁Gr	-12.9644
20,000	-12.9646
vunji	-12.9647
▁hutenganish	-12.9647
▁Mala	-12.9649
LI	-12.9656
No	-12.9657
73	-12.966
rey	-12.967
stri	-12.9671
▁Dhi	-12.9672
200	-12.9681
▁imeund	-12.9682
▁Miongo	-12.9684
▁lilitoka	-12.9692
▁wameto	-12.9694
heri	-12.9698
▁inayoku	-12.9699
bunifu	-12.97
shughuliki	-12.9701
▁kustarehe	-12.9706
ege	-12.9708
mehusish	-12.9709
quantity	-12.971
Titanic	-12.971
charArray	-12.971
mch	-12.971
Kipenyo	-12.971
Green	-12.9715
nf	-12.9717
0000	-12.9719
akati	-12.972
1101	-12.9728
▁53	-12.9729
Hatu	-12.9737
kitten	-12.9744
hujambo	-12.9744
leftIndex	-12.9744
rightIndex	-12.9744
first	-12.9744
ative	-12.9745
Upepo	-12.9748
63.	-12.975
fuati	-12.9761
Orodha	-12.9761
staajabi	-12.9761
Hadithi	-12.9763
Nakala	-12.9764
rubani	-12.9764
▁Cla	-12.9765
▁kutoridhi	-12.9767
Car	-12.9767
sted	-12.9769
▁HW	-12.977
Haya	-12.9772
vis	-12.9772
tufaha	-12.9773
Healthy	-12.9774
Chur	-12.9774
Wanyamapori	-12.9774
CPU	-12.9774
Sitiari	-12.9775
DNS	-12.9775
twiga	-12.9775
Badili	-12.9775
29.	-12.9776
badala	-12.9778
AM	-12.9778
7%	-12.9781
rafiki	-12.9782
Kesho	-12.9783
Masharti	-12.9783
Umbali	-12.9783
Hali	-12.9783
root	-12.9784
sqrt	-12.9784
▁100:	-12.9785
logy	-12.9787
Celsius	-12.9789
size	-12.979
napoingia	-12.979
tofauti	-12.9792
Burudani	-12.9793
Taswira	-12.9793
Histogram	-12.9793
Salamu	-12.9794
Oksijeni	-12.9797
Kaanga	-12.9797
NULL	-12.9797
magharibi	-12.9797
Uvumbuzi	-12.9798
▁huunganish	-12.9799
lishinda	-12.98
Faragha	-12.9802
▁euro	-12.9802
Kahawa	-12.9804
ataki	-12.9805
penseli	-12.9806
▁Bor	-12.9807
ucks	-12.9808
Aprili	-12.9808
Profesa	-12.9808
Mpira	-12.9809
Majani	-12.9809
Muziki	-12.9809
koroga	-12.981
Mkahawa	-12.9811
Umri	-12.9811
sentensi	-12.9812
Chanya	-12.9813
demokrasia	-12.9813
mbweha	-12.9814
maridadi	-12.9814
hodari	-12.9814
dirisha	-12.9814
oid	-12.9815
Mawazo	-12.9815
ngurumo	-12.9815
SQL	-12.9815
Michezo	-12.9816
Wateja	-12.9816
Thamani	-12.9816
Shairi	-12.9816
London	-12.9817
Wanafunzi	-12.9818
ikolojia	-12.9818
Joto	-12.9818
Maagizo	-12.9818
hasira	-12.9818
kivumishi	-12.9818
India	-12.9819
%2	-12.9819
kopo	-12.9819
mfano	-12.9819
niambie	-12.9819
nyingi	-12.982
tembo	-12.982
starehe	-12.982
China	-12.982
Jane	-12.9821
Uongo	-12.9821
jedwali	-12.9821
cream	-12.9821
Max	-12.9821
Kadiri	-12.9821
return	-12.9821
Ndiyo	-12.9822
Ulaya	-12.9822
boreshwa	-12.9822
faragha	-12.9822
Nishati	-12.9822
Romeo	-12.9822
chagu	-12.9823
hatua	-12.9823
III	-12.9823
Ufaransa	-12.9823
mafanikio	-12.9823
uhuru	-12.9823
upendo	-12.9824
▁mme	-12.9824
Mwalimu	-12.9824
filamu	-12.9824
mwisho	-12.9824
mteja	-12.9824
upepo	-12.9824
Matokeo	-12.9824
kukimbia	-12.9824
ndege	-12.9824
nzuri	-12.9824
bahari	-12.9824
wingu	-12.9825
kisasa	-12.9825
mboga	-12.9825
herufi	-12.9825
kura	-12.9825
vifaa	-12.9826
jamii	-12.9826
utulivu	-12.9826
type	-12.9827
kupanga	-12.9828
mtumiaji	-12.9828
uharibifu	-12.9829
Usafiri	-12.983
Andika	-12.983
usalama	-12.9831
const	-12.9831
▁Huni	-12.9832
ukweli	-12.9833
wima	-12.9833
Unda	-12.9834
Soko	-12.9834
mwaka	-12.9835
equation	-12.9837
kumi	-12.9837
wetu	-12.9839
Mwanga	-12.984
Bo	-12.9842
zamani	-12.9843
oy	-12.9844
mada	-12.9846
▁Hum	-12.9847
milele	-12.9847
Sheria	-12.9851
▁yanawakilish	-12.9852
upitishwa	-12.9852
▁Utu	-12.9852
Tuna	-12.986
zulia	-12.9861
vile	-12.9862
izwa	-12.9862
Unganisha	-12.9862
book	-12.9863
hat	-12.9866
▁aliingi	-12.9866
vuruga	-12.9868
Mwisho	-12.9872
leza	-12.9875
Kufikiri	-12.9885
matendo	-12.9885
▁imeongez	-12.9888
itaweza	-12.9889
jinsi	-12.989
nachotaka	-12.9895
dog	-12.9897
file	-12.9897
buniwa	-12.9898
(2)	-12.9903
king	-12.9906
Hatua	-12.991
▁49.	-12.9913
next	-12.9915
Ongez	-12.9915
Tayari	-12.9924
Toa	-12.9928
Man	-12.9928
ds	-12.9932
▁(17	-12.9934
▁kumfany	-12.9939
mko	-12.9944
pengine	-12.9945
▁Vif	-12.9947
max	-12.9949
▁nilivyo	-12.9951
.2%	-12.9951
▁huk	-12.9952
▁Bre	-12.9952
Mji	-12.9955
ese	-12.9956
▁asteroid	-12.9968
▁yanaleng	-12.9968
Kasi	-12.9972
450	-12.9972
▁kutowa	-12.9974
uwahimiz	-12.9974
▁yanahusish	-12.9974
berry	-12.9976
▁yalim	-12.9977
VM	-12.9977
▁kufahami	-12.9979
misha	-12.9979
wewe	-12.998
Fungu	-12.998
ash	-12.9982
------+	-12.9982
▁kumuu	-12.9983
rink	-12.9985
mary	-12.9991
▁GP	-12.9996
ekalu	-12.9997
wing	-13.0001
ste	-13.0001
mti	-13.0007
Baha	-13.0007
fikiwe	-13.0008
ahiri	-13.0009
10.:	-13.0012
artz	-13.0017
uwasaidia	-13.0019
kika	-13.0027
▁zilivyo	-13.003
rb	-13.0036
kasimama	-13.0044
sanaa	-13.0057
▁hufungu	-13.0068
▁miko	-13.0071
Kuanzisha	-13.0071
▁Anaend	-13.0072
uth	-13.008
▁She	-13.0082
▁tunge	-13.0083
alio	-13.0085
imeandikwa	-13.0099
washiriki	-13.0099
(2	-13.01
▁Shu	-13.0112
emp	-13.0117
Uhandisi	-13.0119
▁umekumba	-13.0124
nunuzi	-13.0125
▁Mur	-13.0126
890	-13.0127
▁inati	-13.0128
Kamba	-13.0129
dogo	-13.0129
sainiwa	-13.0133
▁inayoelekez	-13.0136
ew	-13.0139
ndwa	-13.0142
▁Msani	-13.0146
ongezwa	-13.0146
▁alikabili	-13.0146
▁Kilicho	-13.0149
ips	-13.0157
▁Ninapo	-13.0159
ines	-13.016
cus	-13.016
kipata	-13.0161
afundish	-13.0161
▁amem	-13.0162
GGA	-13.0163
▁niliend	-13.0168
uepuka	-13.0169
1500	-13.017
ehe	-13.0175
▁Chris	-13.0175
▁ulilet	-13.0175
Mtumiaji	-13.0177
▁Pie	-13.0177
▁22.	-13.0178
ME	-13.0185
gombea	-13.0187
▁kufungu	-13.0188
yobainishwa	-13.0194
atic	-13.0195
▁Ed	-13.0195
nagram	-13.02
▁Kuch	-13.0201
▁kunguru	-13.0204
▁Cra	-13.0204
▁Nikiwa	-13.0205
9.8	-13.0206
▁------	-13.0207
house	-13.0209
▁Bel	-13.0211
wekezaji	-13.0217
unapenda	-13.022
yakua	-13.022
▁humpa	-13.0223
▁pl	-13.0224
af	-13.0225
kufunzi	-13.0225
Kufu	-13.0226
hamiaji	-13.023
sitawish	-13.0233
mea	-13.0239
dishwa	-13.024
▁Ann	-13.0242
nIli	-13.0244
Tuli	-13.0248
malizia	-13.0252
▁180	-13.0255
ms	-13.0255
berries	-13.0265
zungumz	-13.0271
GAG	-13.0271
burudisha	-13.0271
akisiwa	-13.0278
▁Plu	-13.0284
med	-13.0289
▁Dum	-13.0295
▁uongez	-13.0297
ambukiza	-13.0297
rifa	-13.0298
▁anayeji	-13.03
salimi	-13.03
Pod	-13.0301
▁rej	-13.0304
▁kufifi	-13.0304
▁kufua	-13.0305
▁96	-13.0306
▁hyperparamet	-13.0307
▁mnyam	-13.0309
▁matund	-13.0309
▁kuzam	-13.0309
▁Gab	-13.0312
▁ujio	-13.0312
▁yanahimiz	-13.0315
▁kulazimish	-13.0315
▁kufunik	-13.0317
popo	-13.0319
▁Indi	-13.0319
▁Anaye	-13.032
digit	-13.0322
field	-13.0323
▁ametum	-13.0324
stro	-13.0325
chekesha	-13.0325
ladi	-13.0327
▁wakipa	-13.0329
ub	-13.0331
jasiri	-13.0331
param	-13.0338
▁alivyo	-13.0338
funguli	-13.0341
▁kuongeze	-13.0344
▁milim	-13.0345
riketi	-13.0347
bel	-13.0349
▁Saba	-13.0349
▁Rid	-13.035
itengenez	-13.035
jenda	-13.0351
▁800	-13.0351
hibiti	-13.0357
neakers	-13.0357
thubutu	-13.0357
▁akipepe	-13.036
onald	-13.0361
siyoonekana	-13.0362
▁wanaji	-13.0363
dhihirika	-13.0363
▁+----	-13.0364
tayarishwa	-13.0366
lemewa	-13.0366
▁Cri	-13.0366
sanifu	-13.0366
fadhaika	-13.0366
vumbua	-13.0366
sakinishwa	-13.0367
ence	-13.0367
▁ulinganish	-13.0368
kodisha	-13.0368
kanyag	-13.0368
tofautisha	-13.0368
ridhisha	-13.0369
Simu	-13.0369
bele	-13.037
wiani	-13.037
gramu	-13.037
ilifanyika	-13.037
hash	-13.0371
gawaji	-13.0371
▁kutoshe	-13.0371
fect	-13.0372
▁inazu	-13.0372
▁ujaz	-13.0372
kubaliani	-13.0372
▁pentagon	-13.0372
elekezi	-13.0373
krini	-13.0373
pumuaji	-13.0374
▁muffin	-13.0374
kabaila	-13.0374
siyemjua	-13.0374
itengo	-13.0375
karabati	-13.0375
danganyifu	-13.0375
bepari	-13.0375
rekebishe	-13.0375
inch	-13.0375
angalifu	-13.0375
CDE	-13.0376
▁Mate	-13.0376
815	-13.0376
kokoteni	-13.0376
ashtag	-13.0377
salaba	-13.0377
gatuliwa	-13.0377
huzunika	-13.0377
390	-13.0377
igahawa	-13.0377
apungufu	-13.0378
binguni	-13.0378
allows	-13.0378
pachikaji	-13.0378
asasisho	-13.0378
igezo	-13.0378
amerika	-13.0378
▁Mwanzo	-13.0379
blog	-13.0379
ambatishwa	-13.038
ibinadamu	-13.038
urubai	-13.038
ilomita	-13.038
uzaliana	-13.038
▁Cream	-13.038
kosoa	-13.038
akteria	-13.038
aaluma	-13.038
▁karafu	-13.0381
nusurika	-13.0381
intaksia	-13.0381
▁uchanganu	-13.0381
onsole	-13.0382
hangwe	-13.0382
review	-13.0382
achweo	-13.0382
uigi	-13.0382
orig	-13.0382
ambarau	-13.0382
climate	-13.0382
erivati	-13.0382
-2021/	-13.0382
nereta	-13.0382
/2020/09/	-13.0382
Mondrian	-13.0382
inated	-13.0382
▁Hypot	-13.0382
/2021/0	-13.0382
marine	-13.0382
▁VVU	-13.0382
Brillouin	-13.0382
recursive	-13.0382
position	-13.0382
Gruy	-13.0382
▁Jirani	-13.0382
▁Kantianism	-13.0382
▁Kimeksiko	-13.0382
▁Nissan	-13.0382
▁Secret	-13.0382
▁Stonewall	-13.0382
▁Thermodynamics	-13.0382
▁barbeque	-13.0382
▁fotoni	-13.0382
▁public	-13.0382
▁router	-13.0382
▁subjunctive	-13.0382
Backstreet	-13.0382
Coffee	-13.0382
Impressionis	-13.0382
Madereva	-13.0382
UMI	-13.0382
activity	-13.0382
affodils	-13.0382
andikwe	-13.0382
bahatika	-13.0382
beberu	-13.0382
cloud	-13.0382
dvice	-13.0382
elulosi	-13.0382
fruit	-13.0382
ghairi	-13.0382
hunberg	-13.0382
ipandikiz	-13.0382
jilimbikiz	-13.0382
kibaguzi	-13.0382
kunjamana	-13.0382
morpho	-13.0382
[...]
